<unk>	0
<s>	0
</s>	0
▁в	-3.00275
▁на	-3.89675
▁с	-4.30432
▁	-4.35913
▁и	-4.43555
▁за	-4.64742
▁по	-4.87464
▁о	-4.87831
л	-4.92197
ный	-4.94101
▁не	-5.08173
▁иза	-5.13926
а	-5.33828
ский	-5.39951
▁от	-5.43903
▁россия	-5.47945
▁к	-5.50116
▁для	-5.60469
▁что	-5.61843
▁у	-5.62262
▁новый	-5.62315
▁область	-5.73283
▁год	-5.80148
▁есть	-5.85479
▁19	-5.92568
ка	-5.93338
▁до	-5.98589
▁как	-5.98821
▁украина	-6.00162
▁covid	-6.01297
▁человек	-6.1087
ся	-6.12158
▁рассказал	-6.12434
▁коронавируса	-6.16085
▁май	-6.19029
с	-6.1911
▁коронавирусом	-6.19505
▁под	-6.21756
е	-6.22069
я	-6.25117
▁могу	-6.27905
▁об	-6.3021
о	-6.30834
з	-6.331
ен	-6.33709
т	-6.34627
▁посол	-6.34717
▁москва	-6.35582
▁—	-6.3883
▁дел	-6.40108
▁США	-6.4355
▁весь	-6.45624
▁стал	-6.46999
▁видео	-6.52045
ов	-6.5424
й	-6.57088
▁российский	-6.57729
у	-6.58424
▁победа	-6.60852
▁два	-6.61015
▁рубль	-6.61305
▁который	-6.61658
д	-6.61708
ы	-6.62335
▁дом	-6.6307
▁житель	-6.63208
▁назвал	-6.63891
м	-6.66256
▁коронавирус	-6.66913
к	-6.67334
ый	-6.6786
▁свой	-6.69783
в	-6.7074
▁а	-6.71846
▁карантин	-6.72602
▁раз	-6.73724
▁тысяча	-6.73896
▁работа	-6.74185
▁первый	-6.75547
▁без	-6.7579
▁про	-6.75824
ть	-6.7614
▁более	-6.76679
▁район	-6.78688
н	-6.78891
▁этот	-6.78946
▁2020	-6.7952
▁глава	-6.79529
▁петербург	-6.79817
▁РФ	-6.80862
и	-6.82362
▁один	-6.83155
▁оно	-6.83425
ю	-6.83654
▁со	-6.84024
▁вы	-6.84621
▁получил	-6.85636
▁путина	-6.87343
▁я	-6.89162
х	-6.90046
▁россиянин	-6.90341
р	-6.9299
▁ребёнок	-6.95014
▁пря	-6.9625
▁режим	-6.9666
▁заявил	-6.96972
▁фото	-6.9748
▁самый	-6.98019
ил	-6.98101
▁день	-6.98452
▁случай	-6.9878
▁млн	-6.98925
▁10	-7.00392
ий	-7.02016
сь	-7.04101
ж	-7.04408
▁самоизоляция	-7.05673
ь	-7.06289
▁время	-7.06722
б	-7.072
▁пере	-7.08089
▁число	-7.08187
▁мужчина	-7.08363
▁еще	-7.08365
▁сутки	-7.08378
▁суд	-7.08835
▁начал	-7.08911
п	-7.09287
▁2	-7.09419
г	-7.09639
▁миро	-7.09891
▁киев	-7.1068
та	-7.10905
на	-7.11005
▁при	-7.12136
▁врач	-7.12431
▁пандемия	-7.12494
▁больница	-7.13447
ить	-7.1364
▁власть	-7.14102
▁летний	-7.16728
▁онлайн	-7.16961
ник	-7.1724
▁регион	-7.18448
ок	-7.19618
▁появился	-7.20102
ом	-7.20793
▁против	-7.20889
ли	-7.22278
ст	-7.23366
ч	-7.25957
▁5	-7.26022
ин	-7.26066
▁хочу	-7.26544
▁ли	-7.26744
▁помощь	-7.26867
▁президент	-7.27589
▁СМИ	-7.27638
▁9	-7.27706
▁водитель	-7.28259
▁пожар	-7.28714
▁центр	-7.291
▁1	-7.29942
▁маска	-7.30205
▁страна	-7.30366
▁но	-7.30458
ия	-7.30709
ер	-7.30767
ец	-7.31626
▁ноябрь	-7.3172
▁мы	-7.32486
ла	-7.3262
овый	-7.32904
ой	-7.33
▁украинский	-7.34104
▁ДТП	-7.34372
▁военный	-7.35012
▁тот	-7.3538
ф	-7.35648
▁главный	-7.35662
▁умер	-7.36363
▁женщина	-7.36693
▁три	-7.37007
▁показал	-7.37086
да	-7.37255
▁погиб	-7.37686
▁почему	-7.37906
▁какой	-7.3878
▁экс	-7.38813
ной	-7.39324
▁матч	-7.39581
▁12	-7.39697
▁почтил	-7.40006
▁эксперт	-7.40011
ев	-7.41129
▁крым	-7.41581
щий	-7.41996
ение	-7.4213
▁место	-7.42486
▁депутат	-7.4253
▁медик	-7.42718
▁сезон	-7.42868
ие	-7.43467
▁20	-7.44215
за	-7.44251
▁полиция	-7.4441
ль	-7.44658
ки	-7.45082
▁над	-7.45689
▁город	-7.45718
▁неделя	-7.45768
▁15	-7.4633
▁трамп	-7.46372
▁проект	-7.4669
▁они	-7.46778
▁миллион	-7.46887
он	-7.47214
ор	-7.47315
ра	-7.47463
▁3	-7.47592
▁автомобиль	-7.48612
▁предложи	-7.487
▁наслал	-7.48849
бы	-7.48855
▁пациент	-7.49087
▁акция	-7.49092
▁кто	-7.49095
ш	-7.49202
▁второй	-7.49666
ет	-7.49883
▁война	-7.50857
▁11	-7.50875
▁деньга	-7.51565
▁улица	-7.51935
ей	-7.52312
ал	-7.5255
▁лучший	-7.52623
ма	-7.52904
ск	-7.53016
ля	-7.53105
ан	-7.53371
ать	-7.53779
▁рынок	-7.53795
ко	-7.53978
▁бизнес	-7.54661
▁сообщил	-7.54805
▁цена	-7.55956
▁задержал	-7.56518
ьный	-7.58203
▁китай	-7.58387
ре	-7.58559
▁объяснил	-7.58614
▁жизнь	-7.58788
▁больше	-7.59294
▁сотрудник	-7.59636
ни	-7.59657
ность	-7.60217
▁компания	-7.61057
▁поддержка	-7.62498
▁м	-7.62503
▁4	-7.63209
▁школа	-7.63378
▁тыс	-7.63961
ство	-7.64317
но	-7.65138
▁когда	-7.6519
щ	-7.65197
ро	-7.66093
▁край	-7.66157
▁борьба	-7.66322
▁уж	-7.66665
▁ученые	-7.66721
ва	-7.66925
▁млрд	-7.67466
▁2019	-7.67533
ри	-7.68307
га	-7.68465
▁назван	-7.69179
▁закон	-7.69237
▁полицейский	-7.69296
▁украинец	-7.69737
▁зеленский	-7.69962
▁правительство	-7.7116
аю	-7.71194
▁семья	-7.71521
▁сеть	-7.72017
ический	-7.72156
▁открыл	-7.73053
▁сборный	-7.73107
ло	-7.73528
▁евро	-7.74017
▁п	-7.74675
▁ограничение	-7.74969
▁чере	-7.75042
▁донбасс	-7.75213
ем	-7.75253
▁условие	-7.75525
▁продажа	-7.75775
▁история	-7.75868
▁заражение	-7.75935
▁минздрав	-7.76372
▁смерть	-7.76497
▁выплата	-7.7716
ку	-7.77534
▁дело	-7.77552
об	-7.7776
▁авто	-7.77839
▁мера	-7.78133
i	-7.78324
ист	-7.78388
▁известен	-7.79275
▁ситуация	-7.7973
▁призва	-7.79827
▁себя	-7.79893
▁газ	-7.80396
y	-7.81053
▁детский	-7.81107
вер	-7.81245
▁праздник	-7.8137
▁апрель	-7.81635
▁смог	-7.81669
2	-7.81884
▁фильм	-7.82568
▁план	-7.82689
го	-7.82918
са	-7.8324
▁х	-7.83312
▁игра	-7.83465
▁ветеран	-7.84383
ар	-7.84821
▁владимир	-7.85069
5	-7.85195
▁количество	-7.85523
▁рост	-7.85789
▁подмосковье	-7.85872
▁нужен	-7.86182
ую	-7.8635
▁губернатор	-7.86737
s	-7.86866
те	-7.8687
по	-7.87358
▁срок	-7.87476
▁конец	-7.87914
▁30	-7.87982
вший	-7.88049
▁вырос	-7.88109
ди	-7.88981
▁6	-7.89133
▁принял	-7.89398
▁где	-7.89416
▁нефть	-7.89427
▁причина	-7.89467
ик	-7.89802
▁провёл	-7.89871
4	-7.90871
ос	-7.90938
▁госдума	-7.9127
▁путин	-7.91315
▁выявил	-7.9138
▁вопрос	-7.91747
▁бывший	-7.91885
▁больной	-7.92046
овой	-7.92647
им	-7.92704
▁дал	-7.92889
▁из	-7.9342
▁месяц	-7.93486
▁участие	-7.93603
▁объявил	-7.94047
▁перед	-7.94111
▁попал	-7.94125
▁8	-7.94174
▁можно	-7.94235
лся	-7.94355
▁7	-7.94536
▁дорога	-7.94689
▁д	-7.94813
ина	-7.94924
▁ш	-7.95364
▁доллар	-7.95409
▁он	-7.95506
▁игрок	-7.95867
▁кредит	-7.9614
▁де	-7.96281
▁пять	-7.9646
1	-7.96532
▁100	-7.96585
▁14	-7.96749
▁запустил	-7.96877
▁смартфон	-7.9702
▁13	-7.97052
альный	-7.97192
▁данный	-7.97257
▁прошёл	-7.97351
▁клуб	-7.97369
▁зарплата	-7.97563
▁вода	-7.97786
▁футбол	-7.97949
▁планирую	-7.98015
▁квартира	-7.98088
▁решение	-7.98109
ти	-7.98151
▁министр	-7.98187
▁нарушение	-7.98343
▁вышел	-7.98425
ба	-7.98504
▁погода	-7.98557
▁представил	-7.98658
▁другой	-7.98731
▁s	-7.98996
▁банк	-7.99101
▁магазин	-7.99328
ит	-7.9933
ру	-7.99423
▁строительство	-7.9946
▁18	-7.99532
▁заболевший	-7.99685
от	-8.00021
▁беларусь	-8.00083
▁продлил	-8.00402
▁16	-8.00883
ц	-8.01058
▁группа	-8.01368
▁ре	-8.02293
▁оценил	-8.02587
▁должен	-8.02629
3	-8.0275
ча	-8.03174
ат	-8.03213
▁г	-8.0335
ав	-8.03598
▁убийство	-8.03697
ова	-8.03879
▁европа	-8.03934
d	-8.04109
▁большой	-8.04236
ня	-8.0496
▁только	-8.05196
6	-8.05472
▁25	-8.05513
▁граница	-8.05546
▁выборы	-8.05642
▁ф	-8.05683
ме	-8.05989
▁гражданин	-8.06336
▁ФОТО	-8.06591
▁17	-8.06973
▁впервые	-8.07317
▁чемпионат	-8.07387
▁пострадал	-8.07403
▁мэр	-8.0803
▁машина	-8.08201
▁пассажир	-8.08222
К	-8.08285
▁северный	-8.08453
▁сирия	-8.08569
прокомментировал	-8.08916
▁система	-8.08947
▁сегодня	-8.09089
▁прогноз	-8.09149
▁программа	-8.09354
▁или	-8.09428
▁харьков	-8.0948
▁екатеринбург	-8.09967
▁тренер	-8.10057
не	-8.10075
лю	-8.10104
▁конкурс	-8.10146
g	-8.10321
ица	-8.10392
7	-8.10568
▁остался	-8.10586
▁э	-8.10653
▁владивосток	-8.10941
▁проблема	-8.1103
8	-8.11032
▁обнаружил	-8.1127
▁помог	-8.11378
ён	-8.11489
▁сын	-8.1197
ман	-8.1244
▁отношение	-8.12644
▁нет	-8.12687
до	-8.13314
▁приморье	-8.13325
▁часть	-8.13332
мен	-8.13547
▁выход	-8.13618
▁кабмин	-8.1383
▁мать	-8.14025
ирую	-8.14064
си	-8.14134
▁скандал	-8.14194
▁земля	-8.14194
де	-8.14509
ировать	-8.14532
▁карта	-8.15183
▁скончался	-8.15534
▁если	-8.15535
▁уровень	-8.15721
▁штраф	-8.1575
▁ремонт	-8.16303
▁школьник	-8.16329
u	-8.16597
▁чиновник	-8.16705
▁рас	-8.16853
ми	-8.16883
▁последний	-8.16988
▁решил	-8.17092
▁нижегород	-8.17207
▁казахстан	-8.173
ах	-8.17497
оп	-8.17681
▁татарстан	-8.17842
ис	-8.17982
ков	-8.18088
▁бюджет	-8.1834
во	-8.18727
▁50	-8.18885
▁пост	-8.18893
▁топ	-8.18902
▁поздравил	-8.19281
▁жертва	-8.19292
▁устроил	-8.19475
▁совет	-8.19489
вёл	-8.19497
▁считал	-8.19998
▁МИД	-8.20008
лов	-8.20075
▁народ	-8.20145
▁дата	-8.20318
▁быть	-8.20807
юсь	-8.20852
▁память	-8.209
▁сделал	-8.20987
▁разрешил	-8.21109
▁коми	-8.21335
▁отказался	-8.21526
▁омский	-8.21736
▁новость	-8.21931
▁начало	-8.22173
▁турция	-8.22181
▁одесса	-8.22223
▁экономика	-8.22424
ного	-8.22469
▁девушка	-8.22472
▁мировой	-8.22722
э	-8.22771
▁она	-8.22784
▁башкирия	-8.22922
▁музей	-8.22922
▁около	-8.22923
▁кон	-8.2334
▁ставрополье	-8.23678
▁произошёл	-8.23778
▁средство	-8.23879
▁т	-8.24066
▁июнь	-8.24335
▁интернет	-8.24847
▁75	-8.25043
▁результат	-8.25152
▁снова	-8.25246
▁встреча	-8.25357
С	-8.25427
▁заразился	-8.25471
мо	-8.25645
▁ночь	-8.25838
▁корабль	-8.25975
▁движение	-8.25975
▁трасса	-8.26027
ша	-8.26202
▁бы	-8.26529
из	-8.26618
▁зеленского	-8.26653
▁лидер	-8.26683
▁команда	-8.27119
▁з	-8.27216
▁ее	-8.27489
ам	-8.27526
t	-8.27581
инг	-8.27681
▁так	-8.27699
▁уголовный	-8.27747
▁американский	-8.28013
▁тульский	-8.28063
нов	-8.28274
▁ни	-8.2833
▁предприятие	-8.28739
▁предупредил	-8.28858
▁польша	-8.28924
▁международный	-8.29071
▁кор	-8.29184
▁заявление	-8.29338
ста	-8.29383
▁способ	-8.2951
▁студент	-8.29662
▁метро	-8.29744
▁автобус	-8.29855
▁контракт	-8.29927
▁ку	-8.29934
▁московский	-8.30089
e	-8.30131
▁динамо	-8.3019
▁роспотребнадзор	-8.30304
▁фонд	-8.30624
r	-8.30735
▁дагестан	-8.30791
▁ответил	-8.309
▁обсудил	-8.30921
▁защита	-8.30954
тер	-8.30975
▁транспорт	-8.31109
▁выявлен	-8.3122
9	-8.31474
Н	-8.31602
▁мост	-8.31617
▁связь	-8.31717
▁германия	-8.321
▁продукт	-8.32621
▁майский	-8.32796
▁двое	-8.32928
▁пройдет	-8.33012
▁журналист	-8.33112
ак	-8.33201
▁открылся	-8.33384
оказался	-8.3356
▁премьера	-8.33568
ке	-8.33908
ился	-8.33965
▁пьяный	-8.34001
▁чемпион	-8.34119
▁готов	-8.34555
▁участник	-8.34716
ве	-8.34912
ние	-8.35094
П	-8.3516
▁взрыв	-8.35168
ая	-8.35198
o	-8.35436
ур	-8.35545
▁период	-8.35622
▁курс	-8.35836
▁сергей	-8.35964
▁угроза	-8.35964
▁предлагаю	-8.36021
▁превыси	-8.36594
▁отправил	-8.36659
то	-8.36752
▁спас	-8.36752
▁массовый	-8.36799
▁омск	-8.36912
▁пострадавший	-8.36997
▁предприниматель	-8.37171
▁работать	-8.37219
▁прав	-8.37338
▁22	-8.37464
▁лукашенко	-8.37518
▁летие	-8.37634
▁закрыл	-8.37646
k	-8.37673
▁развитие	-8.37692
▁домашний	-8.37692
▁пытаюсь	-8.37696
▁открытие	-8.37765
▁директор	-8.37866
лен	-8.38137
ница	-8.38262
▁ЕС	-8.38275
▁сбил	-8.38634
▁подтвердил	-8.3864
▁вернулся	-8.3873
▁скорый	-8.38855
▁прокуратура	-8.38978
▁рейс	-8.39096
▁выпустил	-8.3923
▁кубань	-8.39451
ость	-8.39514
▁ребенка	-8.39568
▁русский	-8.39804
▁погибший	-8.39823
▁производство	-8.39865
▁правлю	-8.39897
▁гос	-8.40123
ель	-8.40151
▁поддержал	-8.4058
▁краснодар	-8.40606
▁жена	-8.40654
▁запрет	-8.40767
▁тверской	-8.40999
▁авария	-8.41009
пол	-8.41127
▁кар	-8.41146
▁состояние	-8.41367
ум	-8.4158
▁александра	-8.41597
▁звезда	-8.41629
▁прошу	-8.417
▁рабочий	-8.42086
▁кубок	-8.42156
И	-8.42184
▁кремль	-8.42278
па	-8.42303
▁завод	-8.42335
▁четыре	-8.4235
▁ди	-8.42398
▁выходной	-8.42411
▁лига	-8.42415
▁девочка	-8.42511
▁начался	-8.42678
▁территория	-8.42694
овский	-8.4274
▁информация	-8.43307
▁создал	-8.43553
▁итог	-8.43614
▁ми	-8.43668
ейший	-8.43879
ской	-8.43903
▁возможность	-8.44172
▁гр	-8.44185
▁казань	-8.44235
▁установил	-8.44295
▁пред	-8.44403
ус	-8.44487
▁дочь	-8.445
▁сколько	-8.44563
ных	-8.44611
▁футболист	-8.44922
▁турист	-8.45149
▁бо	-8.45262
кин	-8.45543
▁несколько	-8.45615
▁список	-8.45858
▁снял	-8.45915
ид	-8.46114
▁сад	-8.46193
▁рейтинг	-8.46301
▁великий	-8.46371
енко	-8.46376
▁ла	-8.4661
▁бурятия	-8.46618
▁продолжаю	-8.4672
ту	-8.46807
ева	-8.4686
▁бой	-8.46921
▁c	-8.46985
ез	-8.47036
ные	-8.47118
▁подросток	-8.47575
▁подробность	-8.47707
c	-8.47873
ви	-8.47892
▁слово	-8.47918
▁между	-8.48022
гу	-8.48039
ги	-8.48244
▁бесплатный	-8.48283
▁боевик	-8.48283
▁имя	-8.4843
▁этап	-8.48544
▁раскрыл	-8.48606
▁аэропорт	-8.49192
▁работаю	-8.49224
▁получить	-8.49388
тор	-8.49432
▁ищу	-8.49451
▁италия	-8.49496
ну	-8.49631
▁парок	-8.49836
▁протест	-8.49837
▁медицинский	-8.4991
▁24	-8.50101
▁каждый	-8.50108
▁ростов	-8.5023
▁рекорд	-8.50315
▁эпидемия	-8.50371
ты	-8.50432
▁курган	-8.50578
▁су	-8.50628
очный	-8.50839
▁ставрополь	-8.50899
▁законопроект	-8.509
▁отменил	-8.51033
А	-8.51035
▁40	-8.51073
▁200	-8.51153
▁мусор	-8.51169
▁волгоград	-8.51178
▁ма	-8.51504
▁бу	-8.51575
▁общественный	-8.51633
▁спорт	-8.51728
▁дождь	-8.51766
▁21	-8.51777
▁мо	-8.51862
▁единый	-8.519
▁крупный	-8.5197
▁рада	-8.52042
▁упал	-8.52057
нул	-8.52147
▁будущий	-8.52167
▁пенсионер	-8.52195
▁ра	-8.52352
▁пропуск	-8.52388
▁грузия	-8.5252
▁андрей	-8.52654
про	-8.52808
▁ко	-8.52976
▁газпром	-8.52985
▁р	-8.53263
▁попросил	-8.53587
▁переход	-8.53634
▁СК	-8.53783
▁коронавирусу	-8.53802
▁минск	-8.54087
▁проверил	-8.54154
ово	-8.54194
ье	-8.54278
ание	-8.54348
▁ха	-8.54415
ши	-8.5446
тель	-8.54624
▁документ	-8.54821
▁МВД	-8.54959
▁f	-8.55004
▁дорог	-8.55022
▁стать	-8.55062
▁версия	-8.55097
▁проверка	-8.55098
▁трех	-8.55115
▁такой	-8.55194
b	-8.55241
▁парад	-8.55473
▁следующий	-8.5559
▁тамбов	-8.55715
▁состоялся	-8.55721
вести	-8.5588
▁песня	-8.55939
▁зараженных	-8.56013
ив	-8.56035
▁миллиард	-8.56141
▁лето	-8.56195
▁телефон	-8.56212
▁турнир	-8.56279
▁концерт	-8.56419
▁здоровье	-8.56772
▁пока	-8.56931
▁возвращение	-8.56982
▁муж	-8.57036
▁ростовский	-8.5709
▁стартую	-8.57141
фи	-8.57149
▁запретил	-8.57161
обвинил	-8.57171
▁поезд	-8.57326
ич	-8.57382
▁наш	-8.57392
пл	-8.57599
▁москвич	-8.57901
▁работник	-8.58043
▁сел	-8.58195
▁сбербанк	-8.58257
▁No	-8.58338
▁возможный	-8.58615
▁пропавший	-8.5875
▁the	-8.58759
▁песок	-8.5885
жен	-8.58917
▁декабрь	-8.59622
▁слуга	-8.59623
иться	-8.59638
▁тест	-8.59648
▁расследование	-8.59694
▁готовлюсь	-8.59701
▁памятник	-8.5971
▁медведев	-8.60152
▁отец	-8.60176
со	-8.6025
▁кризис	-8.60275
▁санкция	-8.60494
▁выступил	-8.60513
▁па	-8.60525
▁шесть	-8.6064
▁ВОЗ	-8.60713
лет	-8.6086
▁та	-8.61002
▁сервис	-8.61082
▁лицо	-8.61374
▁гор	-8.61409
яю	-8.61427
ел	-8.61574
▁требую	-8.61595
▁да	-8.61618
▁ветер	-8.61712
▁ради	-8.61726
▁петербургский	-8.61804
▁лечение	-8.61816
▁намерен	-8.61834
ай	-8.61869
a	-8.61958
I	-8.61961
▁стрельба	-8.61964
ду	-8.61974
▁вид	-8.6201
ры	-8.62375
ун	-8.62679
▁ожидаюсь	-8.62691
▁чер	-8.62817
▁одесский	-8.62857
▁собака	-8.62932
▁море	-8.63048
▁фестиваль	-8.63156
бор	-8.63169
▁опасный	-8.63233
▁театр	-8.63346
У	-8.63373
▁партия	-8.63381
▁новгород	-8.63383
вал	-8.63831
обещал	-8.63833
▁соцсеть	-8.63833
Б	-8.63834
би	-8.63972
▁шоу	-8.63984
▁среди	-8.63985
▁много	-8.64011
▁нижний	-8.64286
оль	-8.64356
▁честь	-8.6459
▁мурманский	-8.64657
ян	-8.64671
▁поток	-8.64696
▁днем	-8.64818
▁бессмертный	-8.64896
▁друг	-8.64904
дел	-8.64987
▁й	-8.65003
▁тесто	-8.65035
▁a	-8.651
▁признал	-8.65133
▁право	-8.65179
▁урал	-8.65207
▁ру	-8.65412
▁кр	-8.65696
▁мошенник	-8.65737
▁сериал	-8.65737
▁отметил	-8.65814
▁подозреваемый	-8.65968
▁челябинский	-8.66027
▁гу	-8.66056
▁средний	-8.66122
▁создание	-8.66142
енный	-8.66191
▁ряд	-8.66198
▁распространение	-8.66199
▁га	-8.66224
▁герой	-8.66232
er	-8.66648
▁кол	-8.66662
кий	-8.66702
овать	-8.66878
су	-8.66932
▁франция	-8.66975
▁вакцина	-8.67114
ес	-8.6712
аться	-8.67133
p	-8.67284
▁сочу	-8.67511
▁квартал	-8.67521
▁подписал	-8.67581
▁очень	-8.67679
О	-8.67865
од	-8.67944
че	-8.68118
Т	-8.68279
нес	-8.68335
чен	-8.68356
бе	-8.6839
сп	-8.6842
стро	-8.68427
▁задержан	-8.6856
▁свердловский	-8.68623
▁контроль	-8.68625
▁синоптика	-8.68781
▁опроверг	-8.6894
▁самолет	-8.6901
ция	-8.69158
▁поручил	-8.69319
ация	-8.69346
▁налог	-8.69387
▁участок	-8.69418
ываю	-8.69838
▁жду	-8.6987
аль	-8.69905
▁фон	-8.69954
n	-8.69989
ха	-8.70011
▁днепр	-8.70058
жа	-8.70091
▁волгоградский	-8.70365
▁снятие	-8.7038
се	-8.70449
▁аппарат	-8.70541
▁жительница	-8.70885
▁готовлю	-8.70901
▁лекарство	-8.71188
чик	-8.71218
дать	-8.71236
▁пу	-8.71296
▁заболевание	-8.71351
ран	-8.71383
▁стоило	-8.71432
бо	-8.71439
лу	-8.71537
▁порядок	-8.71677
пе	-8.71784
▁бр	-8.71825
▁же	-8.7193
▁горячий	-8.72006
▁сайт	-8.72013
▁все	-8.72017
иваю	-8.72066
чи	-8.72072
▁ленобласть	-8.72085
▁служба	-8.72168
пу	-8.72191
▁pro	-8.7226
▁прямой	-8.7227
▁окно	-8.72339
▁ан	-8.72367
▁ин	-8.72379
▁опубликовал	-8.72414
▁С	-8.72422
▁d	-8.72712
раз	-8.72797
▁выделил	-8.72854
нее	-8.72917
▁сильный	-8.72928
▁двор	-8.72959
▁жильё	-8.73156
▁23	-8.73161
уч	-8.73241
▁организация	-8.73244
▁финал	-8.73288
▁ещё	-8.73322
▁покупка	-8.73323
ут	-8.73368
▁зенит	-8.73405
ад	-8.73479
▁здание	-8.73488
ров	-8.73598
▁подозрение	-8.73654
▁саратовский	-8.73673
▁ООН	-8.73821
▁ты	-8.73828
▁предложение	-8.74
▁рука	-8.74036
▁переговоры	-8.74071
▁испания	-8.74072
▁зона	-8.74106
мин	-8.74125
▁столица	-8.74505
▁владелец	-8.74574
▁М	-8.74613
▁состав	-8.74658
▁израиль	-8.74658
▁пре	-8.74754
P	-8.74819
▁делать	-8.74901
▁возобновление	-8.74995
▁передал	-8.75125
▁петербуржец	-8.75164
▁южный	-8.75164
ир	-8.75208
▁тула	-8.75384
▁кино	-8.75551
ском	-8.75658
m	-8.7582
▁кузбасс	-8.75825
▁достиг	-8.75842
▁отечественный	-8.76012
лин	-8.76146
▁ВСУ	-8.76189
▁арест	-8.76206
▁ж	-8.76499
▁гривна	-8.76525
▁потребовал	-8.76525
▁безопасность	-8.76541
▁возобновил	-8.76562
▁спасатель	-8.76612
▁китайский	-8.76803
же	-8.7697
чка	-8.77105
мер	-8.77125
оз	-8.77149
▁ИВЛ	-8.77213
▁снижение	-8.77356
▁банка	-8.77445
▁иран	-8.77476
▁300	-8.77634
▁го	-8.77702
▁саратов	-8.77732
▁отмена	-8.77736
▁действие	-8.77818
▁ближ	-8.77898
▁нардеп	-8.77992
ек	-8.78045
▁ар	-8.7808
▁изменение	-8.7834
▁оштрафовал	-8.7834
▁снег	-8.78349
▁доход	-8.78489
▁найден	-8.78515
▁вновь	-8.78522
вел	-8.78537
▁молодой	-8.78617
▁серия	-8.78828
▁городской	-8.78946
▁попытка	-8.7904
▁станция	-8.79216
▁факт	-8.79249
▁советский	-8.79337
l	-8.79444
ера	-8.79451
▁алкоголь	-8.7948
▁дмитрия	-8.7948
▁собянин	-8.7948
▁обратился	-8.79494
▁масоч	-8.79665
▁опасность	-8.79746
▁население	-8.79835
▁фанат	-8.79842
▁опубликован	-8.79923
▁знак	-8.79924
▁представитель	-8.80011
▁жилой	-8.80012
ци	-8.80069
сто	-8.80165
▁родитель	-8.80285
авший	-8.80415
▁торговый	-8.8068
ант	-8.80767
ами	-8.80768
▁проведение	-8.8077
▁заболел	-8.80813
▁офис	-8.80995
▁35	-8.81028
▁бес	-8.8106
айший	-8.81181
аюсь	-8.81276
▁28	-8.81606
▁падение	-8.81621
ог	-8.81715
кс	-8.81721
ra	-8.81721
▁тело	-8.8176
▁модель	-8.81818
▁ставок	-8.81982
▁кур	-8.82039
ход	-8.82192
▁отказ	-8.82242
▁СБУ	-8.82344
ная	-8.82367
▁формат	-8.82585
▁парламент	-8.82617
ым	-8.82627
▁запорож	-8.82688
Р	-8.82725
▁фейк	-8.82744
▁27	-8.82814
▁МЧС	-8.8289
▁гот	-8.83028
цен	-8.8304
▁реал	-8.83142
▁вспышка	-8.83165
▁составил	-8.83267
▁убил	-8.83279
▁че	-8.83315
▁база	-8.83335
▁адвокат	-8.83348
▁армия	-8.8344
▁возле	-8.83533
▁ло	-8.83662
en	-8.83787
▁ответ	-8.83812
▁тренировка	-8.83868
▁прост	-8.83906
▁мая	-8.83958
an	-8.84023
иль	-8.84313
▁нож	-8.84466
▁канал	-8.84544
▁запорожье	-8.84567
Д	-8.84639
▁коронавирусе	-8.84641
ченко	-8.84659
▁g	-8.84783
▁б	-8.84868
вать	-8.84914
▁теперь	-8.84919
▁мэрия	-8.84971
▁победил	-8.84973
вин	-8.85007
▁apple	-8.85013
▁тепло	-8.85041
▁сила	-8.85121
▁ход	-8.85186
▁новосибирск	-8.85203
жд	-8.85438
▁семь	-8.85479
▁мороз	-8.85481
▁даже	-8.85501
евой	-8.8553
▁популярный	-8.85637
летний	-8.85648
▁ФСБ	-8.85667
▁террорист	-8.85804
▁пожалова	-8.85804
▁google	-8.85949
итель	-8.86097
▁пар	-8.86282
▁грожу	-8.86326
▁белоруссия	-8.86326
▁тюмен	-8.86363
▁труд	-8.86393
▁нельзя	-8.86421
ё	-8.8644
▁мама	-8.8649
▁государство	-8.8661
▁тюрьма	-8.8661
▁анонсирую	-8.86623
ять	-8.86625
тон	-8.86709
▁смертность	-8.8699
▁му	-8.87027
Г	-8.87036
ще	-8.8705
▁построил	-8.87086
▁мишустин	-8.8718
пи	-8.87238
▁оренбург	-8.87276
▁ц	-8.87313
▁подал	-8.87426
▁60	-8.87434
▁дерево	-8.87468
▁отставка	-8.87562
▁болезнь	-8.87753
▁обращение	-8.87753
▁пользователь	-8.87945
▁культура	-8.88042
цев	-8.8805
▁украл	-8.88155
национальный	-8.88168
in	-8.8817
▁ле	-8.88298
▁сыграл	-8.8833
▁стоимость	-8.88426
▁гран	-8.88493
▁увеличился	-8.88545
▁трое	-8.88545
al	-8.88615
▁премия	-8.8862
▁ша	-8.88682
уп	-8.88851
▁известный	-8.8891
▁судно	-8.89006
▁цифровой	-8.89007
▁выиграл	-8.89007
▁выставка	-8.89042
T	-8.89142
▁саакашвили	-8.89201
▁местный	-8.89302
▁оружие	-8.89396
▁мелитополь	-8.89493
▁руководитель	-8.89493
▁объект	-8.89591
▁знаю	-8.89592
▁идея	-8.89596
хо	-8.89598
▁b	-8.89603
▁воронеж	-8.89657
▁заразившийся	-8.89689
▁услуга	-8.89689
▁выпуск	-8.89691
▁кот	-8.89703
▁рождение	-8.89786
▁неизвестный	-8.89884
вод	-8.89923
▁29	-8.89959
▁одобрил	-8.9008
▁2021	-8.90095
▁НАТО	-8.90277
▁насилие	-8.90277
▁половина	-8.90277
ком	-8.90346
▁арестовал	-8.90389
▁удар	-8.90395
▁класс	-8.90396
▁ю	-8.90456
▁калининград	-8.90474
▁япония	-8.90508
▁увеличил	-8.90549
▁иномарка	-8.9067
▁минобороны	-8.9067
▁заработал	-8.90732
C	-8.90867
▁ждет	-8.90883
ед	-8.90963
▁трансляция	-8.90967
▁p	-8.90996
▁гороскоп	-8.91066
▁пункт	-8.91066
российский	-8.91092
гр	-8.91148
▁xiaomi	-8.91165
▁сообщение	-8.91165
▁операция	-8.91168
▁стар	-8.91191
▁избил	-8.91199
▁руб	-8.91312
▁белый	-8.91363
▁победитель	-8.91365
ых	-8.91396
▁лучше	-8.91465
▁очередной	-8.91491
инский	-8.91528
▁огонь	-8.91762
▁обвинение	-8.91867
пер	-8.92091
▁проспект	-8.92162
гор	-8.92187
▁ЕГЭ	-8.92262
▁площадь	-8.92262
f	-8.92272
ar	-8.92275
▁социальн	-8.92306
▁тариф	-8.92424
▁заседание	-8.92463
▁комитет	-8.92563
▁рад	-8.92691
▁изменился	-8.92863
▁инфекция	-8.92966
стра	-8.9303
▁мурманск	-8.93079
вар	-8.93124
▁тур	-8.9315
▁уфа	-8.93264
▁барселона	-8.93371
▁70	-8.93411
▁народный	-8.93453
▁линия	-8.93474
▁дополнительный	-8.93777
▁десяток	-8.93777
▁ри	-8.9382
раж	-8.93952
▁колония	-8.93981
▁400	-8.93995
▁завершил	-8.9417
бу	-8.94188
▁незаконный	-8.9439
ят	-8.94451
▁кима	-8.94532
▁сель	-8.94672
▁секрет	-8.94694
▁назад	-8.94714
ого	-8.94772
z	-8.9497
ше	-8.94974
▁мин	-8.95047
▁отреагировал	-8.95315
▁отсутствие	-8.95315
▁пенсия	-8.95316
▁красный	-8.95403
▁прибыл	-8.95411
▁оставил	-8.95419
▁раскритиковал	-8.95446
лан	-8.95621
игр	-8.95638
▁высокий	-8.95643
▁ресторан	-8.9573
▁требование	-8.95834
▁электронный	-8.95841
▁бизнесмен	-8.95852
рез	-8.95885
▁проходил	-8.95938
re	-8.9601
▁ошибка	-8.96042
▁реформа	-8.96042
▁камера	-8.96154
▁малый	-8.96301
▁самарский	-8.96358
▁свет	-8.96462
▁товар	-8.96552
▁алексей	-8.96786
▁порошенко	-8.96878
кр	-8.96893
▁сам	-8.96912
▁тестирование	-8.96996
▁река	-8.97049
▁локомотив	-8.97088
▁эфир	-8.97096
вшийся	-8.97135
▁маршрут	-8.97351
▁брат	-8.97351
▁гол	-8.97385
▁федеральный	-8.97404
▁уход	-8.97495
▁вуз	-8.97504
▁должность	-8.97517
▁ДНР	-8.97616
▁пенсионерка	-8.97715
▁рекордный	-8.97812
тельный	-8.97874
значил	-8.97921
▁грузовик	-8.97933
▁зима	-8.98041
▁парень	-8.98051
тов	-8.98119
▁е	-8.98124
атор	-8.98158
щи	-8.98279
▁язык	-8.98359
дер	-8.98428
▁вместе	-8.98577
▁открыть	-8.98612
▁500	-8.98649
▁форма	-8.98687
бер	-8.9877
▁член	-8.98803
▁старый	-8.98816
вы	-8.98922
▁взяток	-8.99012
▁осудил	-8.99072
▁i	-8.99257
▁90	-8.99287
М	-8.9941
▁запуск	-8.99412
прав	-8.99415
▁пропал	-8.99511
чу	-8.99514
▁ак	-8.99626
▁полный	-8.99662
▁уволил	-8.99749
ивший	-8.9975
▁говорю	-8.99754
▁золотой	-8.99844
▁v	-8.99864
▁мар	-8.99931
ана	-8.99992
ган	-8.99998
▁частный	-8.99998
▁рак	-9.00036
B	-9.00041
▁вирус	-9.0007
▁мед	-9.00181
▁азербайджан	-9.00187
▁зафиксирован	-9.00187
фор	-9.0036
▁бесплатен	-9.00404
▁ба	-9.00429
▁голова	-9.00494
▁завершение	-9.00524
▁специалист	-9.00731
▁кража	-9.00746
ович	-9.0078
▁иск	-9.00805
▁подготовка	-9.0084
нин	-9.00968
▁бе	-9.0097
▁пи	-9.0098
▁зафиксировал	-9.01059
олог	-9.01278
▁31	-9.01439
▁эл	-9.01479
▁сделать	-9.01499
▁ma	-9.01586
▁сан	-9.01624
▁сейчас	-9.01718
▁мальчик	-9.01723
▁потеря	-9.01734
▁снизился	-9.01874
изм	-9.01923
▁сторона	-9.01939
▁храм	-9.01939
▁алтай	-9.02049
зи	-9.02236
▁провести	-9.0235
▁сыктывкар	-9.02381
ская	-9.02399
▁норманд	-9.02492
▁изменил	-9.02494
w	-9.0263
ro	-9.02657
▁случаю	-9.02826
▁вернуть	-9.02944
▁тяжел	-9.02982
▁брянск	-9.03071
▁поль	-9.03111
▁сбор	-9.03117
▁боец	-9.03167
▁ожидаю	-9.03184
▁мой	-9.03237
рос	-9.03254
ии	-9.03324
▁воронежский	-9.03344
ную	-9.03481
сел	-9.03483
▁администрация	-9.03496
▁МВФ	-9.03721
▁конфликт	-9.03721
бил	-9.03739
▁m	-9.03756
▁столкнулся	-9.03834
▁приложение	-9.03855
це	-9.03868
кон	-9.03967
вор	-9.04009
аш	-9.04162
▁якутия	-9.04285
▁проведет	-9.04285
▁санкт	-9.04285
▁находился	-9.04285
▁x	-9.04305
▁индекс	-9.04381
▁животный	-9.04382
▁само	-9.04391
▁обещаю	-9.04398
▁перчатка	-9.04398
ика	-9.04419
▁активист	-9.04422
▁михаил	-9.04511
▁госпиталь	-9.04625
▁форум	-9.04636
лер	-9.04646
▁полк	-9.04683
▁налоговый	-9.04719
it	-9.04826
te	-9.04853
кор	-9.04898
мы	-9.05003
уш	-9.05023
▁потерял	-9.05029
▁заболеваемость	-9.05079
уд	-9.05107
▁долг	-9.05335
▁супер	-9.05447
овал	-9.0556
▁НХЛ	-9.05651
▁июль	-9.05657
вен	-9.05724
x	-9.05764
▁узнал	-9.05765
▁позиция	-9.05766
▁собираюсь	-9.05798
▁дон	-9.05853
овка	-9.0588
▁блогер	-9.05995
▁карелия	-9.05995
▁комплекс	-9.06067
▁спартак	-9.0611
▁сотня	-9.06112
▁челябинск	-9.06136
▁ка	-9.06184
▁приглашаю	-9.06225
▁симптом	-9.06225
▁гибель	-9.06228
ска	-9.06275
▁би	-9.06288
▁олег	-9.06317
З	-9.06334
▁проводил	-9.06359
шка	-9.06387
▁площадка	-9.06456
▁обнаружен	-9.06572
▁спрос	-9.06741
▁произоше	-9.06891
▁подозреваю	-9.06919
▁рамка	-9.0692
рон	-9.06998
▁официален	-9.07036
▁клиент	-9.07152
▁тверь	-9.07268
▁перенёс	-9.07321
▁анти	-9.07325
▁республика	-9.07375
ном	-9.07456
▁лес	-9.07462
иц	-9.07475
▁спец	-9.07512
место	-9.07518
онный	-9.07544
▁качество	-9.07622
▁80	-9.07676
▁прошел	-9.07739
ино	-9.07748
▁важный	-9.07761
▁риск	-9.07764
летел	-9.0781
▁нарушитель	-9.07852
▁сгорел	-9.07855
▁глаз	-9.07972
▁путь	-9.08028
▁благовещенск	-9.08087
ающий	-9.08207
▁управление	-9.08322
▁книга	-9.08323
город	-9.08426
ирован	-9.08429
▁взял	-9.08457
▁карьера	-9.08494
▁иностранный	-9.08558
▁великобритания	-9.08676
▁умерший	-9.08713
▁исследование	-9.08794
▁ливия	-9.08796
ул	-9.08849
▁П	-9.08851
▁красноярский	-9.08874
ван	-9.08876
▁пожарный	-9.08882
▁ту	-9.08926
▁прием	-9.09037
В	-9.09041
▁26	-9.09132
ъ	-9.09244
▁норма	-9.09262
▁автор	-9.09469
▁финансов	-9.09477
щик	-9.0958
▁меньше	-9.09673
▁любовь	-9.09745
▁восстановление	-9.09756
▁бар	-9.09805
ас	-9.09823
▁мероприятие	-9.09864
0	-9.09959
▁крупн	-9.09977
▁последствие	-9.09984
▁заявка	-9.10224
дор	-9.10275
▁европейский	-9.10344
▁волна	-9.10464
ящий	-9.10554
▁ЦБ	-9.10594
ll	-9.1068
▁мор	-9.10682
нуть	-9.1076
выше	-9.10818
▁восток	-9.10826
▁пл	-9.1087
▁чаща	-9.10946
▁открытый	-9.11125
▁рос	-9.11132
▁поставил	-9.11188
▁иркутский	-9.11251
▁яндекс	-9.11309
▁клип	-9.11311
▁руководство	-9.11431
▁отделение	-9.11468
▁вошёл	-9.11558
▁пешеход	-9.11565
le	-9.11683
▁направил	-9.11684
E	-9.11705
сон	-9.1174
▁часы	-9.11802
▁запад	-9.11815
▁размер	-9.11845
оло	-9.11856
тин	-9.11924
▁омич	-9.11943
▁свобода	-9.12041
▁интер	-9.12066
▁соглашение	-9.12162
▁след	-9.12174
жи	-9.12245
▁I	-9.12411
A	-9.12583
ственный	-9.12598
▁те	-9.12797
▁утро	-9.12812
▁проезд	-9.12844
воз	-9.12897
▁получение	-9.12906
▁вернул	-9.12933
▁александр	-9.13154
▁политика	-9.1321
▁соколов	-9.13259
▁НБА	-9.13269
▁источник	-9.13269
▁слух	-9.13272
el	-9.13405
▁СССР	-9.13517
▁масштаб	-9.13517
▁зелен	-9.13583
▁КХЛ	-9.13641
▁помогаю	-9.13858
▁игорь	-9.13891
▁разработал	-9.13945
ыш	-9.13994
изация	-9.14084
▁утвердил	-9.14263
▁поставка	-9.14264
▁продление	-9.1429
лы	-9.14387
▁сфера	-9.1452
▁пара	-9.14806
▁бер	-9.14822
▁отдых	-9.14843
вед	-9.14848
▁приговор	-9.15052
▁ВТБ	-9.15142
▁кличко	-9.15142
▁ракета	-9.15273
▁мак	-9.1528
лик	-9.15474
▁билет	-9.15542
ложил	-9.15647
▁$	-9.15755
▁столичный	-9.1579
▁секс	-9.15947
ряд	-9.16021
▁очередь	-9.16028
▁пермский	-9.16028
▁лу	-9.16221
S	-9.16269
▁смотреть	-9.16282
дорожный	-9.1629
бр	-9.16491
▁45	-9.16709
▁югра	-9.16711
▁бор	-9.16804
▁основный	-9.16922
▁сербия	-9.16922
▁торг	-9.17006
▁окончание	-9.1705
▁берег	-9.17064
h	-9.17093
▁сер	-9.17147
▁вывоз	-9.17168
ёр	-9.17204
▁краснодарский	-9.17253
▁спортсмен	-9.17307
др	-9.17413
ств	-9.17423
▁уникальный	-9.17437
▁сто	-9.17442
▁ответственность	-9.17565
▁загорелся	-9.17566
▁кадр	-9.17606
▁цветок	-9.17733
▁штаб	-9.17824
▁поделился	-9.17825
▁купить	-9.17872
▁грн	-9.1793
▁UFC	-9.17953
▁продолжил	-9.18083
▁пилот	-9.18084
павший	-9.18192
▁колледж	-9.18213
▁долог	-9.1824
▁союз	-9.18345
▁пресса	-9.18476
▁солдат	-9.18604
▁бел	-9.18685
▁резок	-9.18736
▁образ	-9.18762
▁хороший	-9.18789
защитный	-9.18822
on	-9.1884
▁РПЛ	-9.18865
▁восемь	-9.18865
▁поиск	-9.1889
▁договор	-9.18985
M	-9.19035
▁травма	-9.19056
ch	-9.19071
гин	-9.1911
▁интерес	-9.1917
▁прогнозирую	-9.19215
▁подготовил	-9.19258
▁возбудил	-9.19316
▁отмечаю	-9.1939
▁новогодн	-9.1939
▁оператор	-9.19395
▁нападение	-9.19521
очка	-9.19602
чный	-9.19617
▁воз	-9.19633
▁обязательный	-9.19655
▁зачем	-9.19658
эн	-9.19676
▁обстрел	-9.19756
et	-9.19785
▁of	-9.19822
▁готовность	-9.20035
сс	-9.20047
▁счет	-9.2007
лив	-9.20096
▁высказался	-9.20181
▁событие	-9.20181
▁шу	-9.20222
▁личный	-9.20315
нев	-9.20384
▁легковушка	-9.20447
▁сп	-9.20464
▁facebook	-9.2058
▁гроза	-9.2058
ень	-9.20591
▁си	-9.20598
▁Р	-9.20628
▁мемориал	-9.20713
▁совещание	-9.20713
▁верхов	-9.20716
▁красноярск	-9.20757
▁чен	-9.20794
▁детсад	-9.20846
▁час	-9.20865
▁юрий	-9.20881
or	-9.20928
нный	-9.20949
▁вернуться	-9.20976
▁пособие	-9.2098
▁рекомендация	-9.21114
▁начальник	-9.21114
▁аренда	-9.21121
▁мобильный	-9.21249
▁сумма	-9.21252
▁спортивный	-9.21262
му	-9.21372
род	-9.21414
нский	-9.21449
▁север	-9.21618
▁НБУ	-9.2165
▁областной	-9.21785
▁пики	-9.21804
▁сказал	-9.21817
▁возраст	-9.21946
▁третий	-9.22055
▁доступ	-9.22106
▁раскрыт	-9.22149
ированный	-9.22153
▁рекомендую	-9.2219
▁схема	-9.2219
▁чехия	-9.2219
▁испытание	-9.222
20	-9.22309
▁сотрудничество	-9.22325
▁тонна	-9.22327
иш	-9.22364
▁собственный	-9.22461
▁остановка	-9.22596
▁k	-9.22642
кой	-9.22662
▁обзор	-9.22668
▁нашёл	-9.22706
▁смертельный	-9.22732
▁продал	-9.2274
ur	-9.22802
юк	-9.22854
▁сердце	-9.22868
▁трейлер	-9.22868
▁киевский	-9.22981
▁полностью	-9.23004
▁имею	-9.23014
▁e	-9.2304
▁задержанный	-9.23284
▁признался	-9.23397
личный	-9.23431
ее	-9.23458
смотря	-9.23538
▁недо	-9.23548
▁общий	-9.23602
▁валюта	-9.23686
▁уверен	-9.23693
▁градус	-9.23697
▁кас	-9.23752
держ	-9.23811
ичный	-9.2382
▁пятница	-9.23826
▁крымский	-9.23882
▁пожилой	-9.23963
▁премьер	-9.24028
▁там	-9.24062
ук	-9.24071
▁мат	-9.24295
ского	-9.24353
▁ипотека	-9.24515
▁арсенал	-9.24654
R	-9.24705
▁вологда	-9.24796
▁huawei	-9.24931
▁вологодский	-9.24931
нт	-9.24982
▁учебный	-9.24997
лог	-9.25006
▁имущество	-9.2507
▁озвучи	-9.2507
▁белгородский	-9.25198
▁возглавил	-9.2521
тр	-9.2521
▁деталь	-9.25213
▁британ	-9.25216
Ф	-9.25304
ды	-9.25435
▁А	-9.25458
▁мошенничество	-9.25489
▁замглав	-9.2549
▁павел	-9.25525
ников	-9.25605
▁особый	-9.25629
▁сосед	-9.2563
▁ус	-9.2568
▁виртуальный	-9.25769
▁главврач	-9.25769
ительный	-9.25859
▁большинство	-9.2605
йский	-9.26066
жать	-9.26096
▁брянский	-9.26162
▁прове	-9.26221
▁кан	-9.26247
▁делаю	-9.26421
▁строитель	-9.26443
D	-9.26464
▁instagram	-9.26472
▁покинул	-9.26614
▁скор	-9.26621
▁ульяновский	-9.26677
▁объявлен	-9.26695
▁гибдд	-9.26755
▁реклама	-9.26755
▁митинг	-9.26755
ален	-9.26784
цов	-9.26862
ным	-9.26964
▁поймал	-9.27038
▁роля	-9.27042
▁подольск	-9.27176
▁маск	-9.27228
▁защитник	-9.27322
▁ночной	-9.27323
▁сделка	-9.27329
ег	-9.27352
▁актриса	-9.27465
рен	-9.27585
▁транзит	-9.27608
тив	-9.2773
▁нерабочий	-9.2775
тан	-9.27771
кар	-9.27778
▁вечер	-9.27832
▁новосибирский	-9.27888
▁О	-9.27893
▁воздух	-9.27894
шен	-9.28021
▁беглов	-9.28199
кова	-9.28352
▁ново	-9.28498
▁iphone	-9.28612
▁ООС	-9.28612
▁повышение	-9.28612
▁голос	-9.28784
▁виктор	-9.28815
▁пер	-9.28827
▁алматы	-9.28901
▁разговор	-9.28919
мир	-9.28958
▁компенсация	-9.29045
▁николай	-9.29045
▁старт	-9.29127
▁банковский	-9.29132
▁благодар	-9.29144
▁отремонтировал	-9.2919
▁ЧП	-9.2919
▁безработный	-9.29335
▁почта	-9.29341
▁хо	-9.2942
▁задержание	-9.29445
▁возобновить	-9.29481
▁выбрал	-9.29481
▁илона	-9.29494
▁Г	-9.29632
▁продуктовый	-9.29654
еч	-9.29727
▁бал	-9.29824
ап	-9.29883
▁исторический	-9.29918
▁проиграл	-9.30064
▁кафе	-9.30084
▁купил	-9.30167
un	-9.3021
il	-9.30303
эк	-9.30358
▁опрос	-9.30404
ирование	-9.30548
▁судья	-9.30587
▁насмерть	-9.30651
▁набор	-9.30681
▁экспорт	-9.30695
строить	-9.30708
нич	-9.30779
▁письмо	-9.30799
▁правда	-9.30812
▁собрал	-9.30874
▁образование	-9.30953
бот	-9.30969
▁треть	-9.30976
▁нижегородец	-9.31006
▁октябрь	-9.31083
▁реконструкция	-9.31094
▁среда	-9.311
us	-9.31236
▁нафтогаз	-9.31242
▁ребенок	-9.31242
▁некоторый	-9.3139
▁череповец	-9.3139
▁ольга	-9.31393
▁напал	-9.31408
▁жар	-9.3141
▁кра	-9.31417
рат	-9.31495
ые	-9.31514
▁звезд	-9.31628
▁преступление	-9.31697
▁самара	-9.31711
▁заместитель	-9.31836
▁использование	-9.3184
▁улан	-9.31917
▁ограничил	-9.31985
▁узбекистан	-9.31985
▁арбуз	-9.31985
еп	-9.31989
▁инвалид	-9.32283
зе	-9.32399
▁актер	-9.32401
▁психолог	-9.32544
▁центральный	-9.32548
ья	-9.32633
▁удэ	-9.32672
st	-9.32719
▁бюджетный	-9.32726
▁официальный	-9.32733
50	-9.32756
▁следователь	-9.32884
▁столкновение	-9.32884
▁указ	-9.32969
▁леса	-9.32979
▁гонка	-9.32984
чин	-9.33008
▁поправка	-9.33037
▁нью	-9.3304
цы	-9.33051
▁кат	-9.33117
▁экономический	-9.33206
▁гость	-9.3327
▁ослабление	-9.33488
▁samsung	-9.33639
▁подарок	-9.33641
▁парк	-9.33647
▁играть	-9.33717
сы	-9.33839
▁зодиак	-9.34095
мол	-9.34097
▁сразу	-9.34098
лед	-9.34104
ленный	-9.34111
▁продолжаюсь	-9.34153
▁65	-9.34233
▁въезд	-9.34248
▁поступил	-9.34513
▁зритель	-9.34553
▁h	-9.3459
▁принять	-9.34666
шин	-9.34765
▁ч	-9.34799
▁разработка	-9.34859
▁драка	-9.34862
▁никто	-9.34881
▁пермь	-9.35013
▁минимум	-9.35167
▁обязал	-9.35211
▁поездка	-9.35283
▁фигурант	-9.35332
▁белорусский	-9.35379
вяз	-9.35501
▁тре	-9.35589
год	-9.35603
▁шанс	-9.35652
▁лиш	-9.35741
▁ге	-9.35759
▁гендиректор	-9.35785
▁дистанционный	-9.35785
▁нога	-9.35834
▁снизил	-9.35875
тый	-9.35924
▁роналду	-9.3594
▁отопление	-9.3594
▁юбилей	-9.35999
ce	-9.36044
▁tesla	-9.36095
▁ЦСКА	-9.36095
▁отрасль	-9.36095
▁гер	-9.36138
▁производитель	-9.36208
▁белгород	-9.36211
▁куда	-9.36234
▁бельгия	-9.3625
▁вызвал	-9.36251
▁карантинный	-9.36285
▁хабаровский	-9.36312
▁ТОП	-9.36406
мет	-9.36465
▁паспорт	-9.36566
▁0	-9.36568
▁тер	-9.36604
▁начать	-9.36644
цион	-9.36694
▁re	-9.36708
▁осень	-9.36721
F	-9.36875
▁мастер	-9.36902
▁назначение	-9.36929
▁напомнил	-9.37032
▁доктор	-9.37033
▁фа	-9.3713
▁вино	-9.37143
▁совмест	-9.3719
▁вижу	-9.37194
▁остров	-9.37198
▁труп	-9.37201
пут	-9.37212
▁бердск	-9.37224
▁горю	-9.3726
▁британия	-9.37264
▁СИЗО	-9.37347
▁допустил	-9.37442
▁здравоохранение	-9.37503
▁кровь	-9.37504
▁идет	-9.37527
▁выслал	-9.37661
▁иностранец	-9.37661
▁технология	-9.37661
▁передача	-9.37662
госпитализирован	-9.37664
▁завершился	-9.37685
▁иван	-9.37737
▁угрожаю	-9.3777
▁авиакомпания	-9.37819
▁выздоровел	-9.37819
ic	-9.37829
уда	-9.37837
▁продавать	-9.37875
▁фр	-9.37931
▁вор	-9.37946
▁лавр	-9.37981
▁благотворитель	-9.38136
▁необычный	-9.38136
▁обучение	-9.38136
▁вклад	-9.38223
▁каз	-9.38243
тический	-9.38262
▁сило	-9.38266
▁конференция	-9.38294
▁адрес	-9.38295
▁польза	-9.38381
▁шаг	-9.38427
▁склад	-9.38452
▁жалоба	-9.38453
▁закончился	-9.38455
▁техника	-9.38458
нос	-9.38526
▁t	-9.38573
▁еда	-9.38576
мп	-9.38585
зо	-9.38641
▁современный	-9.38673
▁посети	-9.38704
▁счёт	-9.3876
▁пневмония	-9.38772
▁минфин	-9.38772
▁полу	-9.39051
▁раньше	-9.39092
▁страшный	-9.39092
дан	-9.39102
ручил	-9.3915
▁благоустройство	-9.39252
▁многодетный	-9.39413
▁удмуртия	-9.39416
▁голосование	-9.3942
▁ТВ	-9.39431
дин	-9.39469
▁весть	-9.39535
▁инфицированный	-9.39573
▁заказ	-9.39669
гла	-9.3968
▁кос	-9.39681
▁обыграл	-9.39734
▁смягчение	-9.39734
▁кроссовер	-9.39896
▁связан	-9.39897
▁ядерный	-9.39897
▁мон	-9.40033
пал	-9.40048
▁отменить	-9.40059
ta	-9.40085
дж	-9.40212
▁создать	-9.4022
▁транспортный	-9.40245
▁сити	-9.4028
vi	-9.40415
▁обеспечи	-9.40478
ря	-9.40483
▁мало	-9.40529
▁вертолет	-9.40544
▁выгляжу	-9.40544
▁мозг	-9.40544
▁девять	-9.40706
эй	-9.40752
▁ис	-9.40816
▁теле	-9.40835
▁w	-9.4086
▁ВОВ	-9.40869
▁маленький	-9.40869
▁электро	-9.40876
▁такси	-9.4089
▁небо	-9.40895
нь	-9.40937
▁третье	-9.40949
▁Д	-9.41
▁навальный	-9.41046
▁000	-9.41052
▁корея	-9.41089
▁самолета	-9.41156
еть	-9.41238
▁порт	-9.41348
at	-9.41349
▁политический	-9.41373
▁инвестор	-9.41386
▁ут	-9.41464
казал	-9.41518
▁отель	-9.41539
бай	-9.41599
тур	-9.41667
▁кладбище	-9.41687
▁огромный	-9.41687
▁субсидия	-9.41687
стер	-9.41824
▁мигрант	-9.41852
▁момент	-9.41866
льный	-9.41917
сен	-9.41979
хватил	-9.42007
▁обыск	-9.42022
фер	-9.42073
▁помочь	-9.42182
▁сдал	-9.42208
▁лед	-9.42318
▁четырех	-9.42325
v	-9.42338
▁магадан	-9.42347
▁трамвай	-9.42347
▁историк	-9.42347
▁внимание	-9.42348
▁прокурор	-9.42512
▁то	-9.42583
▁эвакуирую	-9.42678
▁ше	-9.4274
▁юный	-9.42813
▁АПЛ	-9.42844
▁государственный	-9.42844
▁ляшко	-9.42845
▁продаю	-9.42933
▁потратил	-9.43011
▁комиссия	-9.43177
▁собчак	-9.43177
▁певица	-9.43178
ели	-9.43202
три	-9.43282
еб	-9.43308
▁десять	-9.43346
▁перекрыл	-9.43512
▁ничто	-9.43512
▁добыча	-9.43512
▁фотография	-9.43545
▁львов	-9.43556
ировал	-9.43649
▁праздничный	-9.43679
▁севастополь	-9.43679
▁кара	-9.43688
▁u	-9.43716
▁судить	-9.43725
▁набережная	-9.43847
▁прошлый	-9.43847
▁судьба	-9.43847
▁пакет	-9.43848
▁стол	-9.43868
ца	-9.43928
аж	-9.44256
▁интервью	-9.44352
▁понедельник	-9.44352
▁реальный	-9.44425
▁ранен	-9.44517
▁дача	-9.44599
нг	-9.44636
▁учитель	-9.44668
▁деятельность	-9.44698
▁ман	-9.44714
▁чистый	-9.44738
▁заплатил	-9.44783
▁ушёл	-9.44815
▁пан	-9.44861
▁обновил	-9.44867
▁мнение	-9.4503
жу	-9.45038
11	-9.45041
ита	-9.45045
▁введение	-9.45219
йти	-9.45319
▁ги	-9.45342
▁пробка	-9.45373
▁К	-9.45406
▁увольнение	-9.4554
▁золото	-9.45571
▁выяснил	-9.45711
▁завтра	-9.45731
▁наркотик	-9.45741
me	-9.45792
▁январь	-9.45883
▁иркутск	-9.45965
▁забил	-9.4599
▁увидел	-9.46054
▁домыл	-9.46074
▁поколение	-9.46226
▁приехал	-9.46226
ованный	-9.46257
эм	-9.46289
▁думаю	-9.46317
зем	-9.46361
▁низкий	-9.46398
▁полезный	-9.46398
▁турецкий	-9.46405
▁150	-9.46493
ски	-9.4651
▁живу	-9.46512
▁своем	-9.46517
▁ор	-9.46527
▁номер	-9.46538
▁атака	-9.46577
▁похитил	-9.46718
▁подорожал	-9.46743
▁федерация	-9.46743
▁ювентус	-9.46743
▁мощный	-9.46744
мон	-9.46773
хи	-9.46911
▁плюс	-9.46917
▁расход	-9.4697
точный	-9.47062
▁немецкий	-9.47095
хан	-9.47119
▁резк	-9.47131
▁пора	-9.47187
▁зарегистрирован	-9.47263
▁шмыгаль	-9.47263
▁доставил	-9.47263
▁надеюсь	-9.47266
▁ушел	-9.47269
17	-9.47323
ний	-9.47356
▁занял	-9.47422
▁кандидат	-9.4743
▁экстрен	-9.47438
▁T	-9.47578
▁изоляция	-9.47611
▁поражение	-9.47612
она	-9.47615
▁прибыль	-9.4763
ывать	-9.4764
ol	-9.47681
▁ум	-9.47715
▁назначен	-9.47731
▁агент	-9.47982
▁рассмотрел	-9.47991
▁медаль	-9.48002
▁ямал	-9.48046
пас	-9.48159
лас	-9.48283
▁гонконг	-9.48311
▁шоссе	-9.48311
▁продлить	-9.48311
▁йорк	-9.48311
▁восточный	-9.48313
еш	-9.48358
▁провал	-9.48368
30	-9.4843
▁дезинфекция	-9.48487
▁материал	-9.48494
▁бл	-9.48497
▁бол	-9.48561
▁капитал	-9.48646
▁орган	-9.48656
▁скидка	-9.48663
▁костюм	-9.48839
имый	-9.48868
ставить	-9.48877
▁сократил	-9.48973
▁дефицит	-9.49016
▁николаев	-9.49089
▁mi	-9.49136
▁евгень	-9.49193
▁кировский	-9.4922
▁гар	-9.49314
▁$1	-9.49361
▁повод	-9.49366
ческий	-9.49455
▁шахтер	-9.49514
▁носить	-9.49702
сов	-9.4975
ti	-9.49815
▁тюмень	-9.49887
▁армения	-9.49904
▁американец	-9.49904
▁статус	-9.49904
казывать	-9.50019
▁боливия	-9.50083
▁евровидение	-9.50083
▁коррупция	-9.50083
▁чтение	-9.50083
вид	-9.50096
▁президентский	-9.50168
▁появление	-9.50262
▁процент	-9.50262
▁получаю	-9.50265
as	-9.50266
▁ген	-9.50271
▁наказание	-9.50272
▁женский	-9.503
ление	-9.50345
▁тр	-9.50358
▁пример	-9.50434
▁вынес	-9.50437
▁доставка	-9.50441
рин	-9.50467
▁метр	-9.50513
▁вес	-9.50608
▁германий	-9.5062
▁формула	-9.5062
th	-9.50695
lo	-9.5071
▁антитело	-9.508
▁красота	-9.508
▁род	-9.50816
▁любой	-9.50857
▁воин	-9.50873
▁тепл	-9.50933
▁болельщик	-9.5098
▁водо	-9.51008
▁владимирский	-9.51019
▁волонтеры	-9.51029
жал	-9.5103
▁оборудование	-9.51161
▁сургут	-9.51161
▁вещь	-9.51161
▁N	-9.51252
▁статья	-9.51303
▁медработник	-9.51342
вил	-9.51355
▁вне	-9.51394
топ	-9.51454
▁пятый	-9.51524
▁парковка	-9.51538
▁цель	-9.51637
▁ГБР	-9.51704
▁одежда	-9.51704
▁электроэнергия	-9.51704
li	-9.51712
▁саммит	-9.51714
▁салон	-9.51882
▁возможен	-9.51886
▁курорт	-9.51886
▁питание	-9.51897
▁церковь	-9.51899
чанин	-9.52
тра	-9.52013
▁графика	-9.52068
▁li	-9.52075
▁надежда	-9.52086
▁обмен	-9.52107
нёс	-9.52179
▁арестован	-9.52245
▁поликлиника	-9.52251
рис	-9.52271
▁ти	-9.52319
▁процесс	-9.52378
▁мил	-9.5242
▁никогда	-9.52434
▁чечня	-9.52434
▁робот	-9.52445
▁артист	-9.52473
▁горожанин	-9.52617
▁пляж	-9.52617
куп	-9.52618
▁авиа	-9.52622
▁полок	-9.52683
▁опыт	-9.528
▁сокращение	-9.528
▁степан	-9.52801
▁ки	-9.52803
▁газовый	-9.52803
ны	-9.52877
талья	-9.5289
соблюдение	-9.52984
▁безработица	-9.52984
▁оплата	-9.53168
▁боевой	-9.53209
▁лесной	-9.53267
▁успех	-9.53353
▁сквер	-9.53366
▁свое	-9.5348
мор	-9.53534
▁microsoft	-9.53538
▁присоединился	-9.53538
▁необходимость	-9.53554
▁платить	-9.53567
▁играю	-9.53592
▁ком	-9.53623
▁маршрутка	-9.53632
...	-9.53723
▁уральский	-9.53724
кра	-9.53731
▁поклонник	-9.5375
▁борис	-9.53775
▁кост	-9.53889
▁убийца	-9.53908
▁магнит	-9.53908
▁давление	-9.53912
▁вреза	-9.53943
▁волгоградец	-9.54094
▁отложил	-9.54174
▁развод	-9.54232
▁выдал	-9.54292
▁танкер	-9.54339
▁дорогой	-9.5446
▁военнослужащий	-9.54467
жан	-9.54556
U	-9.54571
▁марк	-9.54633
▁новгородский	-9.54661
▁романа	-9.54728
бир	-9.54769
▁II	-9.54787
▁н	-9.54834
▁использовать	-9.54841
▁литва	-9.54842
при	-9.54859
▁встретился	-9.54934
▁иммунитет	-9.55029
▁платформа	-9.55029
▁татьяна	-9.55029
▁критика	-9.55032
елена	-9.5512
тар	-9.55169
Е	-9.55216
▁египет	-9.55217
▁урок	-9.55241
ющий	-9.55264
▁барс	-9.55303
стан	-9.55319
▁япон	-9.55348
▁призыв	-9.55359
▁ча	-9.55385
▁семейный	-9.55406
зон	-9.55552
▁доплата	-9.55594
▁помпео	-9.55594
▁осетия	-9.55594
уг	-9.55627
▁бур	-9.55632
▁лишился	-9.55634
▁рыба	-9.55649
шу	-9.55684
▁досрочен	-9.55691
▁лондон	-9.55783
▁предупреждаю	-9.55783
сти	-9.55799
▁петрозаводск	-9.55972
▁кирилл	-9.55975
▁исключил	-9.55978
▁зам	-9.55982
▁сравнил	-9.55983
▁эстония	-9.55989
ёт	-9.56017
▁рязанский	-9.56162
нил	-9.56199
▁московская	-9.56352
▁университет	-9.56352
▁джи	-9.56365
▁туман	-9.56402
▁белорус	-9.56472
▁временен	-9.56514
▁ник	-9.56532
▁общежитие	-9.56542
▁пригрози	-9.56542
▁посадка	-9.5662
▁манчестер	-9.56733
ге	-9.56748
19	-9.56781
▁бокс	-9.56812
▁холодный	-9.56903
рова	-9.56931
▁хакер	-9.56938
▁автомат	-9.56974
▁тема	-9.57087
▁стадион	-9.57116
la	-9.57142
битый	-9.572
N	-9.5727
Х	-9.57495
▁покупать	-9.57501
▁задача	-9.57503
▁пристав	-9.57512
▁тура	-9.57519
ивный	-9.57587
▁подряд	-9.57594
▁настоящий	-9.5768
▁председатель	-9.57693
▁ухудш	-9.57693
▁свалка	-9.57702
▁нов	-9.57712
▁55	-9.57789
▁ме	-9.57821
▁флаг	-9.57856
▁обвиняемый	-9.57886
▁контакт	-9.57886
▁вылетел	-9.57886
▁удался	-9.57888
сер	-9.57914
▁лев	-9.57932
▁курд	-9.57983
▁правилен	-9.5808
▁молодые	-9.58084
гар	-9.58108
▁сенатор	-9.58125
▁дед	-9.58178
▁совершил	-9.58209
чий	-9.58225
▁пришёл	-9.58322
▁сахалин	-9.58349
▁быстрый	-9.5837
суд	-9.58405
▁полномочие	-9.58467
▁предупреждение	-9.58467
▁сократился	-9.58515
▁западный	-9.58637
▁проверяю	-9.58662
▁актив	-9.58678
▁разный	-9.58741
дар	-9.58801
ован	-9.58839
▁крыша	-9.58857
▁замена	-9.58887
емый	-9.58954
▁салют	-9.59053
чь	-9.59098
нять	-9.5913
▁главый	-9.59248
▁сентябрь	-9.59248
▁индия	-9.59248
▁выезд	-9.59291
▁32	-9.593
▁боюсь	-9.59334
na	-9.59381
▁выплатил	-9.59387
▁миллиардер	-9.59439
▁остановил	-9.59444
▁трагедия	-9.59444
▁растет	-9.59445
▁реализация	-9.59467
▁интересный	-9.59534
▁произ	-9.59543
▁балашиха	-9.59641
▁33	-9.59642
строй	-9.59809
▁позволил	-9.59837
▁финансирование	-9.59837
▁посольство	-9.59838
▁очаг	-9.5984
▁ульяновск	-9.59945
▁отказаться	-9.60009
▁убитый	-9.60013
▁ЛНР	-9.60035
рек	-9.602
▁определил	-9.6021
▁нур	-9.60232
▁фергюсон	-9.60232
▁красивый	-9.60259
▁стиль	-9.60303
▁милан	-9.60351
▁начинаю	-9.60417
▁беременный	-9.6043
▁партнер	-9.6043
▁спрогнозирова	-9.6043
▁иду	-9.60483
▁отдел	-9.60488
▁работающий	-9.60537
▁джонсон	-9.60636
▁отключил	-9.60674
▁разыскиваю	-9.60743
▁подъезд	-9.60827
▁наградил	-9.60829
▁юг	-9.61027
▁месси	-9.61027
▁томский	-9.61073
гра	-9.6108
ности	-9.61097
▁кап	-9.61165
▁запускаю	-9.61203
▁МЦД	-9.61226
▁организатор	-9.61226
▁разрешение	-9.61243
ские	-9.61282
▁школьница	-9.61426
▁торговля	-9.61426
▁экран	-9.61427
▁ограничительны	-9.61627
▁заставил	-9.61627
вожу	-9.61636
▁деревня	-9.61827
▁бренд	-9.6183
▁балкон	-9.61845
▁риска	-9.61888
▁энергетика	-9.61924
▁двух	-9.62029
▁омбудсмен	-9.62029
▁превратил	-9.62029
▁анна	-9.62034
кан	-9.62035
▁хищение	-9.6223
▁политолог	-9.62242
▁принимать	-9.62259
ын	-9.62358
хов	-9.62387
Л	-9.62432
▁хабиб	-9.62432
▁выходил	-9.62442
▁призываю	-9.62459
10	-9.62579
пар	-9.62618
▁коллега	-9.62635
▁увеличить	-9.62635
▁всеял	-9.62638
is	-9.62644
▁живой	-9.62674
жив	-9.62755
ари	-9.62783
фа	-9.62793
▁C	-9.62829
▁внутренний	-9.62838
▁восстановил	-9.62838
▁усик	-9.62899
▁госуслуга	-9.63041
▁ликвидирую	-9.63041
▁признак	-9.63041
▁дума	-9.63047
под	-9.63132
град	-9.63194
▁осужден	-9.63223
▁заворотнюк	-9.63245
▁ад	-9.6327
▁ужас	-9.63349
▁отбор	-9.63399
▁силовик	-9.63449
▁майдан	-9.63479
▁пенсион	-9.63583
▁света	-9.63588
▁представлен	-9.63594
▁перевозка	-9.63653
▁этаж	-9.63682
знач	-9.63725
▁шар	-9.63763
▁закрытый	-9.6377
▁тор	-9.63772
▁минь	-9.63856
▁учёный	-9.63858
ура	-9.63911
▁путины	-9.63991
▁венесуэла	-9.64063
▁прекратил	-9.64063
▁псков	-9.64076
▁бросил	-9.64094
▁выпал	-9.64214
▁зимний	-9.64269
▁обсуждаю	-9.64269
▁сцена	-9.64315
ное	-9.64375
▁льготный	-9.64475
▁таксист	-9.64565
▁минул	-9.64592
▁дже	-9.64626
▁наркотика	-9.64653
кончил	-9.64677
▁хоккей	-9.64682
▁игровой	-9.64684
▁учение	-9.64687
▁роман	-9.64699
бит	-9.64714
▁отдал	-9.64751
ться	-9.64787
▁открываю	-9.64801
аб	-9.64813
порт	-9.6484
▁лишил	-9.64858
▁недвижимость	-9.64889
▁празднование	-9.64889
▁ЖКХ	-9.64894
▁600	-9.64903
▁борт	-9.64978
▁ваш	-9.6507
нима	-9.65076
▁тро	-9.65084
▁бразилия	-9.65096
▁отключение	-9.65096
▁r	-9.65139
▁дэвис	-9.65304
▁многоэтажка	-9.65304
чев	-9.65386
▁времен	-9.65473
един	-9.65507
▁n	-9.65509
▁ливерпуль	-9.65513
▁красногорск	-9.65515
▁оператив	-9.65517
▁латвия	-9.65539
▁советник	-9.65635
▁саратовец	-9.65673
▁начнет	-9.65711
▁родственник	-9.65721
▁картина	-9.65722
▁предсказа	-9.65727
▁использую	-9.6573
шёл	-9.65767
чук	-9.65841
▁брон	-9.65884
▁астрахань	-9.65931
▁жить	-9.65931
▁космос	-9.65931
▁нарушил	-9.65931
пр	-9.65952
гер	-9.65994
▁фи	-9.65995
проект	-9.66042
ушка	-9.6611
▁каникулы	-9.6614
▁аварийный	-9.6614
▁возвращаюсь	-9.66162
бан	-9.66267
ование	-9.66277
езд	-9.66295
▁лаборатория	-9.6635
▁влияние	-9.6635
▁топливо	-9.66351
▁приморский	-9.66351
▁вот	-9.66428
▁пат	-9.66432
ём	-9.66434
ший	-9.66503
▁разреши	-9.66519
112019	-9.66561
▁телеканал	-9.66561
▁бензин	-9.66565
бивший	-9.66638
▁перенос	-9.66948
▁искусственный	-9.66983
▁камчатка	-9.66983
▁удивил	-9.66984
▁очко	-9.67034
подарил	-9.67051
▁штрафовать	-9.67062
▁воздуш	-9.67195
▁всегда	-9.67195
▁рубеж	-9.67196
▁34	-9.67379
▁рецепт	-9.67407
▁повысил	-9.67408
ck	-9.6749
ившийся	-9.6753
▁подмосков	-9.67601
▁оппозиция	-9.6762
▁оборона	-9.6762
nd	-9.67726
▁хорош	-9.67753
▁труба	-9.67784
▁томск	-9.6779
нят	-9.67802
ex	-9.67838
▁оценка	-9.67838
▁соц	-9.67844
▁вирусолог	-9.67857
рем	-9.68004
▁смена	-9.68085
▁кам	-9.68095
▁доля	-9.68116
▁радио	-9.68141
шил	-9.68163
шко	-9.6821
▁ай	-9.68217
▁войско	-9.68237
▁люб	-9.68241
▁организую	-9.68261
▁охрана	-9.68261
▁похолодание	-9.68261
▁зуб	-9.68269
считал	-9.68298
▁выступление	-9.68371
▁плато	-9.68373
пустить	-9.68556
▁пензенский	-9.68691
жил	-9.68744
▁временный	-9.68786
▁ду	-9.68809
ёв	-9.68818
▁аукцион	-9.68906
▁являюсь	-9.68906
▁заметил	-9.68908
▁закрытие	-9.68958
▁анонс	-9.68999
▁повтор	-9.69023
ьян	-9.69053
▁искусство	-9.69122
▁марья	-9.69181
▁танк	-9.69209
бин	-9.69261
▁куп	-9.69269
▁мариуполь	-9.69339
▁поздравление	-9.69339
▁культурный	-9.69339
▁танец	-9.69341
▁туризм	-9.69365
▁Т	-9.69377
▁лен	-9.69449
▁расп	-9.69483
▁жестко	-9.69498
▁пал	-9.69533
▁закупка	-9.69559
вест	-9.69712
▁статистик	-9.69722
▁нацист	-9.69823
ковский	-9.69867
▁перевод	-9.69884
▁машин	-9.69964
тил	-9.69974
▁роз	-9.69983
▁годовщина	-9.69991
▁дипломат	-9.70005
▁процессор	-9.70058
▁мою	-9.70064
ведение	-9.70098
▁чи	-9.70128
▁ударил	-9.70173
лев	-9.70189
▁исполнил	-9.70209
▁льгота	-9.70209
▁саудов	-9.7021
▁наибол	-9.70211
▁плохой	-9.70246
▁дуб	-9.70285
нер	-9.70296
▁весна	-9.70322
▁ba	-9.70341
▁нашел	-9.70385
▁зоопарк	-9.7043
ключить	-9.70506
▁нац	-9.70594
▁принимаю	-9.70649
▁усилил	-9.7065
▁перевернулся	-9.70659
профессиональный	-9.70711
▁Ц	-9.70721
▁умный	-9.7077
▁обновлен	-9.70811
▁оперштаб	-9.70867
▁сценарий	-9.70867
▁В	-9.70913
клад	-9.70985
▁жалуюсь	-9.71087
▁подтверждён	-9.71087
▁препарат	-9.71087
ступление	-9.7118
▁возбужд	-9.71308
ника	-9.71312
▁co	-9.71335
▁приз	-9.71462
держать	-9.71476
▁округа	-9.71489
▁прогулка	-9.71529
▁визит	-9.71537
ФО	-9.71546
▁наказал	-9.71608
ёк	-9.71725
▁сменил	-9.71742
бираю	-9.71744
▁инициатива	-9.71751
▁снимок	-9.71751
▁кирово	-9.71765
▁портал	-9.71818
дра	-9.71852
евший	-9.71864
ции	-9.71908
▁telegram	-9.71973
▁космический	-9.71974
▁любимый	-9.71981
▁аналитика	-9.72014
ir	-9.72076
опо	-9.72109
рест	-9.72128
▁создан	-9.72144
▁астраханский	-9.72196
▁свидетель	-9.72196
▁регистрация	-9.72202
▁ведущий	-9.72229
ca	-9.723
▁температура	-9.7231
дельный	-9.72342
▁спе	-9.72369
▁швеция	-9.72419
▁исчез	-9.72419
▁мария	-9.72439
▁выставил	-9.72448
▁выбор	-9.72458
▁морской	-9.7246
▁коп	-9.72497
ke	-9.72582
▁ch	-9.72627
▁аэрофлот	-9.72643
▁библиотека	-9.72643
▁трансфер	-9.72649
▁веко	-9.72659
▁РТ	-9.72701
▁лос	-9.72744
▁кал	-9.72851
▁диетолог	-9.72867
ское	-9.72883
▁черном	-9.72886
▁страх	-9.72952
лес	-9.72977
▁автомобилист	-9.73092
▁кинотеатр	-9.73092
▁рязань	-9.73092
▁священник	-9.73092
▁сибирь	-9.73092
▁париж	-9.73093
▁освободил	-9.73094
▁захаров	-9.73101
сан	-9.73133
енных	-9.73163
▁массов	-9.73195
лина	-9.73203
▁хабаровск	-9.73228
йдет	-9.73247
▁написал	-9.73261
▁хар	-9.73275
▁попов	-9.73277
▁васильев	-9.73317
▁комментарий	-9.73317
▁спутник	-9.73319
▁перестал	-9.7332
▁палата	-9.73325
▁S	-9.73327
▁сирийск	-9.73344
▁генпрокуратура	-9.73543
▁художник	-9.73543
▁скорость	-9.7358
▁чу	-9.73608
▁СКА	-9.7361
▁проводить	-9.73636
ево	-9.73656
ата	-9.73684
▁звонок	-9.73769
▁новокузнецк	-9.73769
▁обсерватор	-9.73769
▁приостановил	-9.73769
▁слава	-9.73822
▁внёс	-9.73833
▁четверо	-9.73952
▁покупатель	-9.73996
▁публикация	-9.74005
▁основатель	-9.74017
нувший	-9.74052
▁легендар	-9.74059
▁рог	-9.74145
▁канада	-9.74183
▁патриот	-9.74223
▁происхожу	-9.74223
ивание	-9.74237
▁принц	-9.7445
▁нефтяной	-9.74451
▁музыкальный	-9.74459
▁ОП	-9.74489
▁разведение	-9.74572
▁ограбил	-9.746
▁выйти	-9.7464
банк	-9.74643
▁galaxy	-9.74679
▁кампания	-9.74679
▁убыток	-9.74679
da	-9.74682
ia	-9.74801
▁джа	-9.74882
▁вокруг	-9.74908
▁награда	-9.74921
ma	-9.74989
пил	-9.75033
дов	-9.75049
▁балл	-9.75114
▁придумал	-9.75138
▁уничтожил	-9.75138
▁избиение	-9.75138
▁школьный	-9.75138
▁странный	-9.75147
мат	-9.75175
▁вокзал	-9.7537
▁направление	-9.75397
▁опасен	-9.75541
▁КНР	-9.75598
▁спектакль	-9.75598
▁занятие	-9.75599
чет	-9.75677
ru	-9.75702
▁бавария	-9.75829
▁компьютер	-9.7606
▁сексуальный	-9.7606
▁обвиняю	-9.7606
▁семе	-9.7627
▁бороться	-9.76292
▁рожусь	-9.7633
техник	-9.76356
▁ждать	-9.76373
▁легк	-9.7648
ется	-9.76511
▁заподозри	-9.76525
▁оскорбление	-9.76525
▁розыск	-9.76525
▁вызов	-9.7653
▁платье	-9.76534
парк	-9.76602
хин	-9.76615
хожу	-9.76616
▁конгресс	-9.76758
▁пенза	-9.76811
овец	-9.76897
▁австрия	-9.76992
▁сигарета	-9.76992
▁спбгу	-9.76992
▁финляндия	-9.76992
▁вдвое	-9.76992
▁специальн	-9.7705
▁открыт	-9.77158
резал	-9.77224
▁ВВП	-9.77226
▁НАБУ	-9.77226
▁дебют	-9.77226
▁олимпиада	-9.77226
▁прекращение	-9.77226
▁симферополь	-9.77226
▁РАН	-9.7746
▁менеджер	-9.7746
▁аптека	-9.77461
▁выдача	-9.77461
▁изнасилование	-9.77465
▁поднял	-9.77484
пин	-9.77804
АО	-9.77881
▁37	-9.7793
▁youtube	-9.77932
▁грипп	-9.77932
▁месторождение	-9.77932
▁повышенный	-9.77932
▁анализ	-9.77933
тика	-9.77973
▁редки	-9.78012
▁чип	-9.78018
▁черн	-9.78123
▁ожидание	-9.78168
▁прислал	-9.78168
▁медиа	-9.78175
▁орёл	-9.78176
▁укр	-9.78186
▁ирина	-9.78192
▁четверг	-9.78199
чанка	-9.78244
▁отказал	-9.78248
▁дар	-9.78287
▁спасти	-9.78295
кур	-9.78328
▁ына	-9.78352
▁A	-9.78403
▁создатель	-9.78405
нова	-9.78477
▁рус	-9.78536
ида	-9.7854
▁Б	-9.78594
▁инфекционный	-9.78643
▁середина	-9.78643
▁полтора	-9.78643
▁снизить	-9.78643
▁орловский	-9.78643
▁неожиданный	-9.78706
▁биржа	-9.78738
▁42	-9.78754
чат	-9.78794
se	-9.78823
мент	-9.78826
▁стена	-9.78871
▁генерал	-9.78872
▁ПСЖ	-9.78881
▁посвящен	-9.78881
▁утечка	-9.78881
▁фура	-9.78922
▁ракет	-9.79002
▁сохранить	-9.79033
▁разумков	-9.7912
▁вред	-9.79146
▁посетитель	-9.79149
Э	-9.79302
фон	-9.79303
▁поддерживаю	-9.79359
вес	-9.79385
▁вечный	-9.79458
▁продать	-9.79467
зин	-9.79474
▁тай	-9.79584
▁пригласил	-9.79598
▁хакасия	-9.79598
▁хоккеист	-9.79598
▁теракт	-9.79598
▁суден	-9.79625
▁релиз	-9.79634
▁вырази	-9.79644
▁обстреля	-9.7965
▁архангельский	-9.79652
сн	-9.79716
▁мур	-9.79736
▁D	-9.79742
▁марафон	-9.79745
▁двойн	-9.79802
▁импичмент	-9.79839
▁посещение	-9.79839
es	-9.79866
▁фор	-9.79907
▁баб	-9.79946
▁лета	-9.7998
▁android	-9.8008
▁госпитализирую	-9.8008
▁помощник	-9.8008
▁остаться	-9.80082
бол	-9.80091
или	-9.80107
▁мет	-9.80148
▁$2	-9.80238
Ж	-9.80321
▁жуткий	-9.80321
▁заморозок	-9.80321
▁перспектива	-9.80321
▁продолжение	-9.80321
▁свадьба	-9.80321
нс	-9.80348
▁запас	-9.80357
▁максима	-9.80476
▁роснефть	-9.80563
▁вылечились	-9.80563
▁ректор	-9.80582
▁дуров	-9.80703
мит	-9.8077
▁клин	-9.80787
▁протокол	-9.80806
▁блок	-9.80839
мар	-9.80845
▁сей	-9.80868
щу	-9.80889
▁музыка	-9.8103
ённый	-9.81049
▁незаконен	-9.81049
▁посоветовал	-9.8105
▁соперник	-9.8105
am	-9.81076
▁аб	-9.81114
▁ro	-9.81244
▁ростелеком	-9.81296
▁рейд	-9.81326
▁всемирный	-9.81538
▁стих	-9.81577
▁ниже	-9.81602
sh	-9.81612
▁закрыт	-9.81757
▁УПЦ	-9.81783
▁беспилотник	-9.81783
▁ингушетия	-9.81783
▁трактор	-9.81793
70	-9.81858
▁донецкий	-9.81867
ировка	-9.8194
▁выделен	-9.81989
▁презент	-9.82012
▁aliexpress	-9.82029
▁intel	-9.82029
▁воскресенье	-9.82029
▁инцидент	-9.82029
▁поблагодари	-9.82029
▁знакомый	-9.82029
▁отчитал	-9.82029
▁социал	-9.82045
▁подтвержден	-9.82046
мед	-9.82291
▁кошка	-9.82322
▁желание	-9.82384
пере	-9.82431
▁подтвердился	-9.8246
▁признан	-9.82463
лиз	-9.82487
▁хозяин	-9.82522
▁голод	-9.82548
джи	-9.82555
▁договорился	-9.82567
▁круг	-9.82606
▁выша	-9.82621
▁2022	-9.82759
▁судеб	-9.82764
▁вашингтон	-9.82769
▁капремонт	-9.82769
▁фирма	-9.82771
▁спасение	-9.82782
▁пяти	-9.82799
▁избежать	-9.82804
▁холод	-9.82818
телен	-9.82834
том	-9.82875
▁каб	-9.82964
▁платёж	-9.83018
▁тодоренко	-9.83018
▁учреждение	-9.83018
▁денис	-9.83022
▁нацбанк	-9.83025
▁микро	-9.83047
▁обновление	-9.83085
▁рыбак	-9.83256
▁находка	-9.83281
▁вторник	-9.83281
▁туристический	-9.83451
ve	-9.83469
▁цвет	-9.83473
▁англия	-9.83516
▁бундеслига	-9.83766
▁найти	-9.8382
▁резерв	-9.84016
▁знать	-9.84017
▁изменить	-9.84019
▁глобальный	-9.84033
рас	-9.84076
▁чужой	-9.84268
▁обычный	-9.84269
▁родина	-9.84319
лар	-9.84376
▁36	-9.84418
▁toyota	-9.84519
▁штат	-9.84522
▁Ф	-9.84523
▁вернется	-9.84592
▁марта	-9.84698
▁арт	-9.84758
▁тбилиси	-9.84772
▁смольный	-9.84774
▁ВС	-9.84785
▁особенность	-9.84793
▁ранее	-9.84834
▁миф	-9.84842
▁ян	-9.84857
▁противо	-9.84953
▁даю	-9.84976
ище	-9.85025
▁вмешательство	-9.85025
▁ущерб	-9.85025
▁сестра	-9.85033
▁38	-9.85078
▁берлина	-9.85091
▁mo	-9.85228
▁мечта	-9.85276
▁показатель	-9.85281
▁газета	-9.85282
▁необходим	-9.85384
▁чудо	-9.85399
▁ул	-9.85408
▁установлен	-9.85533
▁коммунальный	-9.85534
▁санитар	-9.85534
▁быстр	-9.85607
▁крас	-9.85644
▁меган	-9.85655
ельский	-9.85717
ent	-9.8572
▁том	-9.85735
▁гал	-9.85804
▁тоттенхэм	-9.85812
▁миссия	-9.85822
▁луганский	-9.85829
▁волк	-9.85859
чан	-9.8588
▁придется	-9.85891
▁отход	-9.85978
▁пр	-9.85999
ie	-9.86004
▁39	-9.8603
▁хоспис	-9.86044
▁аравия	-9.86044
▁протарани	-9.86044
▁проверить	-9.86048
ечный	-9.86102
евский	-9.86179
ош	-9.86201
▁шум	-9.86207
бар	-9.86278
▁потенциал	-9.86301
▁реанимация	-9.86301
▁прирост	-9.86301
▁включил	-9.86302
▁вахтовиков	-9.86303
▁керченски	-9.86304
▁люблю	-9.86338
05	-9.86445
▁тимошенко	-9.86558
▁ЧС	-9.86558
▁ИГ	-9.86558
рус	-9.86567
▁сокол	-9.86575
син	-9.86579
▁опять	-9.86819
▁дочка	-9.86886
▁вод	-9.86902
▁королева	-9.87074
▁микрорайон	-9.87074
▁спустив	-9.87074
▁time	-9.87074
▁звание	-9.87074
центр	-9.87121
мест	-9.87154
▁алл	-9.87155
▁дно	-9.87156
▁возобновился	-9.87221
▁колесо	-9.873
▁великое	-9.87334
▁импорт	-9.87335
▁смотрю	-9.87343
▁de	-9.87376
▁пен	-9.87377
ющийся	-9.87413
▁пес	-9.8742
▁трудовой	-9.87433
▁расту	-9.87451
али	-9.8759
▁зеленскому	-9.87593
▁изъял	-9.87593
▁инвестиция	-9.87593
▁плющенко	-9.87593
▁режиссер	-9.87593
▁грант	-9.87615
йт	-9.87617
твор	-9.87822
▁непо	-9.87843
фо	-9.87849
▁redmi	-9.87853
▁анастасия	-9.87853
▁спикер	-9.87853
▁game	-9.87855
▁форвард	-9.87856
▁банкротство	-9.87869
▁оправда	-9.87934
▁сбой	-9.88018
▁МГУ	-9.88114
▁академик	-9.88114
▁продукция	-9.88114
▁ротару	-9.88114
▁получать	-9.88114
▁мясо	-9.88115
▁увеличение	-9.88129
60	-9.88149
com	-9.88156
▁америка	-9.88183
▁обман	-9.88233
ект	-9.88266
▁км	-9.88274
▁течение	-9.88376
▁возрос	-9.88406
ины	-9.88407
▁снять	-9.88425
ационный	-9.88434
▁800	-9.88455
писал	-9.88494
▁возложи	-9.88548
▁попытался	-9.88638
▁единственный	-9.88639
▁выбрать	-9.8864
▁болею	-9.8865
▁выходить	-9.88655
▁R	-9.88665
▁банда	-9.88708
дем	-9.88855
▁стройка	-9.88902
▁анапа	-9.88903
▁моряк	-9.88913
▁тайсон	-9.88917
▁кофе	-9.88924
▁пустил	-9.88929
▁пришёлся	-9.88937
ствую	-9.88938
▁привёл	-9.89077
▁правоохранитель	-9.89165
▁профессия	-9.89165
▁следствие	-9.89165
▁защитить	-9.89165
▁съезд	-9.89166
▁дух	-9.89377
оф	-9.89386
▁сенат	-9.89394
работал	-9.89406
▁конституция	-9.8943
▁многий	-9.8943
▁житомир	-9.8943
▁начнется	-9.89444
▁сбежал	-9.89509
▁точка	-9.89513
▁столб	-9.89569
▁принят	-9.89597
▁звер	-9.89658
▁ФРГ	-9.89695
▁институт	-9.89695
▁профилактика	-9.89695
▁гродно	-9.89695
▁объел	-9.89695
▁просьба	-9.89696
▁клиника	-9.8971
▁обрушился	-9.89739
▁борюсь	-9.89754
шев	-9.89763
евич	-9.89815
▁M	-9.89866
▁in	-9.89867
▁ПНС	-9.89961
▁гончарук	-9.89961
▁снимать	-9.9006
лем	-9.90074
▁пот	-9.90117
▁рассказ	-9.90118
вис	-9.90137
40	-9.90137
▁перечисли	-9.90148
ьев	-9.90162
▁чай	-9.90212
▁гражданство	-9.90228
▁случился	-9.90228
▁потушил	-9.90229
▁справка	-9.90237
ват	-9.90243
um	-9.90299
2020	-9.90323
▁казахстанец	-9.90335
▁малыш	-9.90364
ники	-9.9039
▁минус	-9.90487
▁суббота	-9.90495
▁таиланд	-9.90495
▁вратарь	-9.90496
яр	-9.90497
ву	-9.90506
▁мирный	-9.90516
НАО	-9.90523
▁округ	-9.90545
янка	-9.90559
▁гарри	-9.90595
▁георгиевский	-9.90763
▁пентагон	-9.90763
▁черкассы	-9.90763
▁возобновляю	-9.90763
▁поселке	-9.90764
▁металл	-9.90765
вле	-9.90805
▁запретить	-9.90846
▁ток	-9.90916
▁двигатель	-9.91032
▁озеро	-9.9105
тик	-9.91151
▁николаевский	-9.91184
▁завёл	-9.91258
▁мясник	-9.91302
▁паводок	-9.91302
▁соревнование	-9.91302
▁АЭС	-9.91308
пят	-9.91317
▁мал	-9.91342
▁строй	-9.91427
▁чуть	-9.91448
ga	-9.91488
чив	-9.91518
▁BMW	-9.91572
▁африка	-9.91572
▁индивидуальн	-9.91572
▁календарь	-9.91572
▁рухнул	-9.91572
хват	-9.91617
▁ходить	-9.9177
▁показ	-9.91799
▁арктика	-9.91843
▁внедорожник	-9.91843
▁тутберидзе	-9.91843
▁челны	-9.91843
транс	-9.91872
▁гараж	-9.91904
▁статистика	-9.91907
ею	-9.91936
▁pa	-9.91957
▁варианта	-9.92014
▁ЖК	-9.92108
▁РЖД	-9.92115
завод	-9.92139
ac	-9.92158
▁бог	-9.92171
нести	-9.92187
▁возврат	-9.92387
▁медосмотр	-9.92387
▁троллейбус	-9.92387
▁шугалей	-9.92387
бег	-9.92454
нешний	-9.92474
▁120	-9.92584
▁war	-9.92605
фф	-9.92605
▁заблокировал	-9.9266
▁медсестра	-9.9266
▁слушание	-9.9266
▁дверь	-9.92661
▁фермер	-9.92661
▁птица	-9.92661
▁идеальный	-9.92663
▁никита	-9.92675
▁макрон	-9.92686
▁определился	-9.92691
энерго	-9.92744
щин	-9.92783
▁платный	-9.92787
рик	-9.92818
▁УЕФА	-9.92934
▁установка	-9.92934
▁шевченко	-9.92935
▁молодежн	-9.92935
▁челси	-9.92935
▁доцент	-9.92936
▁разбился	-9.9309
▁взрослый	-9.93209
▁грудь	-9.93209
▁катастрофа	-9.93209
▁надбавка	-9.93209
▁осадок	-9.93209
▁правило	-9.9321
▁подрядчик	-9.93233
▁бот	-9.93324
▁47	-9.93353
▁французский	-9.93373
▁эпидемиолог	-9.93485
▁оформление	-9.93492
нить	-9.9366
ске	-9.93702
▁эколог	-9.93741
реш	-9.93757
▁хи	-9.93759
▁забайкалье	-9.93761
▁прага	-9.93766
▁бен	-9.93796
ью	-9.93829
000	-9.93908
ически	-9.93967
▁биткоин	-9.94038
▁небольшой	-9.94038
▁sony	-9.94038
▁калуж	-9.94039
▁название	-9.94045
▁бабушка	-9.94045
▁граната	-9.94057
▁отпуск	-9.94066
ing	-9.94069
ют	-9.94071
▁ярославский	-9.94131
▁завоевал	-9.94316
▁разработчик	-9.94316
▁шестой	-9.94316
▁раздал	-9.94335
▁горя	-9.94461
▁сахалинский	-9.94463
▁груз	-9.94545
ско	-9.94604
▁рок	-9.94643
▁хор	-9.94668
▁48	-9.94744
▁снялся	-9.94803
▁43	-9.94822
▁ВМС	-9.94873
▁ОПЕК	-9.94873
▁евросоюз	-9.94873
▁джокер	-9.94878
▁вечеринка	-9.9488
▁минтранс	-9.94887
▁антон	-9.94931
▁разъяснил	-9.94949
овского	-9.95055
25	-9.95089
▁продлен	-9.95095
еха	-9.95138
▁brent	-9.95154
▁гражданский	-9.95154
▁работодатель	-9.95154
▁студия	-9.95154
▁флот	-9.95156
▁маркл	-9.95165
▁нурмагомедова	-9.95182
80	-9.95311
▁рыб	-9.95316
▁прям	-9.95342
▁похож	-9.95399
▁северо	-9.95432
▁дмитрий	-9.95434
▁пограничник	-9.95434
▁отопитель	-9.95485
як	-9.95611
▁пройти	-9.95632
▁объем	-9.95716
▁ключевой	-9.95726
▁минстрой	-9.95735
▁бью	-9.95743
▁разгромил	-9.95761
▁признание	-9.95784
ара	-9.95866
▁раздел	-9.95876
щийся	-9.95971
▁ТЦ	-9.96005
▁air	-9.96021
▁фонтан	-9.9605
граф	-9.96058
лек	-9.96194
▁рай	-9.96226
пат	-9.96272
▁наводнение	-9.96282
▁ресурс	-9.96282
▁цифра	-9.96282
▁ермак	-9.96282
▁вступил	-9.96288
▁портрет	-9.96288
▁64	-9.96301
▁внедр	-9.96303
▁захват	-9.96429
▁пас	-9.96473
▁якутск	-9.96476
▁раду	-9.96507
▁зарегистрировал	-9.96566
▁петровское	-9.9657
▁свободный	-9.96571
▁россиянка	-9.96592
▁святой	-9.96599
грузка	-9.96816
▁мексика	-9.96851
▁AMD	-9.96851
▁атакую	-9.96851
▁землетрясение	-9.96851
▁лагерь	-9.96851
▁стратегия	-9.96851
▁эффективный	-9.96857
▁СКР	-9.96913
▁IT	-9.96973
▁бан	-9.97072
гов	-9.97121
▁авангард	-9.97137
▁провокация	-9.97137
▁вошел	-9.97319
▁бат	-9.97321
▁петр	-9.97372
▁яма	-9.97379
▁стою	-9.97385
▁уходил	-9.9739
▁46	-9.97394
▁кемерово	-9.97423
▁отравление	-9.97423
▁шокирую	-9.97449
▁темп	-9.97524
Ц	-9.97576
▁доказательство	-9.97711
▁младенец	-9.97711
аков	-9.9776
вали	-9.97902
▁NASA	-9.97999
▁абхазия	-9.97999
▁плачу	-9.97999
▁основа	-9.98007
▁юрист	-9.98034
работать	-9.98074
▁пропустил	-9.9808
ген	-9.98155
▁52	-9.9819
bo	-9.98251
▁перенес	-9.98266
▁инспектор	-9.98288
▁эксперимент	-9.98288
▁минюст	-9.98288
▁85	-9.9829
▁освобождение	-9.98309
▁бег	-9.98381
▁брак	-9.98389
▁джон	-9.98429
южен	-9.98485
ива	-9.98551
▁mercedes	-9.98578
▁вконтакте	-9.98578
▁медицина	-9.98578
▁моуринью	-9.98578
▁мяч	-9.98592
▁кибер	-9.98644
▁майя	-9.98681
едва	-9.98716
ектор	-9.98728
рук	-9.9873
po	-9.9873
▁введен	-9.98746
▁высадил	-9.98868
▁патриарх	-9.98868
▁интернат	-9.98869
▁донецк	-9.9907
▁700	-9.99101
▁стандарт	-9.99104
▁грабитель	-9.9916
▁климат	-9.9916
▁бак	-9.99261
▁снимаю	-9.99265
▁эр	-9.99403
▁вспомнил	-9.99452
▁итальянский	-9.99452
▁корпус	-9.99452
▁заменил	-9.99459
▁март	-9.99522
ными	-9.99591
иков	-9.99596
имов	-9.99718
стоящий	-9.99734
▁застройщик	-9.99746
▁зеленским	-9.9975
▁титул	-9.99754
бой	-9.99787
▁джо	-9.998
▁вылечил	-10.0004
▁железный	-10.0004
▁константин	-10.0004
▁прежний	-10.0004
▁никакой	-10.0004
контро	-10.0012
to	-10.0033
▁дальний	-10.0033
▁сократить	-10.0033
▁единство	-10.0034
▁прорыв	-10.0034
▁дикий	-10.0042
▁лента	-10.0045
▁оказал	-10.005
▁марс	-10.0052
▁пешеходный	-10.006
▁еврокомиссия	-10.0063
▁согласился	-10.0063
▁нелегальный	-10.0066
▁58	-10.0067
▁уйти	-10.0067
▁одно	-10.0068
▁поведение	-10.0075
▁плен	-10.008
▁лечу	-10.0088
▁коммунарка	-10.0093
▁оккупирован	-10.0093
▁тротуар	-10.0093
▁мертвым	-10.0094
▁показание	-10.0095
▁ын	-10.0097
▁залог	-10.0099
▁to	-10.0104
▁ром	-10.0107
▁фил	-10.0107
▁папа	-10.0107
▁крест	-10.0119
▁яр	-10.012
▁ломаченко	-10.0122
▁нуждающийся	-10.0123
▁250	-10.0123
sa	-10.0135
фт	-10.0138
▁стра	-10.0146
▁заробитчан	-10.0152
▁отравился	-10.0152
▁кейт	-10.0156
▁пус	-10.0161
ver	-10.0165
▁серьезно	-10.0166
▁плата	-10.0167
ёл	-10.0169
▁кома	-10.0172
▁анастасий	-10.0182
▁гигант	-10.0182
▁кривой	-10.0182
▁повлиял	-10.0182
▁реакция	-10.0182
▁херсон	-10.0182
▁голый	-10.0188
▁меняю	-10.0204
ter	-10.0205
▁нарко	-10.0206
▁дан	-10.021
груз	-10.0211
▁мордовия	-10.0212
ясь	-10.0214
▁предоставил	-10.0214
▁токай	-10.0214
▁минский	-10.0227
▁брест	-10.0235
▁ирак	-10.0245
ания	-10.0247
эт	-10.0249
▁важен	-10.0254
▁таен	-10.0258
▁пролив	-10.0261
щине	-10.0261
▁44	-10.0269
▁студентка	-10.0271
▁криптовалют	-10.0273
▁ноутбук	-10.0273
пел	-10.0275
co	-10.0276
бирать	-10.028
ограф	-10.0283
▁псковск	-10.0301
▁меркель	-10.0303
▁охранник	-10.0303
▁наличие	-10.0303
▁офицер	-10.0303
▁95	-10.0303
яться	-10.0304
▁масло	-10.0306
▁доступен	-10.0312
pe	-10.0325
кевич	-10.0326
▁боеприпас	-10.0333
▁расширил	-10.0333
▁разведка	-10.0333
▁73	-10.0337
▁буд	-10.0338
ена	-10.0342
▁мер	-10.0345
ni	-10.0356
метр	-10.036
сет	-10.0361
▁оккупант	-10.0364
▁таможня	-10.0364
▁самолёт	-10.0364
▁ролик	-10.0364
▁остаюсь	-10.0364
▁сигнал	-10.0365
▁тол	-10.0365
▁тушу	-10.0366
▁модный	-10.0368
▁польский	-10.0371
кер	-10.0375
▁положение	-10.039
▁попался	-10.039
▁be	-10.0392
▁крушение	-10.0394
▁функция	-10.0394
▁накрыл	-10.0394
▁частичен	-10.0395
▁коз	-10.0397
▁собираю	-10.0401
▁богатый	-10.0405
▁мос	-10.0408
▁кожа	-10.041
▁гуманитар	-10.0425
▁хлеб	-10.0425
▁тренд	-10.0425
▁сотовый	-10.0426
▁парикмахерский	-10.0434
▁вывел	-10.0435
▁сохранил	-10.044
бросил	-10.045
▁возлюбленный	-10.0456
▁камаз	-10.0456
▁земельн	-10.0456
▁бузова	-10.046
хим	-10.0461
ково	-10.0463
▁минута	-10.0463
▁украсил	-10.0469
▁элит	-10.0469
▁фин	-10.047
▁волос	-10.0471
▁предел	-10.0472
▁сон	-10.0479
▁отчет	-10.0485
ваться	-10.0486
▁hyundai	-10.0487
▁whatsapp	-10.0487
▁ОБСЕ	-10.0487
▁путешествие	-10.0487
▁венеция	-10.0487
▁остается	-10.0487
▁сломал	-10.0487
▁ношение	-10.0487
▁поднялся	-10.0495
90	-10.0505
▁дизайн	-10.0511
▁эрдоган	-10.0518
▁сложный	-10.0518
▁баррель	-10.0518
▁битва	-10.0518
▁фронт	-10.0527
▁выписал	-10.0531
▁мел	-10.0531
▁нос	-10.0535
▁выкуп	-10.0539
▁зало	-10.0541
ора	-10.0542
дом	-10.0548
▁экзамен	-10.0549
▁юнайтед	-10.0549
▁добавил	-10.0549
▁уборка	-10.0549
▁штормовой	-10.0551
▁дер	-10.056
▁иванов	-10.0576
▁57	-10.0577
▁playstation	-10.058
▁ОГА	-10.058
▁солнечный	-10.058
▁древний	-10.0584
рёк	-10.06
▁шпион	-10.061
▁захотел	-10.0611
▁госдеп	-10.0611
▁арена	-10.0614
▁природ	-10.0615
▁wi	-10.0628
▁испыта	-10.064
▁махачкала	-10.0642
▁рудковск	-10.0642
▁планета	-10.0647
▁тим	-10.0649
▁star	-10.0652
▁гора	-10.0658
▁лоб	-10.0658
▁скрываю	-10.0662
▁записал	-10.0663
▁марок	-10.0666
▁кв	-10.0667
▁кадыров	-10.0669
дает	-10.0669
▁министерство	-10.0674
▁ученик	-10.0674
жиг	-10.0675
▁собрался	-10.0689
▁кг	-10.069
▁вологжанин	-10.0705
▁железнодорожный	-10.0705
▁московские	-10.0705
▁верю	-10.0715
вёз	-10.0729
ланд	-10.0731
нет	-10.0733
бро	-10.0735
ндер	-10.0736
чил	-10.0737
▁ВИЧ	-10.0737
▁оренбуржье	-10.0737
▁свежий	-10.0737
▁чувашия	-10.0737
▁гостиница	-10.0737
▁пушок	-10.0737
▁туляк	-10.0737
▁закрываю	-10.0737
▁цирк	-10.0738
▁снос	-10.0749
▁эконом	-10.076
▁РПЦ	-10.0769
▁медведь	-10.0769
▁чиновница	-10.0769
▁аномальный	-10.0772
▁отказываюсь	-10.0777
tor	-10.078
▁крыло	-10.0781
гент	-10.0782
писать	-10.0793
▁выпускник	-10.0794
уха	-10.0794
ских	-10.0801
▁xbox	-10.0801
▁нидерланды	-10.0801
▁подешевел	-10.0801
▁альбом	-10.0801
▁гитлер	-10.0801
▁устройство	-10.0801
▁полоса	-10.0801
стат	-10.0806
совет	-10.0809
ложить	-10.0809
we	-10.0811
▁энерго	-10.0821
еров	-10.0827
▁ФАС	-10.0833
▁короткий	-10.0833
▁происхождение	-10.0833
▁расписание	-10.0833
▁слишком	-10.0833
▁электричество	-10.0833
▁отменяю	-10.0833
▁добр	-10.0844
▁приступи	-10.0844
сший	-10.0847
водить	-10.0848
▁ввожу	-10.0849
▁угна	-10.0849
туш	-10.0861
▁балаклея	-10.0865
▁господдержка	-10.0865
▁рассматриваю	-10.0865
▁част	-10.0868
▁прокат	-10.0873
▁мене	-10.0874
▁голов	-10.088
▁fi	-10.0882
дель	-10.0884
ое	-10.0888
▁поддержать	-10.0894
ань	-10.0895
рв	-10.0896
▁появиться	-10.0897
▁хватило	-10.0897
▁пациентка	-10.0898
▁целый	-10.091
▁эффект	-10.0915
man	-10.0916
▁уступил	-10.0924
▁lo	-10.0929
▁volkswagen	-10.0929
▁митрополит	-10.0929
▁эксплуатация	-10.0929
▁архив	-10.0929
▁запись	-10.0929
▁забрал	-10.0929
▁стража	-10.0931
сор	-10.0951
▁публичный	-10.0956
▁асфальт	-10.0961
▁истребитель	-10.0961
▁ликвидация	-10.0961
▁обновлён	-10.0961
▁протестующий	-10.0961
▁музыкант	-10.0963
▁пикет	-10.0967
▁РК	-10.0969
▁рож	-10.097
▁юли	-10.097
▁валерия	-10.097
▁цел	-10.0979
▁транс	-10.0986
▁z	-10.099
▁ОНФ	-10.0994
▁безопасный	-10.0994
▁реальность	-10.0994
▁привлек	-10.0996
▁сохранение	-10.0998
▁41	-10.1004
левой	-10.1014
▁нурмагомед	-10.1023
▁монастырь	-10.1027
▁положительный	-10.1027
▁шашлык	-10.1027
▁силён	-10.1028
▁камень	-10.1034
▁плав	-10.1044
▁непри	-10.1046
▁заражённый	-10.1058
▁виза	-10.1059
▁олимпийский	-10.1059
▁клещи	-10.1059
▁открывать	-10.1059
▁астролог	-10.1059
▁наушник	-10.106
▁голуб	-10.1061
▁мотоциклист	-10.1062
ковый	-10.1072
▁султана	-10.108
▁луна	-10.1081
▁активный	-10.1082
▁теннис	-10.1088
▁педагог	-10.1092
▁солнце	-10.1092
▁светлана	-10.1092
▁нехватка	-10.1092
▁тра	-10.1094
▁любитель	-10.1094
газ	-10.1099
фан	-10.1106
▁1000	-10.1112
▁window	-10.1125
▁унитаз	-10.1125
▁загитов	-10.1125
здрав	-10.1127
▁влияю	-10.1127
▁койка	-10.1128
▁флагман	-10.113
▁иска	-10.1137
сения	-10.114
▁супруг	-10.1142
▁политик	-10.1144
▁сектор	-10.1148
▁застря	-10.115
делил	-10.1156
▁КНДР	-10.1158
▁английский	-10.1158
▁гэтжи	-10.1158
▁артема	-10.1158
▁попасть	-10.1158
▁материн	-10.1159
▁хуже	-10.1159
▁нацизм	-10.116
▁егор	-10.1163
▁ну	-10.117
▁аль	-10.1172
АР	-10.1174
▁референдум	-10.1191
▁супермаркет	-10.1191
▁усиление	-10.1194
резаю	-10.1197
▁здоровый	-10.1197
ap	-10.1198
чер	-10.1222
▁ОАЭ	-10.1224
▁арахамия	-10.1224
▁конкурент	-10.1224
▁люберцы	-10.1224
▁кольцо	-10.1224
▁шок	-10.1225
▁итоговый	-10.1227
▁глу	-10.1227
ченный	-10.1227
люб	-10.1244
бед	-10.1244
стар	-10.1245
пан	-10.1248
▁минимальный	-10.1258
▁сотрудница	-10.1258
▁секретарю	-10.1258
▁тизер	-10.1258
▁отменён	-10.1258
руб	-10.1269
бри	-10.1269
ык	-10.1269
▁ведет	-10.127
▁назарбаев	-10.1291
▁профессор	-10.1291
▁участница	-10.1291
▁фоторепортаж	-10.1291
▁денеж	-10.1291
▁пит	-10.1293
▁организм	-10.1293
▁усть	-10.1296
▁принятие	-10.1299
▁привёз	-10.13
▁фигура	-10.1302
▁билл	-10.1303
ходящий	-10.1306
▁супруга	-10.1307
▁срыв	-10.1309
бран	-10.1313
▁побил	-10.1319
▁барнаул	-10.1325
▁позволяю	-10.1325
▁рассчитываю	-10.1325
▁вслед	-10.1327
▁ас	-10.1328
▁приют	-10.1337
▁спад	-10.1339
▁вывез	-10.1344
горел	-10.135
▁76	-10.1353
▁лицензия	-10.1358
▁успешен	-10.1358
▁электричка	-10.1358
▁завершить	-10.1358
▁захвачен	-10.1358
▁никитин	-10.1358
▁рассмотрение	-10.1359
▁пиво	-10.1367
▁вкус	-10.138
шедший	-10.1383
▁перевёл	-10.1383
▁лист	-10.1384
▁генпрокурор	-10.1392
▁дистанционен	-10.1392
▁муниципалитет	-10.1392
▁молдавия	-10.1394
рад	-10.1395
▁дачный	-10.1397
маш	-10.1404
гран	-10.1422
▁просмотр	-10.1423
▁арта	-10.1424
▁академия	-10.1426
▁роскосмос	-10.1426
▁таджикистан	-10.1426
▁туалет	-10.1426
▁бомба	-10.1426
▁останки	-10.1428
ага	-10.1435
ецкий	-10.1447
▁наука	-10.1447
ходить	-10.1448
ttle	-10.146
▁госпитализация	-10.146
▁перевозчик	-10.146
▁потепление	-10.146
os	-10.1461
▁фотограф	-10.1465
▁акт	-10.1473
▁so	-10.1473
der	-10.1473
▁эт	-10.1478
▁закрыть	-10.1479
▁смоленск	-10.1485
▁погод	-10.1486
▁говорить	-10.1489
▁плановый	-10.1493
▁лишить	-10.1493
▁лёд	-10.1494
▁революция	-10.1494
▁ярмарка	-10.1494
▁перечень	-10.1494
▁пятеро	-10.1495
▁красно	-10.1498
▁кадыр	-10.15
▁900	-10.15
▁активность	-10.1503
▁агентство	-10.1503
▁обвини	-10.1528
▁бригада	-10.1528
сте	-10.153
▁тип	-10.1531
do	-10.1533
▁предмет	-10.1533
▁овощ	-10.1535
▁анатоли	-10.1557
▁вызываю	-10.156
de	-10.1561
чит	-10.1562
▁шереметьево	-10.1563
▁заразиться	-10.1563
▁володин	-10.1564
ведён	-10.1567
▁донор	-10.158
▁досроч	-10.1582
▁кир	-10.1583
▁простой	-10.1588
▁становлюсь	-10.1597
▁инвест	-10.1601
▁боксер	-10.1608
▁рака	-10.1616
▁взять	-10.1623
▁ГПУ	-10.1632
▁авиарейс	-10.1632
▁железноводск	-10.1632
▁громкий	-10.1633
▁родной	-10.1644
▁st	-10.1646
аемый	-10.1648
▁жесток	-10.1663
▁вывод	-10.1663
▁ассоциация	-10.1666
▁полмиллиона	-10.1666
▁соблюдать	-10.1666
▁освободить	-10.1667
▁улучшение	-10.1668
тех	-10.1668
▁горсовет	-10.1668
лай	-10.167
▁благо	-10.1676
▁дрон	-10.1682
пром	-10.1684
▁пик	-10.1685
рок	-10.1699
▁писатель	-10.1701
▁владикавказ	-10.1701
▁домогательство	-10.1701
▁завершён	-10.1701
▁обнародовал	-10.1701
▁выдавать	-10.1701
▁перемена	-10.1702
▁гера	-10.1704
их	-10.171
одержал	-10.171
енные	-10.1716
▁al	-10.1717
мыш	-10.1722
▁приговорил	-10.1727
▁альф	-10.1729
ливаю	-10.1732
▁обокрал	-10.1736
▁прикамье	-10.1736
▁гололед	-10.1736
▁жив	-10.1736
ию	-10.1752
▁псих	-10.1755
▁ФАН	-10.1771
▁ХМАО	-10.1771
▁австралия	-10.1771
▁остановить	-10.1771
▁ворота	-10.1771
▁сдача	-10.1772
▁note	-10.1772
▁амурский	-10.1774
▁авиация	-10.1775
▁53	-10.1781
гнал	-10.1782
▁юр	-10.1783
смотр	-10.1787
▁E	-10.1793
слав	-10.1795
▁group	-10.1807
▁телевизор	-10.1807
▁вьетнам	-10.1807
▁ордло	-10.1807
бек	-10.1813
вших	-10.1817
amp	-10.1818
500	-10.182
▁раненый	-10.1833
▁маль	-10.1834
ваюсь	-10.1842
бить	-10.1842
▁ЧВК	-10.1842
▁воробьев	-10.1842
▁макгрегор	-10.1842
▁дольщик	-10.1842
▁закупил	-10.1843
▁51	-10.1844
▁аспирантка	-10.1848
▁перенести	-10.1857
▁град	-10.187
▁ФСИН	-10.1877
▁должник	-10.1877
▁пояснил	-10.1878
▁худший	-10.1878
▁костром	-10.1878
ka	-10.1879
ключил	-10.1883
▁душ	-10.1891
кинуть	-10.1896
орвался	-10.1897
▁twitter	-10.1913
▁капитан	-10.1913
▁килограмм	-10.1913
▁содержание	-10.1913
▁дважды	-10.1913
▁васили	-10.1914
ul	-10.1929
▁нефте	-10.1942
15	-10.1943
▁цар	-10.1944
▁инструмент	-10.1949
▁невозможен	-10.1949
▁раздача	-10.1949
▁общество	-10.1952
пир	-10.1953
▁четверть	-10.1955
om	-10.1956
▁расс	-10.197
▁возник	-10.1972
▁строить	-10.1974
news	-10.1983
▁вероятност	-10.1985
▁екатерина	-10.1985
▁кювета	-10.1985
▁хранение	-10.1985
▁лекция	-10.1985
▁анджелес	-10.1985
▁умираю	-10.1988
▁W	-10.199
учи	-10.199
▁живет	-10.2005
▁крем	-10.2005
▁макар	-10.2017
▁высмея	-10.202
▁откровенный	-10.202
▁ставрополец	-10.202
▁чернобыль	-10.202
▁взыска	-10.2021
▁чрезвычайный	-10.2021
▁примета	-10.2021
▁пришел	-10.2021
▁населенны	-10.2024
▁занимаюсь	-10.2025
▁километр	-10.2027
▁планируюсь	-10.203
▁фигур	-10.2034
▁чечен	-10.2046
▁маг	-10.2051
one	-10.2051
▁велосипед	-10.2052
▁ворон	-10.2055
▁зауралье	-10.2057
▁медведчук	-10.2057
▁промышленный	-10.2057
▁соловьев	-10.2057
▁текущий	-10.2057
▁структура	-10.2057
▁ФК	-10.2061
вшись	-10.2062
пресс	-10.2065
▁заря	-10.2066
▁дворец	-10.2083
▁У	-10.2085
▁встал	-10.2087
▁накануне	-10.2093
▁приближаю	-10.2093
▁ребенком	-10.2093
▁франций	-10.2093
▁гагарин	-10.2093
▁полковник	-10.2093
▁монета	-10.2093
чок	-10.2109
▁предста	-10.2111
МК	-10.2112
▁природа	-10.2113
▁ленинградский	-10.2114
док	-10.2125
▁кулеба	-10.2129
▁муниципал	-10.2129
▁спецслужба	-10.2129
▁электрический	-10.2129
▁кокорин	-10.2129
▁информацион	-10.213
айн	-10.2136
▁позор	-10.2136
▁ранение	-10.2142
▁запустить	-10.2146
пущен	-10.2147
уча	-10.2156
цкий	-10.2161
▁ранни	-10.2164
▁знаменитый	-10.2166
▁процедура	-10.2166
▁спасибо	-10.2166
▁лолита	-10.2166
▁поехал	-10.2166
▁шпионаж	-10.2167
▁посмотрел	-10.2173
финанс	-10.2175
▁меж	-10.2184
ошел	-10.2193
▁али	-10.2195
▁трусова	-10.2198
данный	-10.2201
▁снегопад	-10.2202
▁лечить	-10.2203
▁отпустил	-10.2204
▁сдавать	-10.2205
ъехал	-10.2205
▁асад	-10.2205
▁персональный	-10.2205
▁РФС	-10.2208
no	-10.2218
ства	-10.2218
▁боль	-10.2222
▁памят	-10.2223
▁новороссийск	-10.223
▁уголь	-10.2238
▁антисептик	-10.2239
▁калифорния	-10.2239
▁отпразднова	-10.2239
▁седьмой	-10.2239
▁интересуюсь	-10.2239
▁технический	-10.2239
▁тройка	-10.2239
id	-10.2244
▁годовой	-10.2246
бель	-10.2261
▁коллектив	-10.2276
▁установить	-10.2276
▁флешмоб	-10.2276
▁спровоцирова	-10.2276
ьший	-10.2276
▁правильный	-10.2276
▁охота	-10.2277
▁стартап	-10.228
▁слез	-10.2285
▁похвастал	-10.2313
▁стратегический	-10.2313
▁могила	-10.2313
▁потребитель	-10.2313
▁уточнил	-10.2313
▁бунт	-10.2319
ола	-10.2327
▁бабкин	-10.2331
▁август	-10.2339
▁забор	-10.2345
платил	-10.2347
▁повысить	-10.235
▁рецидивист	-10.235
▁феттель	-10.235
▁обманул	-10.2352
▁вооружение	-10.2352
mo	-10.2368
енной	-10.2376
▁хит	-10.2379
▁интеллект	-10.2379
▁закрылся	-10.238
▁богат	-10.2382
▁полигон	-10.2388
▁близок	-10.2388
▁виновный	-10.2388
▁раню	-10.2388
▁яркий	-10.239
зор	-10.2393
план	-10.2399
▁ху	-10.2404
▁театральный	-10.2405
▁фед	-10.2407
▁доклад	-10.2415
совершеннолетний	-10.2425
▁госбюджет	-10.2425
▁инфраструктура	-10.2425
▁очевидец	-10.2425
▁подготовить	-10.2425
▁применение	-10.2425
▁подруга	-10.2425
▁весенний	-10.2426
▁победить	-10.2428
▁o	-10.2433
▁юго	-10.2442
мут	-10.2445
тому	-10.2447
▁прилетел	-10.2451
land	-10.2458
▁тем	-10.2459
▁утренний	-10.2463
сель	-10.2463
▁boe	-10.2463
▁провалился	-10.2468
▁снёс	-10.2471
нда	-10.248
ливый	-10.248
▁стре	-10.2481
арь	-10.2482
▁63	-10.2491
▁расследую	-10.25
▁поэтапный	-10.25
▁сирота	-10.25
▁демократ	-10.25
▁филиал	-10.25
▁сообщаю	-10.25
▁набрал	-10.2501
ha	-10.2508
▁забыл	-10.2514
фир	-10.2523
▁метода	-10.2533
▁традиция	-10.2538
▁оборот	-10.2538
▁шахмат	-10.2539
двигаюсь	-10.2544
берг	-10.2549
ения	-10.255
▁патрульный	-10.2551
▁добрый	-10.2553
▁мик	-10.2558
▁танц	-10.2559
тряс	-10.2566
▁окс	-10.2566
▁укра	-10.2574
▁урожай	-10.2576
▁предварительн	-10.2577
▁выявление	-10.258
еле	-10.2602
▁газель	-10.2602
▁ПДД	-10.2614
▁размещение	-10.2614
▁греция	-10.2614
▁грузинский	-10.2616
op	-10.2631
▁разоблачи	-10.2636
▁эко	-10.2641
▁74	-10.2642
21	-10.2649
▁forbes	-10.2653
▁атмосфер	-10.2653
▁поджог	-10.2653
ируемый	-10.2653
правляю	-10.2661
▁живот	-10.2662
▁бре	-10.2666
▁открываюсь	-10.2669
▁научил	-10.2672
ph	-10.2677
▁понимаю	-10.268
av	-10.2682
▁серьезны	-10.2691
▁вакансия	-10.2691
▁замминистра	-10.2691
▁извинился	-10.2691
▁исполнитель	-10.2691
▁фракция	-10.2691
▁мытищи	-10.2691
▁океан	-10.2692
▁аграрий	-10.2694
▁липецкий	-10.2695
▁экономист	-10.2696
кина	-10.2697
▁допрос	-10.2702
▁желты	-10.2703
▁богдан	-10.2721
кого	-10.2724
куль	-10.2728
хоз	-10.2729
▁bloomberg	-10.273
▁беременность	-10.273
▁избиратель	-10.273
▁эффективность	-10.273
▁посмотреть	-10.273
▁православный	-10.273
▁ярославль	-10.2731
▁бас	-10.2756
очередной	-10.2757
▁54	-10.2766
▁изображение	-10.2768
▁приоритет	-10.2768
▁дальше	-10.2769
▁распродажа	-10.2769
истый	-10.2785
▁ангел	-10.2796
▁молод	-10.2805
▁близкий	-10.2807
▁кузнец	-10.2807
▁МТС	-10.2808
▁минтруд	-10.2808
▁сыр	-10.2813
цу	-10.2814
▁дав	-10.2816
▁гей	-10.2833
▁баран	-10.2833
▁диагноз	-10.2846
▁пристайко	-10.2846
ард	-10.2855
▁жестокий	-10.2857
▁разбил	-10.2866
▁высоко	-10.2868
▁спасаю	-10.2876
срочный	-10.2881
▁успешный	-10.2886
▁лунный	-10.2889
98	-10.2894
▁брать	-10.2906
еры	-10.2911
▁воронежец	-10.2912
▁медучреждение	-10.2925
▁норвегия	-10.2925
▁высота	-10.2925
▁tele	-10.2925
▁сбежа	-10.294
▁подключ	-10.2946
▁сдать	-10.2946
▁заинтересовал	-10.2965
▁претендую	-10.2965
▁преодоле	-10.2965
▁ливень	-10.2965
▁избавиться	-10.2969
▁съе	-10.297
раст	-10.2974
верил	-10.2994
▁ограничен	-10.2998
анд	-10.2999
▁хозяйство	-10.3004
▁участвую	-10.3004
▁диалог	-10.3004
▁нападающий	-10.3004
▁тоже	-10.3008
▁майкл	-10.301
▁разрабатываю	-10.3016
▁тар	-10.3018
▁запрос	-10.302
надзор	-10.3026
W	-10.3036
▁плох	-10.3038
ология	-10.3041
▁браконьер	-10.3044
▁восстановить	-10.3044
▁миддлтон	-10.3044
▁экскурсия	-10.3044
▁энергия	-10.3044
▁присвои	-10.3044
▁штурм	-10.3044
▁вандал	-10.3045
▁менять	-10.3048
▁вооруженны	-10.3061
▁трениров	-10.3069
▁гон	-10.3072
▁архангельск	-10.3075
класс	-10.3081
▁залив	-10.3082
▁образовательный	-10.3084
▁полгода	-10.3084
▁создаю	-10.3084
хождение	-10.3084
▁покупал	-10.3084
▁ученый	-10.3086
▁минэнерго	-10.3086
▁мужской	-10.3096
▁действовать	-10.311
ne	-10.3113
▁катер	-10.3115
▁аренд	-10.3116
▁поддельный	-10.312
ио	-10.3123
▁гаджет	-10.3124
▁сыграть	-10.3124
▁инженер	-10.3124
▁кавказ	-10.3124
▁комсомольск	-10.3124
▁длинный	-10.3124
▁тищенко	-10.3125
▁роддом	-10.3125
▁еду	-10.3133
▁56	-10.3144
бежал	-10.3148
▁спецназ	-10.3148
art	-10.3157
▁66	-10.3164
▁дивиденд	-10.3165
▁дистанция	-10.3165
▁коллекция	-10.3165
▁плазма	-10.3165
▁экипаж	-10.3165
▁бассейн	-10.3165
▁удалил	-10.3165
▁хабиров	-10.3165
▁нокаут	-10.3165
▁строил	-10.3165
▁быстрее	-10.3166
▁держу	-10.3166
▁велосипедист	-10.3169
200	-10.3174
ty	-10.3175
▁долгий	-10.3196
▁привлёк	-10.3205
▁прогресс	-10.3205
▁виновник	-10.3205
▁дорамы	-10.3205
▁утонул	-10.3205
▁нацпроекта	-10.3205
▁орден	-10.3205
▁связал	-10.3205
▁сверх	-10.3207
пс	-10.3211
▁рот	-10.3212
▁смоленский	-10.3216
▁принёс	-10.3223
▁la	-10.3223
▁решаю	-10.3227
ачев	-10.3238
▁активен	-10.3242
этаж	-10.3242
▁вячеслав	-10.3246
▁отсрочка	-10.3246
▁претензия	-10.3246
▁промышленность	-10.3246
▁чувствую	-10.3246
▁сахар	-10.3246
▁new	-10.3247
▁объединение	-10.325
▁лишний	-10.3253
верие	-10.3257
▁крымчанин	-10.3259
UA	-10.326
99	-10.3263
▁улич	-10.3275
бивать	-10.3283
▁афганистан	-10.3287
▁распространя	-10.3287
▁разместил	-10.3287
▁терроризм	-10.3287
▁займет	-10.3287
▁заведение	-10.3297
▁мину	-10.3311
▁составлен	-10.3311
лади	-10.3322
кладываю	-10.3322
▁super	-10.3328
▁светофор	-10.3328
▁казанский	-10.3328
▁жилец	-10.3328
▁ключ	-10.3329
пугал	-10.333
▁снижаюсь	-10.3335
▁боб	-10.3346
▁погоня	-10.3347
▁каток	-10.3348
бур	-10.3357
▁$3	-10.3368
▁УПЛ	-10.3369
▁big	-10.3369
▁слежу	-10.3369
▁певец	-10.3369
▁ИК	-10.3369
▁засуха	-10.3369
▁пятигорск	-10.3369
вит	-10.3369
оставлять	-10.3371
▁доступный	-10.3381
пустил	-10.3386
▁перевал	-10.3395
▁воен	-10.341
▁заповедник	-10.341
▁исчезновение	-10.341
▁коломойский	-10.341
▁корпоратив	-10.341
▁продавец	-10.341
▁эпоха	-10.341
▁отрицаю	-10.341
▁азар	-10.3411
▁ford	-10.3413
▁онколог	-10.3413
числение	-10.3414
▁августа	-10.3423
▁рискую	-10.3425
age	-10.3428
▁ha	-10.3437
▁мода	-10.345
▁авиасообщение	-10.3451
▁застрелил	-10.3451
▁инфляция	-10.3451
▁микроавтобус	-10.3451
▁мурманчанин	-10.3451
▁патрулирование	-10.3451
▁сюрприз	-10.3451
▁электромобиль	-10.3452
▁коммунист	-10.3452
▁коронавирусных	-10.3453
▁дружба	-10.3455
▁мотив	-10.3457
▁регин	-10.3467
рабатываю	-10.3469
▁99	-10.3469
▁взорвался	-10.347
▁объясн	-10.3471
▁жд	-10.3476
▁фактор	-10.3478
▁изнасиловал	-10.3478
▁больничный	-10.3483
▁амур	-10.349
▁КПРФ	-10.3493
▁депрессия	-10.3493
▁квалификация	-10.3493
▁пожертвова	-10.3493
▁поздравляю	-10.3493
▁определен	-10.3493
▁коллектор	-10.3493
▁лидирую	-10.3493
▁ездить	-10.3493
▁вагон	-10.3493
▁настроение	-10.3494
крыть	-10.3494
▁расширение	-10.3496
▁учет	-10.3501
▁пошл	-10.3501
бург	-10.3513
▁ладо	-10.3515
▁баку	-10.3522
▁эс	-10.3528
▁советую	-10.3528
▁фан	-10.3529
двиг	-10.3531
▁совершен	-10.3535
▁life	-10.3535
▁renault	-10.3535
▁ВВС	-10.3535
▁КАД	-10.3535
▁минпросвещения	-10.3535
▁престарелый	-10.3535
▁диабет	-10.3535
▁консультация	-10.3535
▁занятость	-10.3535
▁аналог	-10.3535
▁ухта	-10.3536
▁пикап	-10.3536
▁обратить	-10.3537
▁страховой	-10.3542
▁кай	-10.3544
▁дизайнер	-10.3544
рет	-10.3548
per	-10.3554
▁расчет	-10.3557
звать	-10.3558
кле	-10.3559
▁радикал	-10.356
▁пошёл	-10.3563
▁львовский	-10.3565
▁наряд	-10.3569
▁поляк	-10.3569
▁текст	-10.357
▁мари	-10.3573
12	-10.3576
▁macbook	-10.3577
▁овечкин	-10.3577
▁случаен	-10.3577
▁стационар	-10.3577
▁черчесов	-10.3577
▁фитнес	-10.3577
▁шойгу	-10.3577
▁обеспечение	-10.3579
тир	-10.3579
▁франк	-10.3581
▁онищенко	-10.3583
▁венедиктов	-10.3586
▁бул	-10.359
скую	-10.3593
учиться	-10.3594
ix	-10.3611
▁пить	-10.3616
▁археолог	-10.3619
▁пушкино	-10.3619
▁защищаю	-10.3619
▁уволить	-10.3619
▁трлн	-10.3619
▁внутри	-10.3619
▁индий	-10.362
▁мешаю	-10.362
сервис	-10.3621
▁130	-10.3622
▁завершаюсь	-10.3625
инка	-10.3633
▁пойдет	-10.3635
▁достал	-10.3635
▁72	-10.3635
ue	-10.3637
▁читаю	-10.3653
ot	-10.3653
инского	-10.3657
▁ВАЗ	-10.3662
▁возглавить	-10.3662
▁янукович	-10.3662
▁здесь	-10.3662
▁глеб	-10.3662
▁развязка	-10.3662
▁командир	-10.3662
уплата	-10.3662
▁he	-10.3663
общ	-10.3665
▁избран	-10.3667
▁посадил	-10.3668
▁ленин	-10.3669
▁уткин	-10.3682
▁пыта	-10.3689
▁семин	-10.3694
edi	-10.3694
сек	-10.3695
▁рубин	-10.3702
▁расстрел	-10.3704
▁netflix	-10.3704
▁оформить	-10.3704
▁предотврати	-10.3704
▁преступник	-10.3704
▁тольятти	-10.3704
▁фотофакт	-10.3704
▁бумага	-10.3704
▁комфорт	-10.3704
▁бельё	-10.3704
▁lada	-10.3705
вожусь	-10.3708
tra	-10.3708
▁теряю	-10.371
▁сух	-10.3712
ложение	-10.3729
▁бузов	-10.3741
▁альтернатива	-10.3747
▁газопровод	-10.3747
▁обстоятельство	-10.3747
▁преподаватель	-10.3747
▁расширить	-10.3747
▁моралес	-10.3747
▁издание	-10.3747
▁проверять	-10.3747
▁ЧМ	-10.3747
▁мечтаю	-10.3747
▁немного	-10.3748
▁показываю	-10.375
▁трава	-10.375
▁рассказываю	-10.375
▁начинаюсь	-10.3766
▁необходимый	-10.3768
▁легенда	-10.3778
▁принес	-10.3778
▁подвиг	-10.3782
▁искать	-10.3785
евый	-10.3787
движ	-10.3788
▁коломойского	-10.379
▁контейнер	-10.379
▁озвучен	-10.379
▁привычка	-10.379
▁повышаю	-10.379
▁убиваю	-10.379
▁диета	-10.379
▁усилить	-10.379
▁враг	-10.3797
▁тестировать	-10.3807
▁продает	-10.3807
▁руль	-10.3823
▁экологически	-10.3827
▁публика	-10.3831
ступил	-10.3831
▁ЦИК	-10.3833
▁аккаунт	-10.3833
▁представляю	-10.3833
▁сюжет	-10.3833
▁выполнил	-10.3833
▁толстый	-10.3833
▁комаровский	-10.3833
▁тенге	-10.3833
▁чёрный	-10.3833
▁швейцария	-10.3835
лег	-10.384
▁audi	-10.3841
▁жир	-10.3843
▁приём	-10.3849
▁загадочный	-10.385
▁хожу	-10.3856
везти	-10.3863
▁nissan	-10.3876
▁дзюба	-10.3876
▁характеристика	-10.3876
▁санаторий	-10.3876
▁выздоровевших	-10.3876
ЭК	-10.3882
▁галкин	-10.3888
▁швед	-10.3889
▁волонтеров	-10.3889
▁автобусный	-10.3891
▁морозы	-10.3895
овод	-10.3897
▁эп	-10.3899
овском	-10.3901
истический	-10.3908
▁инфекционист	-10.392
▁квадрат	-10.392
▁невыплата	-10.392
▁WADA	-10.392
▁участвовать	-10.3923
▁нормальный	-10.3923
▁жуков	-10.3923
▁настя	-10.3929
▁сами	-10.3937
▁обед	-10.3938
ступился	-10.3944
одный	-10.3952
ичен	-10.396
▁подход	-10.3962
▁steam	-10.3963
▁ПФР	-10.3963
▁бездомные	-10.3963
▁пространство	-10.3963
▁трибуна	-10.3963
▁центробанк	-10.3963
▁четвертый	-10.3964
▁биолог	-10.3965
▁максимальный	-10.3968
▁научный	-10.3972
▁водка	-10.3974
▁самар	-10.3979
нформ	-10.3987
▁ho	-10.3988
▁баз	-10.3992
▁отправить	-10.3993
▁one	-10.4003
▁пистолет	-10.4007
▁подписчик	-10.4007
▁прохожий	-10.4007
▁репетиция	-10.4007
▁тревога	-10.4007
щенко	-10.4037
▁алекс	-10.4047
▁ФИФА	-10.4051
▁административ	-10.4051
▁первенство	-10.4051
▁преимущество	-10.4051
▁силуанов	-10.4051
▁вспыхну	-10.4051
▁непогода	-10.4051
▁принцип	-10.4052
▁решить	-10.4052
▁убить	-10.4055
▁совфеде	-10.4064
▁конева	-10.407
ant	-10.4071
▁встретил	-10.4073
▁доверие	-10.4079
▁ижевск	-10.408
▁бытов	-10.4091
▁приватбанк	-10.4091
▁взгляд	-10.4095
▁нижневартовск	-10.4095
▁олигарх	-10.4095
▁полуфинал	-10.4095
▁поручение	-10.4095
▁смысл	-10.4096
▁защитил	-10.4096
▁планшет	-10.4096
▁мониторинг	-10.4097
▁sport	-10.4098
▁презентация	-10.4099
▁падаю	-10.4102
▁лже	-10.4105
▁слабый	-10.4108
▁выбираю	-10.4118
ёг	-10.4123
▁бесс	-10.4127
▁журналистка	-10.413
▁водоканал	-10.4133
▁завтрак	-10.4135
▁шторм	-10.4136
▁хот	-10.4138
▁отрицательный	-10.414
▁потеплел	-10.414
▁крутой	-10.414
▁украшение	-10.414
▁берлин	-10.414
▁задержка	-10.4141
▁садовый	-10.4142
▁чехов	-10.4143
▁максим	-10.4149
▁маршал	-10.4149
▁фигуристка	-10.4159
▁следить	-10.4169
кончить	-10.417
▁le	-10.417
пускать	-10.4172
▁досто	-10.4172
▁журнал	-10.418
▁личен	-10.4182
▁store	-10.4185
▁блокчейн	-10.4185
▁минобрнауки	-10.4185
▁росгвардии	-10.4185
▁согласовал	-10.4185
▁сгоревший	-10.4185
▁допинг	-10.4185
▁срочен	-10.4185
▁мертв	-10.4186
▁приблизил	-10.4186
▁голиков	-10.4187
▁пират	-10.4192
▁шахтера	-10.4195
▁заработать	-10.4199
▁самолеты	-10.4215
ly	-10.4222
▁нарушаю	-10.4228
▁сохран	-10.4228
▁МФЦ	-10.4229
▁ежедневен	-10.4229
▁фотосессия	-10.4229
▁еврей	-10.4229
▁грозный	-10.423
▁личность	-10.423
▁мега	-10.4231
▁пошел	-10.4238
▁вакцинация	-10.4239
дон	-10.4247
пасаюсь	-10.4252
▁уличи	-10.4264
▁заключен	-10.4266
▁мотоцикл	-10.427
▁горе	-10.4272
▁волейбол	-10.4274
▁гидрометцентр	-10.4274
▁младший	-10.4274
▁поучаствова	-10.4274
▁серпухов	-10.4274
▁ложь	-10.4275
▁полю	-10.4277
▁взнос	-10.4277
ЭС	-10.4278
▁лука	-10.4279
овавший	-10.4298
ойти	-10.4302
▁подписать	-10.4303
▁намерение	-10.4311
▁обвал	-10.4318
▁вынужден	-10.432
▁гектар	-10.432
▁ленточка	-10.432
▁недоволен	-10.432
▁продюсер	-10.432
▁хирург	-10.432
▁церемония	-10.432
▁переболел	-10.432
▁добился	-10.432
▁драма	-10.4321
▁сахалинск	-10.4323
▁лыж	-10.4324
▁поразил	-10.4325
▁заключение	-10.4326
▁фар	-10.4331
▁бойко	-10.4344
▁71	-10.4346
▁финский	-10.4358
▁sp	-10.436
▁буря	-10.4364
▁award	-10.4365
▁бухгалтер	-10.4365
▁департамент	-10.4365
▁счастие	-10.4365
▁улучшил	-10.4365
▁выручка	-10.4365
▁2023	-10.4365
▁управляющий	-10.4365
▁талант	-10.4365
улин	-10.4368
▁заражен	-10.4372
▁предоставлен	-10.4375
▁король	-10.438
▁автоном	-10.4382
▁байдена	-10.4387
крытый	-10.4398
▁слаб	-10.4401
▁КБР	-10.4411
▁дальнейший	-10.4411
▁концепция	-10.4411
▁михалков	-10.4411
▁рассекретил	-10.4411
▁человеческий	-10.4411
▁актуальный	-10.4411
▁тишина	-10.4411
▁заниматься	-10.4411
▁витамин	-10.4411
▁шутка	-10.4411
▁пьян	-10.4411
▁запах	-10.4412
▁трогател	-10.4413
▁ещенко	-10.4413
▁кандидатура	-10.4413
оле	-10.4415
▁выбросил	-10.4417
▁аля	-10.4427
судил	-10.4429
шки	-10.4441
▁миллионер	-10.4452
▁миранчук	-10.4457
▁skoda	-10.4457
▁дорожаю	-10.4457
▁знамя	-10.4457
▁прекратить	-10.4457
▁служеб	-10.4457
▁кабинет	-10.4457
▁отобрал	-10.4457
овщик	-10.4458
▁практика	-10.4458
▁УК	-10.4461
▁символ	-10.4461
▁точен	-10.4462
▁мотор	-10.4472
▁лишение	-10.4474
▁переезд	-10.4475
▁собор	-10.448
▁петров	-10.4482
скрывать	-10.4494
▁барин	-10.4498
▁чей	-10.4498
▁cree	-10.4503
▁world	-10.4503
▁эксклюзив	-10.4503
▁существен	-10.4503
▁кипр	-10.4505
▁демо	-10.451
дневный	-10.4518
▁способен	-10.4519
фикация	-10.4521
счет	-10.4529
▁дешев	-10.4529
▁направлен	-10.4545
▁honor	-10.4549
▁заработок	-10.4549
▁механизм	-10.4549
▁послабление	-10.4549
▁кухня	-10.4549
▁пустой	-10.4549
▁признать	-10.4549
▁четверки	-10.4553
▁ровен	-10.4554
святил	-10.4555
▁готовиться	-10.4564
▁рано	-10.4572
▁куб	-10.4589
рош	-10.4594
▁вишневский	-10.4596
▁георгий	-10.4596
▁запрещён	-10.4596
▁пополнил	-10.4596
▁молочный	-10.4596
▁роберт	-10.4596
▁тарасов	-10.4614
▁кад	-10.4624
▁курение	-10.4626
сред	-10.4627
▁камен	-10.4627
▁мех	-10.463
▁самолетов	-10.4635
▁тайный	-10.4641
▁ferrari	-10.4642
▁ОГЭ	-10.4642
▁бутылка	-10.4642
▁исполнение	-10.4642
▁сингапур	-10.4642
▁сторонник	-10.4642
▁оскорби	-10.4642
▁поединок	-10.4642
▁украинка	-10.4643
▁страхование	-10.4644
▁ред	-10.4644
▁родные	-10.4648
▁лавра	-10.465
▁марино	-10.4651
▁выборг	-10.466
▁научился	-10.467
деть	-10.4685
▁67	-10.4685
▁assassin	-10.4689
▁СНГ	-10.4689
▁вагнер	-10.4689
▁обеспокоен	-10.4689
▁поселение	-10.469
▁снаряд	-10.469
▁пир	-10.4691
▁спора	-10.4692
▁корона	-10.4699
▁леон	-10.4705
io	-10.4714
цел	-10.4719
▁do	-10.4722
▁SE	-10.4732
▁почеттино	-10.4736
▁карпаты	-10.4736
▁многоквартирн	-10.4736
▁федерер	-10.4737
▁сорвал	-10.4737
▁ссора	-10.4738
▁веду	-10.4742
▁похороны	-10.4743
▁экология	-10.4748
▁мас	-10.4754
монт	-10.4757
инском	-10.4762
35	-10.4765
▁четверто	-10.4774
▁привлеч	-10.4776
кнул	-10.4776
▁сочин	-10.4777
вард	-10.4782
иров	-10.4784
▁педофил	-10.4784
▁поэт	-10.4784
▁профсоюз	-10.4784
▁рябошапка	-10.4784
▁хотелось	-10.4784
▁отметка	-10.4784
▁RT	-10.4786
▁дубай	-10.479
▁герус	-10.4794
▁мем	-10.4797
авто	-10.4811
▁юбилейный	-10.4813
▁выпускной	-10.4814
овым	-10.4814
▁перво	-10.483
▁лесо	-10.483
▁обсуждение	-10.4831
▁похищение	-10.4831
▁преследование	-10.4831
▁салават	-10.4831
▁месячный	-10.4832
▁сижу	-10.4835
▁249	-10.4849
ry	-10.4854
▁алий	-10.4856
бат	-10.4866
▁НКО	-10.4879
▁нравлюсь	-10.4879
▁предъявил	-10.4879
▁2024	-10.4879
▁стресс	-10.4881
ton	-10.4881
▁виноват	-10.4881
▁140	-10.4885
▁мединский	-10.4885
▁касса	-10.4896
курс	-10.4898
проводный	-10.4902
▁АО	-10.4903
▁nvidia	-10.4927
▁АТО	-10.4927
▁молодежь	-10.4927
▁блокировка	-10.4928
▁шести	-10.493
▁68	-10.4932
▁скрылся	-10.4937
▁питер	-10.4948
▁bu	-10.4957
▁обще	-10.4962
▁учеб	-10.4975
▁молодежи	-10.4976
▁мультфильм	-10.4976
▁оштрафован	-10.4976
▁помещение	-10.4976
▁соблюдаю	-10.4976
▁творчество	-10.4976
▁раздаю	-10.4981
▁пав	-10.4983
▁гром	-10.4994
▁бийск	-10.5001
▁литр	-10.5003
летевший	-10.5018
▁ОРВИ	-10.5024
▁металлург	-10.5024
▁рязанец	-10.5024
▁уайлдер	-10.5024
▁делегация	-10.5024
▁череповчан	-10.5024
▁МКС	-10.5024
▁отозвал	-10.5024
▁укрепил	-10.5024
▁автоваз	-10.5024
▁страдаю	-10.5026
▁рулем	-10.5028
▁экспресс	-10.5033
▁укрепление	-10.5034
▁тина	-10.5039
▁81	-10.5042
▁чист	-10.5042
▁возмутил	-10.5051
em	-10.5058
цин	-10.5066
▁выступаю	-10.5073
▁гандзюк	-10.5073
▁ставлю	-10.5073
▁энгельс	-10.5073
▁убрал	-10.5073
▁ферма	-10.5073
▁неймар	-10.5073
овской	-10.5074
▁гриб	-10.5074
▁подача	-10.5075
▁желающий	-10.5076
▁травля	-10.5078
▁for	-10.5079
разился	-10.5083
▁жест	-10.5094
▁плат	-10.5114
▁ryzen	-10.5122
▁НИИ	-10.5122
▁анекдот	-10.5122
▁достижение	-10.5122
▁собрание	-10.5122
▁завишу	-10.5122
▁аллея	-10.5122
▁ипотечн	-10.5122
▁хам	-10.5123
▁вымогательство	-10.5124
▁правозащитник	-10.5124
ывание	-10.5128
▁ленинский	-10.5129
ood	-10.5131
▁белгородец	-10.5143
33	-10.5151
▁снижаю	-10.5162
▁вторжение	-10.5171
▁одессит	-10.5171
▁выиграть	-10.5171
▁ледяной	-10.5171
▁переживаю	-10.5171
▁ухане	-10.5172
▁пишу	-10.5175
▁молоко	-10.5175
ang	-10.5183
▁палец	-10.5187
▁выдвинул	-10.5189
▁tr	-10.519
способность	-10.5193
▁82	-10.5196
▁дуд	-10.5196
▁уволен	-10.5199
▁чита	-10.5205
▁декларация	-10.5221
▁коммунальщик	-10.5221
▁определён	-10.5221
▁покушение	-10.5221
▁самоубийство	-10.5221
▁эрмитаж	-10.5221
▁ИИ	-10.5221
▁мышь	-10.5221
▁поселка	-10.5222
▁дешевее	-10.5222
▁станица	-10.5222
▁валют	-10.5222
▁волга	-10.5223
▁похоронил	-10.5225
▁шеф	-10.5228
ion	-10.5228
▁разгон	-10.5228
▁49	-10.5229
▁МО	-10.523
свет	-10.5233
75	-10.5235
▁зарабатываю	-10.5236
▁невский	-10.5237
ak	-10.5256
▁зе	-10.5265
▁баскетбол	-10.5266
▁волонтер	-10.5267
носить	-10.527
▁инфографика	-10.5271
▁сессия	-10.5271
▁отвечаю	-10.5271
▁пулково	-10.5271
▁увидеть	-10.5271
▁практически	-10.5271
▁лодка	-10.5271
▁био	-10.5275
▁учительница	-10.5277
▁верб	-10.5281
▁доска	-10.529
▁вылет	-10.5314
▁кудрявцев	-10.5321
▁освещение	-10.5321
▁прогреме	-10.5321
▁кодекс	-10.5321
▁укрэксимбанка	-10.5321
▁серийный	-10.5321
вшего	-10.5323
▁популярность	-10.5323
▁общение	-10.5323
▁евгений	-10.5324
▁ращу	-10.5325
▁потерявший	-10.5328
▁кредитование	-10.5329
▁выдаю	-10.533
▁безум	-10.5332
законодательство	-10.5333
▁плей	-10.5344
труд	-10.535
▁соль	-10.5356
▁беру	-10.5362
▁рублев	-10.5363
▁возгорание	-10.5371
▁волонтёр	-10.5371
▁достоинство	-10.5371
▁людмила	-10.5371
▁навсегда	-10.5371
▁праздную	-10.5371
▁хавбек	-10.5371
▁наказать	-10.5371
▁самойлов	-10.5371
▁ХК	-10.5371
▁сильнее	-10.5371
▁важность	-10.5372
▁рэпер	-10.5373
▁тарас	-10.5377
италия	-10.5384
▁давать	-10.5388
▁джу	-10.5389
▁61	-10.5403
▁77	-10.5407
▁тройн	-10.5414
▁гай	-10.5418
нятый	-10.5419
▁грязный	-10.5421
▁исключаю	-10.5421
▁поставщик	-10.5421
▁хулиган	-10.5421
▁владислав	-10.5421
▁калуга	-10.5421
▁доиграть	-10.5421
▁детство	-10.5421
▁затопил	-10.5422
ba	-10.5422
▁закарпатье	-10.5422
▁ведь	-10.5424
▁строгий	-10.5427
▁КС	-10.5429
ight	-10.5449
▁медведева	-10.5456
▁сохранился	-10.546
▁жестки	-10.5464
овская	-10.5467
▁cybertruck	-10.5472
▁НЛО	-10.5472
▁антикризисный	-10.5472
▁астероид	-10.5472
▁кинофестиваль	-10.5472
▁похолодал	-10.5472
▁самочувствие	-10.5472
▁киркоров	-10.5472
▁витебск	-10.5473
▁генераль	-10.5475
▁no	-10.5479
▁счастливый	-10.5481
кубанский	-10.5485
овых	-10.5485
нижение	-10.549
эр	-10.5497
ect	-10.5499
▁взлом	-10.5507
▁контрабанда	-10.5507
▁объединил	-10.551
▁78	-10.5515
▁ФНЛ	-10.5523
▁всплеск	-10.5523
▁зарубежный	-10.5523
▁наблюдение	-10.5523
▁филипп	-10.5523
▁2018	-10.5523
▁гейтс	-10.5523
▁зарядка	-10.5524
▁мисс	-10.5525
▁причастность	-10.5528
бьет	-10.5529
▁протестировал	-10.5529
▁помогать	-10.5532
▁долина	-10.5532
▁запланирован	-10.5548
петь	-10.5551
▁запущен	-10.5555
▁исход	-10.5567
▁подсчитал	-10.5571
читыва	-10.5572
▁лауреат	-10.5574
▁фабрика	-10.5574
▁мокрый	-10.5574
▁дизель	-10.5574
▁мульти	-10.5575
▁ибрагимович	-10.5575
▁новинка	-10.5575
▁верхн	-10.5576
▁агро	-10.5577
▁речь	-10.5583
▁городок	-10.5588
mon	-10.5593
za	-10.5597
car	-10.5605
▁84	-10.5616
▁биатлон	-10.5622
▁go	-10.5624
работан	-10.5626
скоростной	-10.5626
▁ДПС	-10.5626
▁минпромторг	-10.5626
▁недостаток	-10.5626
▁синдром	-10.5626
▁артиллери	-10.5626
▁стоматолог	-10.5626
▁китаец	-10.5626
▁отменять	-10.5626
▁широк	-10.5626
▁каменские	-10.5627
▁полтав	-10.5627
▁МОЗ	-10.5627
▁максимум	-10.5628
▁следую	-10.5636
▁курский	-10.5639
олод	-10.5646
▁отменен	-10.5657
▁старо	-10.5669
▁тоттенхэма	-10.5673
▁аномал	-10.5676
конституционный	-10.5678
▁вселенная	-10.5678
▁выздоровление	-10.5678
▁любовница	-10.5678
▁напоминаю	-10.5678
▁оставаться	-10.5678
▁посещать	-10.5678
▁азовский	-10.5678
тянул	-10.5678
▁заменить	-10.5679
▁относител	-10.5679
AR	-10.5679
▁пресечение	-10.5679
▁96	-10.5682
▁привести	-10.5686
▁застрял	-10.569
▁160	-10.5695
▁почет	-10.5699
чина	-10.5705
▁выплати	-10.5708
▁душа	-10.5726
fa	-10.5729
▁запрещен	-10.573
▁граффити	-10.573
▁модернизация	-10.573
▁павильон	-10.573
▁подверг	-10.573
▁сельхоз	-10.5732
▁уничтожение	-10.5732
▁уволился	-10.5732
▁поменял	-10.5732
близи	-10.5733
▁вадим	-10.5734
▁исправи	-10.5739
sta	-10.5747
▁люк	-10.576
ному	-10.5782
▁ФНС	-10.5782
▁водоснабжение	-10.5782
▁сравнение	-10.5782
▁вредный	-10.5782
▁интим	-10.5782
▁росстат	-10.5784
▁тамбовчанин	-10.5788
▁привлечь	-10.5792
▁илья	-10.5792
▁худ	-10.5796
пред	-10.581
банка	-10.5829
▁88	-10.5834
▁проголосовал	-10.5835
▁пытка	-10.5835
▁адмирал	-10.5835
▁бессимптомн	-10.5835
▁реновация	-10.5835
▁пересмотреть	-10.5836
▁генсек	-10.5836
разд	-10.584
▁творчески	-10.5849
ющих	-10.5866
▁тута	-10.5871
▁высок	-10.5883
▁шествие	-10.5885
ресёк	-10.5885
▁бомбардир	-10.5887
▁ММА	-10.5888
▁архитектур	-10.5888
▁воспитанник	-10.5888
▁емельяненко	-10.5888
▁телевидение	-10.5888
▁торпедо	-10.5888
▁киевлянин	-10.5888
▁киселев	-10.5888
▁дыра	-10.5888
▁порыв	-10.5888
▁азия	-10.5888
▁пересмотр	-10.5898
▁аким	-10.5901
ze	-10.5904
▁формирование	-10.5909
реп	-10.5909
▁перекрыт	-10.5919
стен	-10.5922
▁опера	-10.5939
▁УАЗ	-10.5941
▁жириновский	-10.5941
▁заплатить	-10.5941
▁минниханов	-10.5941
▁принцесса	-10.5941
▁ужесточить	-10.5941
▁ульяновц	-10.5941
▁человечество	-10.5941
▁отслежива	-10.5941
▁обжалую	-10.5941
▁тихий	-10.5941
▁сказка	-10.5941
▁цыган	-10.5941
bank	-10.5941
▁токио	-10.5942
▁гордон	-10.5943
▁страница	-10.5945
▁шахта	-10.5948
day	-10.5951
▁пойти	-10.5974
▁выполнение	-10.5979
▁трав	-10.5981
▁ИГИЛ	-10.5994
▁брежнев	-10.5994
▁загрязнение	-10.5994
▁картофель	-10.5994
▁киргизия	-10.5994
▁пропаганда	-10.5994
▁героин	-10.5994
▁легких	-10.5995
▁харьковщине	-10.6
▁грузовой	-10.6001
шан	-10.6002
чёл	-10.6004
▁кузбасский	-10.6005
▁лифт	-10.6008
▁рожу	-10.6009
▁подвод	-10.6015
унд	-10.6023
▁59	-10.6023
▁взорвал	-10.6026
▁патруль	-10.603
▁ямаль	-10.6032
▁приема	-10.6038
▁приморц	-10.6044
думать	-10.6044
ovid	-10.6046
▁каменский	-10.6047
▁marvel	-10.6048
▁ФРС	-10.6048
▁агрессия	-10.6048
▁коммуналка	-10.6048
▁куйвашев	-10.6048
▁марихуана	-10.6048
▁обувь	-10.6048
▁пользоваться	-10.6048
▁румыния	-10.6048
▁уильям	-10.6048
▁характер	-10.6048
▁альянс	-10.6048
▁образуюсь	-10.6048
▁ураган	-10.6048
сталь	-10.6051
украинск	-10.6056
ash	-10.606
чество	-10.6062
▁грань	-10.6068
потреб	-10.6073
▁тара	-10.6074
▁таки	-10.6098
▁выеха	-10.6099
▁вперед	-10.6099
▁disney	-10.6102
▁болгария	-10.6102
▁инсульт	-10.6102
▁общественник	-10.6102
▁оказание	-10.6102
▁перекрестке	-10.6102
▁свитолин	-10.6102
▁нынешний	-10.6102
▁развернул	-10.6102
▁дамба	-10.6102
▁опустился	-10.6102
▁350	-10.6103
▁шина	-10.6104
губ	-10.6104
ua	-10.6108
▁бурков	-10.6109
▁отзыв	-10.6109
▁обогна	-10.6113
▁ГК	-10.6115
▁добро	-10.6126
чков	-10.6127
▁переше	-10.6151
▁86	-10.6155
▁данил	-10.6156
▁аргентина	-10.6157
▁кипяток	-10.6157
▁узнать	-10.6157
▁магнитогорск	-10.6157
▁справился	-10.6157
▁замерз	-10.6158
▁орбита	-10.6159
▁97	-10.6164
▁объедин	-10.6171
▁мель	-10.618
▁возвращать	-10.6189
кредит	-10.6193
рика	-10.6211
▁выявля	-10.6211
▁коллапс	-10.6211
▁подразделение	-10.6211
▁португалия	-10.6211
▁постановление	-10.6211
▁совсем	-10.6211
▁терминал	-10.6211
▁суркис	-10.6211
▁ахмат	-10.6211
▁банкомат	-10.6212
▁жилищ	-10.6212
▁трусов	-10.6217
▁отправлен	-10.622
▁настоль	-10.6223
пит	-10.6224
▁придет	-10.6245
▁чеш	-10.6249
▁похуде	-10.6252
▁аккумулятор	-10.6266
▁гроднен	-10.6266
▁елизавета	-10.6266
▁инстаграм	-10.6266
▁претендент	-10.6266
▁пригожин	-10.6266
▁дорожник	-10.6266
▁приобре	-10.6266
▁соболь	-10.6267
▁ислам	-10.6267
▁северсталь	-10.6267
▁шнур	-10.6268
ev	-10.6283
▁подполь	-10.6284
▁чувство	-10.6287
сколько	-10.6298
▁полит	-10.6301
оход	-10.6306
живший	-10.631
▁баня	-10.6321
▁критик	-10.6321
▁КПВВ	-10.6321
▁ведомость	-10.6321
▁невероятный	-10.6321
▁пожизнен	-10.6321
▁реестр	-10.6321
▁рекламный	-10.6321
▁уязвимость	-10.6321
▁хмельницк	-10.6321
ip	-10.6324
▁октябрьский	-10.6325
▁реабилитация	-10.6327
▁подключил	-10.6328
▁равен	-10.6331
бет	-10.6333
▁разбой	-10.6344
метео	-10.6345
▁стен	-10.6349
▁новак	-10.6364
истемообразующих	-10.6377
▁единоросс	-10.6377
▁метрополитен	-10.6377
▁нетрезвый	-10.6377
▁обслуживание	-10.6377
▁туроператор	-10.6377
▁космонавт	-10.6377
▁тайшет	-10.6377
▁подпись	-10.6377
▁гулять	-10.6377
▁полеты	-10.6378
▁бэйл	-10.6378
▁твит	-10.6381
▁дороже	-10.6386
▁богдана	-10.6391
▁проходить	-10.6397
▁порту	-10.6405
▁байден	-10.6406
▁79	-10.6407
▁многое	-10.6414
▁выложил	-10.6427
▁half	-10.6433
▁serie	-10.6433
▁девятый	-10.6433
▁йошкар	-10.6433
▁обстановка	-10.6433
▁тулун	-10.6433
▁переехал	-10.6433
▁осаго	-10.6433
▁леонида	-10.6434
▁зерно	-10.6439
▁теннисист	-10.644
▁ковид	-10.6443
▁динамика	-10.6459
эксперт	-10.6475
by	-10.6476
цер	-10.6479
▁луганск	-10.648
▁ПЦУ	-10.6489
▁ЦРБ	-10.6489
▁восхитил	-10.6489
▁обещанный	-10.6489
▁промсвязьбанк	-10.6489
▁роскомнадзор	-10.6489
▁эпицентр	-10.6489
▁вообще	-10.6489
▁провинция	-10.6489
▁иванисов	-10.649
дональд	-10.649
▁мебель	-10.649
▁приказ	-10.6492
изировать	-10.6492
▁федун	-10.6493
▁III	-10.6495
ступить	-10.6496
▁метод	-10.6502
▁быков	-10.6518
гло	-10.6525
▁неожидан	-10.653
цкая	-10.6543
рабатывать	-10.6545
▁АЗС	-10.6545
▁беспорядок	-10.6545
▁конкуренция	-10.6545
▁мбаппе	-10.6545
▁мосбиржи	-10.6545
▁отключать	-10.6545
▁регуляр	-10.6545
▁реставрация	-10.6545
▁собственник	-10.6545
▁астроном	-10.6545
▁фронтовик	-10.6545
▁видеокарта	-10.6546
▁напиток	-10.6546
▁дешевею	-10.6546
▁заброш	-10.6546
▁обнаженн	-10.6546
▁ялта	-10.6548
▁текстовый	-10.6554
▁сплю	-10.6562
▁призер	-10.6566
▁con	-10.657
▁уволенный	-10.6571
▁борец	-10.6576
▁фонтанка	-10.6599
свобод	-10.66
lu	-10.6601
ea	-10.6602
▁вопреки	-10.6602
▁задолжал	-10.6602
▁заставляю	-10.6602
▁ограждение	-10.6602
▁самозанятых	-10.6602
▁февраль	-10.6602
▁чебоксары	-10.6602
▁увеличиваю	-10.6602
▁сговор	-10.6603
▁откуда	-10.6603
▁легализ	-10.6604
▁основание	-10.6607
▁копия	-10.662
▁2000	-10.6625
▁старше	-10.6643
▁62	-10.6645
▁свят	-10.6647
▁лук	-10.6651
▁заинтересован	-10.6659
▁редакция	-10.6659
▁идти	-10.6662
▁диск	-10.6665
▁донской	-10.6671
шева	-10.6682
▁болен	-10.6691
▁балет	-10.6692
▁код	-10.6699
▁причаст	-10.6713
▁усилен	-10.6715
▁music	-10.6717
▁ОРДО	-10.6717
▁проблемный	-10.6717
▁фальшивый	-10.6717
▁мурашко	-10.6717
▁торжествен	-10.6717
▁kia	-10.672
▁разница	-10.672
▁простоял	-10.6723
▁открытка	-10.6724
▁лав	-10.6727
▁первомай	-10.6729
месячн	-10.673
▁io	-10.6732
▁$5	-10.6741
шний	-10.6746
▁актера	-10.6747
▁малышев	-10.6752
line	-10.6752
▁гроб	-10.6757
цам	-10.6759
нимать	-10.6759
▁действую	-10.6769
▁авиапарад	-10.6775
▁коммерческий	-10.6775
▁молдова	-10.6775
▁оформил	-10.6775
▁инвестиционн	-10.6775
▁макияж	-10.6775
▁копейка	-10.6775
▁лобода	-10.6775
▁брикс	-10.6775
▁арбитраж	-10.6775
▁приобрести	-10.6775
▁гимн	-10.6778
▁садовод	-10.6778
▁оскар	-10.678
▁противник	-10.6788
▁немец	-10.6791
ber	-10.6811
▁офф	-10.6816
▁посетить	-10.6818
▁разгром	-10.6824
▁лена	-10.6827
▁злоумышленник	-10.6833
▁минэкономики	-10.6833
▁петиция	-10.6833
▁секунда	-10.6833
▁fall	-10.6833
▁присвоен	-10.6833
▁составляю	-10.6834
▁вернувший	-10.6834
ive	-10.6835
▁нарколог	-10.6835
▁локо	-10.6841
700	-10.6848
фронтовой	-10.6873
▁105	-10.6874
▁легионер	-10.6891
▁снежный	-10.6891
▁воркута	-10.6891
▁фрукт	-10.6891
▁кукла	-10.6892
▁ложный	-10.6892
удобный	-10.6892
▁провод	-10.6895
▁обязанность	-10.6896
▁посев	-10.6896
▁mh	-10.6897
be	-10.6909
ехавший	-10.6909
чивый	-10.6915
конец	-10.6916
▁тяжёл	-10.6937
остр	-10.6938
▁выброс	-10.6942
▁трек	-10.6947
▁могилеве	-10.695
▁дисплей	-10.695
▁комплект	-10.695
▁обладатель	-10.695
▁подлодка	-10.695
▁помешал	-10.695
▁продлевать	-10.695
▁россети	-10.695
▁скворцов	-10.695
▁порадовал	-10.695
▁ученых	-10.695
▁фраза	-10.695
▁юридически	-10.6951
▁называю	-10.6953
▁гаага	-10.6954
▁подтоплен	-10.6954
▁ослабил	-10.6955
▁томич	-10.6955
▁ГД	-10.6956
▁предрек	-10.6957
▁обход	-10.6967
mer	-10.6968
▁поклон	-10.697
▁побыва	-10.698
▁авак	-10.6982
▁ростех	-10.6986
▁голодомора	-10.6995
▁позитивный	-10.7003
▁маш	-10.7004
▁epic	-10.7009
▁york	-10.7009
▁категория	-10.7009
▁ликвидирован	-10.7009
▁перестрелка	-10.7009
▁роскошный	-10.7009
▁удаленке	-10.7009
▁учу	-10.7009
▁доволен	-10.7009
▁приятель	-10.7009
▁сжёг	-10.7009
▁значение	-10.701
▁подрался	-10.701
▁uber	-10.701
комбинат	-10.7011
▁седан	-10.7011
▁канад	-10.7028
▁рассел	-10.7034
▁разрыв	-10.7034
ation	-10.7038
▁джей	-10.7051
▁грет	-10.7053
▁паром	-10.7057
▁завершаю	-10.706
▁негативный	-10.7065
▁цвета	-10.7066
▁ФБК	-10.7069
▁литератур	-10.7069
▁нефтяник	-10.7069
▁переработка	-10.7069
▁полузащитник	-10.7069
▁резолюция	-10.7069
▁сообщество	-10.7069
▁триллион	-10.7069
▁устанавливаю	-10.7069
▁яйцо	-10.7069
▁отстранил	-10.7069
▁шепелев	-10.7069
▁охотник	-10.7069
▁летчик	-10.7069
▁эвакуация	-10.7074
▁ускорен	-10.7079
▁торгую	-10.7094
▁брестский	-10.7099
▁повторен	-10.7101
давил	-10.7117
▁угол	-10.7121
▁завершен	-10.7123
▁особен	-10.7124
служб	-10.7128
Ч	-10.7128
▁amazon	-10.7129
▁РБК	-10.7129
▁автодорога	-10.7129
▁венгрия	-10.7129
▁ограничить	-10.7129
▁одноклассник	-10.7129
▁физлиц	-10.7129
▁эвакуирован	-10.7129
▁горький	-10.7129
▁кошмар	-10.7129
▁фасад	-10.7129
▁звук	-10.7129
▁минкульт	-10.7129
▁брошен	-10.7129
▁подборка	-10.7129
▁развивать	-10.7129
▁луценко	-10.713
▁SS	-10.7132
▁внезапен	-10.7135
▁попада	-10.7138
▁бело	-10.7149
▁69	-10.7151
▁спина	-10.7152
ТС	-10.7173
▁семина	-10.7179
пожарный	-10.7182
▁астраханец	-10.7189
▁благоустроил	-10.7189
▁верующий	-10.7189
▁домодедово	-10.7189
▁ужесточение	-10.7189
▁ужесточил	-10.7189
▁внешность	-10.7189
▁испанский	-10.7189
▁лукойл	-10.7189
▁сербский	-10.7189
▁атомный	-10.7189
▁оставшийся	-10.7189
▁уехал	-10.719
▁софия	-10.719
▁кроме	-10.719
сенний	-10.7191
▁успел	-10.7191
▁езда	-10.7192
▁сегодняшний	-10.7192
▁обменял	-10.7199
▁роб	-10.72
▁вечерни	-10.7217
▁дым	-10.7217
▁стрим	-10.7218
▁весел	-10.7238
▁могилев	-10.7249
▁ATP	-10.725
▁cyber	-10.725
▁отклонил	-10.725
▁петропавловск	-10.725
▁потолок	-10.725
▁росгвардейцы	-10.725
▁традиционный	-10.725
▁феррари	-10.725
▁фьюри	-10.725
▁хэмилтон	-10.725
▁наполол	-10.725
▁техно	-10.725
▁экспертиза	-10.725
▁диагностирую	-10.7251
▁вахтов	-10.7252
▁перелом	-10.7254
▁мертвой	-10.7259
▁дания	-10.7272
▁покров	-10.7272
▁физически	-10.7276
ine	-10.7276
▁лег	-10.7278
▁шах	-10.7282
▁группов	-10.7304
▁восстановлен	-10.7305
▁переносил	-10.7307
числен	-10.7307
▁енисей	-10.7311
▁батарея	-10.7311
▁витязь	-10.7311
▁высказывание	-10.7311
▁ежегодный	-10.7311
▁качественный	-10.7311
▁кисловодск	-10.7311
▁малайзия	-10.7311
▁пожелал	-10.7311
▁рождество	-10.7311
▁собственность	-10.7311
▁укроборонпром	-10.7311
▁теория	-10.7311
▁дебош	-10.7311
▁ИП	-10.7311
▁роскачеств	-10.7312
▁порно	-10.7314
▁правление	-10.7319
▁построен	-10.7325
▁прожит	-10.7327
ивый	-10.733
▁призывник	-10.7336
▁фигурист	-10.7361
▁УФАС	-10.7372
▁бахматюк	-10.7372
▁зеленоград	-10.7372
▁обрушение	-10.7372
▁предполагаемый	-10.7372
▁продолжить	-10.7372
▁группировка	-10.7372
▁мадуро	-10.7372
▁переписка	-10.7372
▁ЧР	-10.7372
▁афиша	-10.7372
▁десятый	-10.7372
▁пекин	-10.7372
ничество	-10.7378
▁потерять	-10.7386
▁плакат	-10.7388
нялся	-10.7393
▁ps	-10.7396
100	-10.7403
▁дежурный	-10.7404
▁развал	-10.7413
▁предложен	-10.7415
▁корова	-10.7418
▁орск	-10.7419
▁передан	-10.7422
▁именно	-10.743
▁букмекер	-10.7434
▁выглядеть	-10.7434
▁коррупцион	-10.7434
▁михайлов	-10.7434
▁недорогой	-10.7434
▁ньюкасл	-10.7434
▁восьмо	-10.7434
▁курьер	-10.7434
▁тимати	-10.7434
▁кардиолог	-10.7434
▁одобрен	-10.7434
▁условный	-10.7434
▁обязателен	-10.7434
▁вциом	-10.7436
▁послал	-10.7437
▁электрокар	-10.7437
▁башар	-10.7441
vo	-10.7444
▁180	-10.7445
граничный	-10.7447
▁хант	-10.7453
▁культ	-10.7456
▁бюджетник	-10.7471
лететь	-10.7472
▁предд	-10.7477
▁110	-10.7487
▁внесен	-10.7487
консульт	-10.7496
▁realme	-10.7496
▁valhalla	-10.7496
▁ТРЦ	-10.7496
▁ведомство	-10.7496
▁забастовка	-10.7496
▁заполярье	-10.7496
▁инструкция	-10.7496
▁королевский	-10.7496
▁туркестан	-10.7496
▁эмоция	-10.7496
▁мощность	-10.7496
▁продовольственн	-10.7496
▁прибывший	-10.7496
▁игрушка	-10.7496
▁сердеч	-10.7497
▁кода	-10.7497
▁пугачевой	-10.7499
▁ПО	-10.7505
▁тоня	-10.751
▁87	-10.7513
▁меняюсь	-10.7514
▁выгнал	-10.7516
▁трудность	-10.7529
go	-10.7535
▁мамаев	-10.7535
▁разгар	-10.7535
▁удаленно	-10.7552
▁дро	-10.7554
▁нелегал	-10.7554
программ	-10.7558
▁архитектор	-10.7558
▁вербицкая	-10.7558
▁выплачивать	-10.7558
▁инновационный	-10.7558
▁моуриньо	-10.7558
▁отношусь	-10.7558
▁петербурженка	-10.7558
▁продлён	-10.7558
▁расследовать	-10.7558
▁spacex	-10.7558
▁лайнер	-10.7558
▁сибирский	-10.7558
▁дачник	-10.7558
▁жаркое	-10.7558
▁выделить	-10.7558
▁горловка	-10.7558
▁устроивший	-10.7558
▁растение	-10.7559
▁last	-10.756
лава	-10.756
▁бедный	-10.7561
▁похудение	-10.7561
▁скорее	-10.7563
▁пошлина	-10.7564
▁антироссийский	-10.7566
▁пугаю	-10.7566
▁отправляю	-10.7567
порный	-10.7568
▁тигр	-10.7572
▁панк	-10.7574
▁лечусь	-10.7577
▁ворую	-10.7581
▁персонал	-10.7616
окрытие	-10.7617
очник	-10.7617
▁четвер	-10.762
▁джокович	-10.7621
▁интеграция	-10.7621
▁нетаньяху	-10.7621
▁полуостров	-10.7621
▁избавил	-10.7621
▁подписка	-10.7621
▁стрелок	-10.7621
▁предатель	-10.7621
▁колыма	-10.7621
▁невеста	-10.7622
▁семак	-10.7623
▁подписание	-10.7625
▁приватбанка	-10.7627
▁шлем	-10.763
▁тайна	-10.7643
▁тестирую	-10.7647
▁возмутился	-10.765
▁доказал	-10.7655
▁раздава	-10.7662
▁куба	-10.7664
▁роды	-10.7669
▁взялся	-10.7676
ab	-10.7678
▁бундестаг	-10.7684
▁приамурье	-10.7684
▁приезжий	-10.7684
▁прошедшее	-10.7684
▁сертификат	-10.7684
▁контент	-10.7684
▁печень	-10.7684
▁шайба	-10.7684
▁поборол	-10.7685
▁трачу	-10.7687
▁core	-10.7688
▁джиган	-10.769
полнить	-10.769
▁давно	-10.7692
компан	-10.7693
▁видеть	-10.7693
▁приступ	-10.7695
▁прихожу	-10.7698
▁бонд	-10.7701
▁примени	-10.771
стаиваю	-10.771
▁объявление	-10.7711
▁ремонтирую	-10.7724
▁покидал	-10.7729
▁первомайский	-10.7735
▁ЕСПЧ	-10.7748
▁КЧР	-10.7748
▁ТКГ	-10.7748
▁упростил	-10.7748
▁помню	-10.7748
▁армян	-10.7748
▁создает	-10.7748
▁цех	-10.7749
▁скороход	-10.7749
▁БКС	-10.775
▁решать	-10.7751
▁баскетболист	-10.7754
▁поднять	-10.7757
чувств	-10.7767
▁тюменец	-10.7793
▁тернополь	-10.7812
▁защищать	-10.7812
▁иноагента	-10.7812
▁маникюр	-10.7812
▁матвиенко	-10.7812
▁некачественный	-10.7812
▁реванш	-10.7812
▁растрата	-10.7812
▁панарин	-10.7812
son	-10.7812
▁1945	-10.7812
▁тушение	-10.7812
▁байкал	-10.7812
▁диагностика	-10.7813
▁рамз	-10.7813
▁заключенных	-10.7815
▁старший	-10.7816
▁междугородн	-10.7819
▁икона	-10.7819
▁ангар	-10.7819
▁межбанк	-10.782
смотрел	-10.7827
▁голодомор	-10.7828
TA	-10.7833
мисс	-10.7843
ицкий	-10.7852
казаться	-10.7852
▁оказываю	-10.7853
▁новорожденн	-10.7875
▁СНБО	-10.7877
▁гибрид	-10.7877
▁голливуд	-10.7877
▁минкультуры	-10.7877
▁наблюдатель	-10.7877
▁насильник	-10.7877
▁персонаж	-10.7877
▁блюдо	-10.7877
▁комната	-10.7877
▁аксенов	-10.7877
▁вытащи	-10.7877
сматрива	-10.7877
▁изучаю	-10.7877
▁федоров	-10.7877
▁актёр	-10.7879
▁аэро	-10.7881
▁сумка	-10.7881
▁исаев	-10.7885
▁МС	-10.7894
▁пугачева	-10.79
▁банкир	-10.7902
ft	-10.7923
▁рассмотре	-10.794
днепропетровский	-10.7942
▁генштаб	-10.7942
▁калашников	-10.7942
▁кардашьян	-10.7942
▁наставник	-10.7942
▁обработка	-10.7942
▁регулятор	-10.7942
▁соболезнование	-10.7942
▁ташкент	-10.7942
▁утверждаю	-10.7942
▁предостер	-10.7942
▁подземный	-10.7942
▁каменское	-10.7943
▁слуцкий	-10.7946
▁опасение	-10.7959
▁посад	-10.7962
AB	-10.7964
ариса	-10.7964
▁семи	-10.7995
волжский	-10.7999
▁крик	-10.8
▁аккредитация	-10.8007
▁акционер	-10.8007
▁маткапитал	-10.8007
▁участковый	-10.8007
▁передвижение	-10.8007
▁теплосеть	-10.8007
▁обсудить	-10.8007
▁гречка	-10.8007
▁валентин	-10.8007
▁полетов	-10.8008
▁погба	-10.8008
port	-10.8009
▁голодовка	-10.801
▁83	-10.8013
▁ГУ	-10.8015
▁зоо	-10.8016
EA	-10.802
▁выписан	-10.8026
▁собирать	-10.8031
▁британец	-10.8038
▁дешевы	-10.8052
охот	-10.8058
▁выпускать	-10.8061
▁надаль	-10.8063
▁комп	-10.807
ner	-10.807
продемонстрирова	-10.8073
▁обнародован	-10.8073
▁оркестр	-10.8073
▁побережье	-10.8073
▁постоянен	-10.8073
▁прививок	-10.8073
▁смягчил	-10.8073
▁бульвар	-10.8073
▁шестеро	-10.8073
▁2014	-10.8073
▁потерпел	-10.8073
▁критический	-10.8073
▁оцениваю	-10.8073
▁химик	-10.8073
▁мегафон	-10.8074
▁циклон	-10.8076
▁ростовчанин	-10.808
▁понял	-10.8082
▁пояс	-10.8097
▁взят	-10.813
▁регистр	-10.8137
штейн	-10.8139
▁атлетико	-10.8139
▁джордан	-10.8139
▁контролировать	-10.8139
▁купальник	-10.8139
▁логотип	-10.8139
▁лошадь	-10.8139
▁окончателен	-10.8139
▁посёлок	-10.8139
сторонний	-10.8139
▁разведчик	-10.8139
▁платеж	-10.8139
▁гряду	-10.8139
▁украсть	-10.8139
▁индустрия	-10.8139
▁разрушен	-10.8139
▁лопес	-10.8139
▁убрать	-10.814
▁смирнов	-10.814
▁сделан	-10.814
▁развиваю	-10.8142
▁вчера	-10.8149
▁надеж	-10.815
▁допустить	-10.8151
▁ведута	-10.8151
коммун	-10.8157
ris	-10.8182
▁малышева	-10.8201
▁друж	-10.8203
▁заксобрание	-10.8206
▁кемеровский	-10.8206
▁махинация	-10.8206
▁обернулся	-10.8206
▁приземлился	-10.8206
▁прервал	-10.8206
▁брокер	-10.8206
▁фунт	-10.8206
▁удаление	-10.8206
▁пластиковый	-10.8209
▁леди	-10.821
▁ВР	-10.821
▁марш	-10.8211
▁пскович	-10.8212
▁стаж	-10.8214
▁затоплен	-10.8216
ценко	-10.8217
▁намекну	-10.8218
600	-10.8221
▁портнов	-10.8237
▁черного	-10.8238
▁совфед	-10.8253
ster	-10.8259
▁склон	-10.8267
net	-10.8269
идеоконференция	-10.8273
▁ЕБРР	-10.8273
▁википедия	-10.8273
▁волочкова	-10.8273
▁дополнителен	-10.8273
▁испытываю	-10.8273
▁киберспорт	-10.8273
▁стабильный	-10.8273
▁съемках	-10.8273
▁избрал	-10.8273
▁наблюдаю	-10.8273
▁приобретение	-10.8273
▁повестка	-10.8273
▁гомель	-10.8273
▁славян	-10.8273
▁отверг	-10.8274
▁нуждаюсь	-10.8274
▁иммун	-10.8276
▁ослабить	-10.828
дебный	-10.8281
▁генетически	-10.8285
▁тит	-10.8294
▁интересен	-10.8297
▁капитальный	-10.8299
раща	-10.8312
▁диплом	-10.8336
▁дур	-10.8339
▁ЛНА	-10.834
▁НДФЛ	-10.834
▁авиабилет	-10.834
▁вещество	-10.834
▁воспитатель	-10.834
▁лёгок	-10.834
▁мадрид	-10.834
▁ограбление	-10.834
▁приостановлен	-10.834
▁психиатр	-10.834
▁редактор	-10.834
▁эпизод	-10.834
▁джошуа	-10.834
▁камчатский	-10.834
▁бюро	-10.8341
▁сечин	-10.8342
▁иметь	-10.8344
ическ	-10.8349
тонувший	-10.8355
▁лимит	-10.8361
▁баренц	-10.8365
▁марин	-10.8366
▁бок	-10.8367
ливать	-10.8373
жаловаться	-10.8378
▁зараженны	-10.839
▁сложен	-10.8396
ставший	-10.8405
▁стреляю	-10.8406
▁директива	-10.8408
▁допускаю	-10.8408
▁заявляю	-10.8408
▁каршеринг	-10.8408
▁лайфхак	-10.8408
▁малоимущий	-10.8408
▁обещание	-10.8408
▁прыжок	-10.8408
▁шоколад	-10.8408
▁новостройка	-10.8408
▁неудачный	-10.8408
▁финансы	-10.8409
▁пережить	-10.8409
▁колено	-10.8409
▁главарь	-10.8409
▁уфим	-10.8409
▁мариинский	-10.8411
▁полно	-10.8412
▁пруд	-10.8412
▁наркоман	-10.8416
▁песков	-10.8416
▁уменьшился	-10.8419
▁блокад	-10.842
▁здоров	-10.8462
инспекция	-10.8477
▁демонтирую	-10.8477
▁обложка	-10.8477
▁росгвардия	-10.8477
▁ориентир	-10.8477
▁гастроль	-10.8477
▁заложник	-10.8477
▁бикини	-10.8477
▁предостави	-10.8486
▁селфи	-10.8496
▁женя	-10.8507
▁замок	-10.8511
▁левый	-10.8525
адзе	-10.8527
авлять	-10.8528
▁реж	-10.8532
▁алиев	-10.8534
ским	-10.8546
родезинфицировал	-10.8546
▁НВФ	-10.8546
▁выясняю	-10.8546
▁заслуженный	-10.8546
▁исполком	-10.8546
▁космодром	-10.8546
▁кыргызстан	-10.8546
▁отличие	-10.8546
▁экстремизм	-10.8546
▁энергетически	-10.8546
▁руденя	-10.8546
▁съемок	-10.8546
▁русада	-10.8546
▁ЗС	-10.8546
▁престол	-10.8546
▁измена	-10.8546
▁проехал	-10.8546
▁тендер	-10.8548
▁рунет	-10.855
▁заговорил	-10.8553
▁лобовой	-10.8554
▁давность	-10.8555
скоре	-10.8559
▁пластика	-10.8574
▁карман	-10.8586
нутый	-10.8589
IA	-10.8599
▁разрешен	-10.8611
▁дезинфицирую	-10.8615
▁death	-10.8615
▁вероятный	-10.8615
▁интерактивный	-10.8615
▁корпорация	-10.8615
▁приобрёл	-10.8615
▁урегулирование	-10.8615
▁ювелир	-10.8615
▁асмус	-10.8615
▁кажусь	-10.8615
▁ускорить	-10.8615
▁выгоден	-10.8615
▁зажёг	-10.8615
▁расторг	-10.8616
▁консерв	-10.8616
▁мали	-10.8617
▁десяти	-10.8622
▁марат	-10.8633
▁укус	-10.8635
▁обошёлся	-10.8636
▁обязан	-10.864
▁анонсирован	-10.8646
▁хроника	-10.8652
ess	-10.8658
▁валери	-10.8681
▁алименты	-10.8685
▁дзюбы	-10.8685
▁захоронение	-10.8685
▁медпомощь	-10.8685
▁навигация	-10.8685
▁ремейк	-10.8685
▁репрессия	-10.8685
▁арктический	-10.8685
▁реализую	-10.8685
▁клопп	-10.8685
▁печор	-10.8685
▁удалить	-10.8685
▁единица	-10.8685
▁смарт	-10.8686
▁гусев	-10.8686
▁поклонская	-10.8687
▁заочен	-10.8687
▁гуляю	-10.8687
▁стремител	-10.8687
▁храню	-10.8687
▁страшен	-10.8688
▁белоус	-10.8688
▁флорида	-10.8688
▁лунь	-10.869
▁печать	-10.8692
▁масса	-10.8727
▁викторий	-10.8729
▁сорт	-10.8744
смертный	-10.8755
▁древн	-10.8755
Ш	-10.8756
▁black	-10.8756
▁адыгея	-10.8756
▁демонстрация	-10.8756
▁независимый	-10.8756
▁осуждён	-10.8756
▁поговорил	-10.8756
▁приготовил	-10.8756
▁присоединиться	-10.8756
▁прототип	-10.8756
▁студенческий	-10.8756
▁суицид	-10.8756
▁таганрог	-10.8756
▁мозаика	-10.8756
▁посылка	-10.8756
punk	-10.8756
служил	-10.8756
▁вничью	-10.8756
▁внучок	-10.8756
нужный	-10.8762
▁топор	-10.8769
▁ношу	-10.8782
▁возвращаться	-10.8784
ращен	-10.8787
▁беда	-10.8797
▁норвеж	-10.8827
▁zoom	-10.8827
▁антирекорд	-10.8827
▁дальневосточный	-10.8827
▁значителен	-10.8827
▁поздний	-10.8827
▁самостоятелен	-10.8827
▁скульптура	-10.8827
▁собутыльник	-10.8827
▁гордума	-10.8827
▁call	-10.8827
▁зрение	-10.8827
писываю	-10.8827
▁драйв	-10.8827
▁выгодный	-10.8827
▁предположи	-10.8827
▁баннер	-10.8828
▁старин	-10.8831
▁кучер	-10.8834
▁объяснение	-10.8837
▁паника	-10.8839
▁смолов	-10.8839
▁либерал	-10.8841
предприятие	-10.8843
▁якутский	-10.8849
▁контрабанд	-10.8849
▁взаим	-10.8853
оставленный	-10.8857
▁истин	-10.8897
▁edition	-10.8898
▁lexus	-10.8898
▁nokia	-10.8898
▁джулиани	-10.8898
▁доброволец	-10.8898
▁европарламент	-10.8898
▁зависимость	-10.8898
▁ковальчук	-10.8898
▁приватизация	-10.8898
▁противодействие	-10.8898
▁совбез	-10.8898
▁понизил	-10.8898
▁курилы	-10.8898
▁крыса	-10.8898
▁ускорил	-10.8898
▁справиться	-10.8898
▁химки	-10.8899
▁зампред	-10.8899
▁заняться	-10.8899
▁республиканский	-10.8904
▁блокирую	-10.8907
▁расизм	-10.8917
▁проведён	-10.8922
▁забав	-10.8923
▁гур	-10.8941
▁продава	-10.8945
900	-10.8949
евского	-10.8957
▁счастлив	-10.8957
▁либо	-10.8963
▁минприроды	-10.897
▁мосгорсуд	-10.897
▁независимость	-10.897
▁облигация	-10.897
▁рисунок	-10.897
▁стабилизация	-10.897
▁хорватия	-10.897
▁рогозин	-10.897
book	-10.897
▁социолог	-10.897
▁гузеев	-10.897
изации	-10.8971
полноценный	-10.8971
▁борисово	-10.8978
▁бэ	-10.898
▁вспомина	-10.8981
ницы	-10.8983
▁выжил	-10.9009
▁считать	-10.9025
▁mazda	-10.9042
▁исследователь	-10.9042
▁оппозиционер	-10.9042
▁печерский	-10.9042
▁превращаю	-10.9042
▁происшествие	-10.9042
▁российско	-10.9042
▁тренируюсь	-10.9042
▁украденный	-10.9042
▁охраня	-10.9043
▁криклий	-10.9043
▁малахов	-10.9043
▁езжу	-10.9043
▁всплы	-10.9043
▁ржев	-10.9043
▁значу	-10.9043
▁носитель	-10.9046
гнать	-10.9048
сыпал	-10.9048
▁благодарность	-10.9068
▁существую	-10.9071
▁пересла	-10.908
▁стоить	-10.9089
▁антаркти	-10.9115
днепропетровщине	-10.9115
▁амнистия	-10.9115
▁беспилотный	-10.9115
▁дзюбу	-10.9115
▁задолженность	-10.9115
▁повредил	-10.9115
▁холостяк	-10.9115
▁новичок	-10.9115
▁встретить	-10.9115
▁джеймс	-10.9115
▁десант	-10.9116
▁перерыв	-10.9116
▁разметка	-10.9116
▁рыбалка	-10.9116
▁покорил	-10.9117
▁переверну	-10.9118
▁part	-10.9118
▁безвиз	-10.9118
▁дополнение	-10.9119
▁ковалев	-10.912
▁казино	-10.9121
800	-10.9122
▁bit	-10.9125
▁похудеть	-10.9131
▁тяжёлый	-10.9131
▁чума	-10.9135
▁товарищ	-10.9139
▁спасать	-10.9145
очно	-10.9167
инэкономразвития	-10.9189
▁russia	-10.9189
▁ВДНХ	-10.9189
▁десятилетие	-10.9189
▁злоупотребление	-10.9189
▁наследие	-10.9189
▁филармония	-10.9189
▁чернигов	-10.9189
▁брянец	-10.9189
▁потребление	-10.9189
▁билайн	-10.9189
▁усилие	-10.9189
писывать	-10.9189
▁нефтепродукт	-10.9189
▁задерживаю	-10.9189
▁поворот	-10.9189
слаблять	-10.919
▁забрать	-10.919
▁заражён	-10.9191
▁медцентр	-10.9193
▁покрытие	-10.9194
▁шип	-10.9197
▁учусь	-10.92
▁обяза	-10.9211
▁воля	-10.9218
out	-10.9221
▁выстав	-10.9227
▁дре	-10.923
▁тяжелой	-10.9233
▁обошёл	-10.9241
▁скот	-10.9256
▁расширен	-10.9257
▁daily	-10.9263
▁ахметов	-10.9263
▁галерея	-10.9263
▁коронакризис	-10.9263
▁молчание	-10.9263
▁постоянный	-10.9263
▁сотрудничать	-10.9263
▁челлендж	-10.9263
▁нижнекамск	-10.9263
▁вебинар	-10.9263
▁мазур	-10.9263
▁пауза	-10.9263
сечение	-10.9263
▁стёк	-10.9264
▁победный	-10.9264
▁символика	-10.9265
▁кольский	-10.9266
растил	-10.9267
▁действующий	-10.9271
▁солистка	-10.9284
▁трата	-10.9286
▁врио	-10.9287
▁450	-10.9293
▁взлет	-10.9296
▁раздельный	-10.9316
▁луч	-10.9321
▁170	-10.9325
боруссия	-10.9338
▁антибиотик	-10.9338
▁впечатление	-10.9338
▁девяти	-10.9338
▁обойдется	-10.9338
▁организовать	-10.9338
▁сложность	-10.9338
▁существование	-10.9338
▁изучение	-10.9338
▁налоговик	-10.9338
▁ЕР	-10.9338
▁нейтральн	-10.9338
▁заемщик	-10.9338
▁патент	-10.9338
▁профиль	-10.9339
▁уйба	-10.9339
▁колесами	-10.9339
PU	-10.9344
▁осужденных	-10.9346
править	-10.935
▁представление	-10.9359
▁выездной	-10.9361
▁пережил	-10.9368
ard	-10.938
▁гарантия	-10.9413
▁метеорит	-10.9413
▁опухоль	-10.9413
▁продлеваю	-10.9413
▁сознание	-10.9413
▁тоннель	-10.9413
▁тунберг	-10.9413
▁уполномоченный	-10.9413
▁холдинг	-10.9413
▁художественный	-10.9413
▁слушать	-10.9413
▁вырубок	-10.9413
▁авиационный	-10.9413
▁поджёг	-10.9413
▁посреди	-10.9413
▁кокаин	-10.9413
▁ваучер	-10.9413
▁скачок	-10.9414
▁дедушка	-10.9415
▁геймер	-10.9416
▁минирование	-10.942
▁лайк	-10.9421
▁дзержинский	-10.9422
▁абсолютен	-10.9427
▁киевщине	-10.9433
▁легкой	-10.9436
▁простил	-10.9438
▁пробег	-10.9445
▁навка	-10.945
▁баш	-10.9454
▁отложен	-10.9463
▁профессионал	-10.947
▁эстон	-10.9485
▁НДС	-10.9489
▁ОФЗ	-10.9489
▁вдохнов	-10.9489
▁исключение	-10.9489
▁концепт	-10.9489
▁лотерея	-10.9489
▁мосгордума	-10.9489
▁особняк	-10.9489
▁психбольница	-10.9489
▁разобраться	-10.9489
▁сильнейший	-10.9489
▁щенок	-10.9489
▁геннади	-10.9489
▁order	-10.9489
▁добрался	-10.9489
▁корзина	-10.9489
▁создава	-10.9489
▁прочита	-10.9493
▁казнь	-10.9493
▁метель	-10.9504
▁провожусь	-10.9509
▁француз	-10.9519
▁серьезн	-10.9533
▁вернет	-10.9544
▁привет	-10.9553
▁бах	-10.9559
мобиль	-10.9562
▁chevrolet	-10.9565
▁mailru	-10.9565
▁ООО	-10.9565
▁антикоррупцион	-10.9565
▁дэвид	-10.9565
▁задумался	-10.9565
▁знаменитость	-10.9565
▁лейпциг	-10.9565
▁молоток	-10.9565
▁националист	-10.9565
▁мантуров	-10.9565
▁свидание	-10.9565
▁бочар	-10.9565
▁добиться	-10.9565
▁женюсь	-10.9565
▁римский	-10.9566
▁собрать	-10.9566
▁сёмин	-10.9568
▁МСП	-10.9568
▁переболевших	-10.9572
зовет	-10.9573
▁исай	-10.958
▁СП	-10.9586
▁ленинград	-10.9598
II	-10.9605
▁трехлетн	-10.9626
▁дзержинск	-10.9633
▁глобал	-10.9637
▁MIUI	-10.9642
▁абонент	-10.9642
▁атлетика	-10.9642
▁госдолг	-10.9642
▁деревянный	-10.9642
▁долгосрочный	-10.9642
▁кинешма	-10.9642
▁неадекват	-10.9642
▁определить	-10.9642
▁путепровод	-10.9642
▁употребление	-10.9642
▁усомнился	-10.9642
▁фамилия	-10.9642
▁2077	-10.9642
▁аферист	-10.9642
▁зебра	-10.9642
▁пропажа	-10.9642
▁фашист	-10.9642
▁горняк	-10.9642
▁дженни	-10.9642
▁принтер	-10.9642
▁расстрелял	-10.9642
маркет	-10.9642
▁противостояние	-10.9642
▁клетка	-10.9643
▁опрокинулся	-10.9643
▁якоб	-10.9643
▁баг	-10.9645
▁негатив	-10.9648
▁сэкономить	-10.9649
▁перенесён	-10.965
групп	-10.965
▁поттер	-10.9651
▁головин	-10.9657
▁занимаю	-10.967
▁вариант	-10.9671
полне	-10.9692
▁meizu	-10.9719
▁гончаренко	-10.9719
▁напряжен	-10.9719
▁нацгварди	-10.9719
▁превышение	-10.9719
▁северодонецк	-10.9719
▁фиксирую	-10.9719
▁мечеть	-10.9719
▁полезен	-10.9719
▁хизб	-10.972
▁керчь	-10.972
▁вырвал	-10.972
▁ценность	-10.972
▁уайт	-10.9721
▁сводка	-10.9722
▁замуж	-10.9724
▁дождливый	-10.9726
▁потап	-10.9726
▁далёк	-10.9732
▁ОС	-10.9734
▁лихач	-10.9735
▁пью	-10.9739
tion	-10.9743
▁султан	-10.9749
выбор	-10.9762
▁банкрот	-10.9793
▁strand	-10.9798
▁СМС	-10.9798
▁магомед	-10.9798
▁мессенджер	-10.9798
▁обезвреди	-10.9798
▁рассматривать	-10.9798
▁реконструирую	-10.9798
▁согласен	-10.9798
▁согласие	-10.9798
▁спонсор	-10.9798
▁труханов	-10.9798
▁укрзализныця	-10.9798
▁циципас	-10.9798
▁ожидать	-10.9798
▁испортил	-10.9798
▁забота	-10.9801
▁сухум	-10.9805
▁засветил	-10.9805
▁бываю	-10.9813
▁лыс	-10.9819
пти	-10.9826
комплекс	-10.9827
▁вело	-10.9831
существующий	-10.9846
▁фейковы	-10.9846
▁слил	-10.9854
▁повторил	-10.9871
▁армавир	-10.9876
▁близнец	-10.9876
▁дайджест	-10.9876
▁дюймовый	-10.9876
▁кременчуг	-10.9876
▁определять	-10.9876
▁почтовый	-10.9876
▁продолжать	-10.9876
▁снайпер	-10.9876
▁яблоко	-10.9876
▁пётр	-10.9876
▁сокращаю	-10.9876
▁черногория	-10.9876
▁облачный	-10.9876
прыгну	-10.9876
▁BT	-10.9876
▁гипермаркет	-10.9876
▁облсовет	-10.9877
▁познер	-10.9877
▁взорвать	-10.9877
▁юлаев	-10.9877
▁ретро	-10.9877
▁климов	-10.9877
▁криминальный	-10.9878
▁читатель	-10.9879
▁прихожусь	-10.9887
▁бетон	-10.989
▁ряб	-10.9893
марафон	-10.9907
▁водопровод	-10.9918
▁достаточно	-10.9956
▁нацпроектов	-10.9956
▁постепенен	-10.9956
▁репутация	-10.9956
▁слежка	-10.9956
▁спецрейс	-10.9956
▁субъект	-10.9956
▁чаяндинско	-10.9956
▁зеркаль	-10.9956
▁sky	-10.9956
▁значимый	-10.9956
▁бонус	-10.9956
▁шалька	-10.9956
ещать	-10.9956
▁услал	-10.9956
▁полпред	-10.9957
▁нальчик	-10.9957
▁винница	-10.9961
▁гипер	-10.9962
▁лежу	-10.9962
▁канализация	-10.9965
▁пчел	-10.9966
▁вырастил	-10.9968
▁систем	-10.9981
эффект	-10.9988
▁строг	-10.9988
▁пасха	-10.9993
▁$10	-11.0026
▁спирт	-11.0032
▁КГГА	-11.0036
▁водохранилище	-11.0036
▁вологодчине	-11.0036
▁ежедневный	-11.0036
▁колумбия	-11.0036
▁прекрасный	-11.0036
▁словакия	-11.0036
▁тахрир	-11.0036
▁фаворит	-11.0036
▁алмаз	-11.0036
▁сохраняюсь	-11.0036
▁online	-11.0036
▁US	-11.0036
▁остальной	-11.0036
▁шквал	-11.0036
▁скрип	-11.0036
▁переправа	-11.0036
▁скелет	-11.0036
▁заправка	-11.0038
▁балтийск	-11.0038
▁таможенник	-11.0038
▁квят	-11.0041
▁позитив	-11.0044
▁представить	-11.0045
▁танцева	-11.005
твой	-11.0051
▁колес	-11.0071
просить	-11.009
▁андре	-11.0104
▁сравни	-11.0112
▁porsche	-11.0116
▁возвращенны	-11.0116
▁возникновение	-11.0116
▁испугался	-11.0116
▁коммерсант	-11.0116
▁лисичанск	-11.0116
▁минсельхоз	-11.0116
▁обновляюсь	-11.0116
▁подорожание	-11.0116
▁приготовить	-11.0116
▁рейнджерс	-11.0116
▁авиалиния	-11.0116
▁гибкий	-11.0116
▁съемки	-11.0116
▁удалён	-11.0116
▁богомол	-11.0116
▁руслана	-11.0116
▁меладзе	-11.0117
▁хвост	-11.0117
300	-11.0119
eed	-11.0122
▁инвестирую	-11.0123
▁ближний	-11.0124
▁умею	-11.0125
▁приморцев	-11.0125
▁голосовать	-11.0126
▁ротор	-11.0128
▁апелляция	-11.0132
▁термо	-11.0139
▁угрожа	-11.0141
ослал	-11.0146
▁калинин	-11.0192
▁airpod	-11.0198
▁гимназия	-11.0198
▁запрещаю	-11.0198
▁критерий	-11.0198
▁осложнение	-11.0198
▁пельмень	-11.0198
▁преступный	-11.0198
▁россельхозбанк	-11.0198
▁фельдшер	-11.0198
▁авторитет	-11.0198
▁фашизм	-11.0198
▁бердянск	-11.0198
▁джордж	-11.0198
▁дебаты	-11.0198
▁передумал	-11.0198
▁умирать	-11.0198
▁неисправ	-11.0198
▁иницииру	-11.0198
▁полыхаю	-11.0198
▁изъят	-11.0198
▁долгож	-11.0198
достойный	-11.0212
диапа	-11.0214
▁5000	-11.0218
▁контр	-11.0224
▁распад	-11.023
▁фарм	-11.0244
▁белок	-11.0262
▁освобожден	-11.0274
▁brexit	-11.028
▁ЕАЭС	-11.028
▁бекхэм	-11.028
▁исполняю	-11.028
▁контролирую	-11.028
▁младше	-11.028
▁поддерживать	-11.028
▁понравился	-11.028
▁сооружение	-11.028
▁удивительный	-11.028
▁укрепляю	-11.028
▁мешок	-11.028
▁любовник	-11.028
▁росатом	-11.028
▁попроще	-11.028
освоение	-11.028
▁изучил	-11.028
▁соболев	-11.028
▁николаевщине	-11.0282
▁гонщик	-11.0282
▁маркировка	-11.0282
▁силовой	-11.0283
▁$4	-11.0283
▁круж	-11.0288
▁расчлени	-11.0291
▁арендатор	-11.0295
▁pri	-11.0306
▁психически	-11.0342
▁чр	-11.0349
четом	-11.0357
▁dead	-11.0362
▁play	-11.0362
▁автопробег	-11.0362
▁взаимодействие	-11.0362
▁геноцид	-11.0362
▁даниила	-11.0362
▁лебедь	-11.0362
▁линейка	-11.0362
▁минкомсвязь	-11.0362
▁оплачивать	-11.0362
▁пользуюсь	-11.0362
▁попробовал	-11.0362
▁протоиерей	-11.0362
▁ресторатор	-11.0362
▁сбережение	-11.0362
▁спрятал	-11.0362
▁татуировка	-11.0362
▁боярский	-11.0362
▁дамаск	-11.0362
▁картинка	-11.0362
▁бедность	-11.0362
ina	-11.0362
▁нулевой	-11.0364
▁одоле	-11.0365
▁кристин	-11.0366
▁чартер	-11.0368
▁круз	-11.037
▁показать	-11.0389
нефтегаз	-11.0405
▁разорвал	-11.0428
▁калин	-11.043
▁тайм	-11.0439
ушкин	-11.044
▁георгия	-11.0446
▁епархия	-11.0446
▁замечание	-11.0446
▁ленэкспо	-11.0446
▁обязательство	-11.0446
▁отвечать	-11.0446
▁стыден	-11.0446
▁журав	-11.0446
▁хафтар	-11.0446
▁учащийся	-11.0446
▁ветеринар	-11.0446
▁РД	-11.0455
▁истек	-11.0456
▁стреля	-11.0468
ize	-11.0507
▁выполнен	-11.0524
▁сожитель	-11.0527
▁гандбол	-11.053
▁мадонна	-11.053
▁минобразования	-11.053
▁мончегорск	-11.053
▁приостановка	-11.053
▁стадия	-11.053
▁зову	-11.053
▁конверт	-11.0531
▁буксир	-11.0531
▁повреждение	-11.0532
▁катания	-11.0532
▁посуточ	-11.0537
▁счита	-11.0541
▁вучич	-11.0551
▁ветрен	-11.0555
▁запросил	-11.0565
бизнес	-11.0572
остребованный	-11.0578
ложенный	-11.0613
россельхознадзор	-11.0614
▁WTI	-11.0614
▁valve	-11.0614
▁блумберг	-11.0614
▁воспитание	-11.0614
▁выступать	-11.0614
▁глубокий	-11.0614
▁инфицирования	-11.0614
▁небоскреб	-11.0614
▁оптимизм	-11.0614
▁прекращаю	-11.0614
▁самооборона	-11.0614
▁стабильность	-11.0614
▁хабаровчанин	-11.0614
▁повышать	-11.0614
▁похвалил	-11.0614
▁климкин	-11.0614
▁модуль	-11.0614
▁консоль	-11.0614
▁ЕК	-11.0614
▁марадон	-11.0615
▁круиз	-11.0615
▁помилова	-11.0617
▁фонарь	-11.0618
▁виноград	-11.0618
▁тагил	-11.0618
▁сухая	-11.062
▁спиртной	-11.0621
▁выстрелил	-11.0621
тиллы	-11.0622
▁отборочный	-11.0623
▁вверх	-11.0627
красил	-11.0627
▁радость	-11.0634
фест	-11.0645
▁пиар	-11.0647
▁краев	-11.0648
прощение	-11.0656
▁обозначи	-11.0664
▁избежа	-11.0674
▁возвращаю	-11.0691
▁монитор	-11.0697
▁депозит	-11.07
▁смешной	-11.07
▁соответствую	-11.07
▁стимулирующий	-11.07
▁столтенберг	-11.07
▁тревожный	-11.07
▁шантаж	-11.07
▁эмоционал	-11.07
vision	-11.07
▁ЛЧ	-11.07
▁кресло	-11.07
магистраль	-11.07
▁ЕАО	-11.07
▁коробок	-11.07
▁записка	-11.07
орудую	-11.07
▁беседа	-11.07
▁честный	-11.07
▁выжить	-11.07
▁брэд	-11.07
▁сожительница	-11.0702
▁присутствие	-11.0702
▁раунд	-11.0703
▁обвалился	-11.0704
▁кишечн	-11.0708
▁козак	-11.0709
▁белых	-11.0709
▁сайнс	-11.0709
▁синий	-11.0711
▁похити	-11.0712
ачёв	-11.0714
▁прощаю	-11.0724
танцевал	-11.0732
▁велик	-11.0742
▁заразил	-11.0765
пак	-11.0777
▁липецк	-11.0777
▁подтвержденным	-11.078
▁действителен	-11.0786
▁неправильный	-11.0786
▁новосибирец	-11.0786
▁постепенный	-11.0786
▁превышаю	-11.0786
▁устанавливать	-11.0786
▁цензура	-11.0786
▁шанхай	-11.0786
▁григори	-11.0786
▁организован	-11.0786
▁судимость	-11.0786
▁уралсиб	-11.0786
▁трижды	-11.0786
▁технологически	-11.0786
▁наемников	-11.0787
▁удача	-11.0787
▁МСФО	-11.0787
▁сидеть	-11.0788
▁включение	-11.0789
▁башня	-11.079
▁биатлонист	-11.0793
иньо	-11.0799
▁миграци	-11.0799
▁арестовать	-11.0804
поведал	-11.0809
▁давид	-11.0817
light	-11.0825
▁розни	-11.0872
▁watch	-11.0873
▁вероятен	-11.0873
▁возрождение	-11.0873
▁ежемесяч	-11.0873
▁зеландия	-11.0873
▁онкодиспансер	-11.0873
▁расширяю	-11.0873
▁цивилизация	-11.0873
слушал	-11.0873
▁вовремя	-11.0873
▁элемент	-11.0873
▁питомец	-11.0873
▁трафик	-11.0873
▁тратить	-11.0873
▁свинья	-11.0873
▁вызван	-11.0873
▁строящий	-11.0873
▁травмирован	-11.0874
▁доставлен	-11.0879
▁02	-11.0885
▁индексация	-11.0886
▁сменить	-11.0888
▁публич	-11.0889
▁труб	-11.0902
▁$30	-11.0903
▁сужу	-11.0909
▁uni	-11.0933
▁законодатель	-11.0939
▁печат	-11.0952
▁восстанавливаю	-11.0957
▁ПЦР	-11.0961
▁альтернативный	-11.0961
▁госзакупка	-11.0961
▁грязь	-11.0961
▁математик	-11.0961
▁мерседес	-11.0961
▁муцениеце	-11.0961
▁пассажиропоток	-11.0961
▁ребята	-11.0961
▁свердловчанин	-11.0961
▁смягчить	-11.0961
▁текслер	-11.0961
▁ходорковский	-11.0961
▁крипто	-11.0961
▁татарин	-11.0961
▁приморец	-11.0961
▁тогда	-11.0961
▁уфсин	-11.0961
▁пускаю	-11.0961
▁замечен	-11.0961
▁средне	-11.0961
▁стрит	-11.0963
▁пересмотрел	-11.0975
▁нуль	-11.0979
▁эхо	-11.0988
желание	-11.101
▁полета	-11.102
▁усинск	-11.1045
▁впечатляю	-11.1049
▁антиколомойский	-11.1049
▁наполеон	-11.1049
▁черновицкий	-11.1049
▁экстремист	-11.1049
▁ласточка	-11.1049
▁заканчиваю	-11.1049
▁послание	-11.1049
▁надпись	-11.1049
▁проживание	-11.1049
▁устраиваю	-11.1049
▁пёс	-11.1049
▁баланс	-11.1049
▁кибератак	-11.1049
▁ПВО	-11.105
▁open	-11.105
▁втрое	-11.1051
▁багдад	-11.1051
▁rio	-11.1051
▁дарья	-11.1053
равительственный	-11.1053
▁везде	-11.1055
▁рацион	-11.1061
▁двойник	-11.1063
▁артур	-11.1067
▁толпа	-11.1087
▁оказать	-11.1099
▁сдаю	-11.11
изированный	-11.1103
▁объединить	-11.1127
▁ВФЛА	-11.1138
▁летальных	-11.1138
▁оренбуржец	-11.1138
▁пулитцеровск	-11.1138
▁станислав	-11.1138
▁четвёртый	-11.1138
▁мещеряк	-11.1138
▁мораторий	-11.1138
▁отмечать	-11.1138
▁обманутый	-11.1138
▁расстался	-11.1138
▁парламентарий	-11.1138
▁аудио	-11.1138
▁заминировал	-11.1139
▁хранить	-11.1139
▁вулкан	-11.1139
▁лизинг	-11.1139
▁предотвращ	-11.1139
▁универсальный	-11.1142
▁венгер	-11.1143
▁забыть	-11.1144
▁троицк	-11.1147
▁хамство	-11.1147
▁семинар	-11.1187
▁монстр	-11.1199
▁$100	-11.1217
▁арбитр	-11.1228
▁алматинско	-11.1229
▁бешенство	-11.1229
▁заблокировать	-11.1229
▁зеркало	-11.1229
▁клавиатура	-11.1229
▁креатив	-11.1229
▁медсправк	-11.1229
▁окружный	-11.1229
▁просвещение	-11.1229
▁рассчитывать	-11.1229
▁ричард	-11.1229
▁сызрань	-11.1229
▁устойчивый	-11.1229
▁южноуральский	-11.1229
▁лебедев	-11.1229
▁декрет	-11.1229
▁приведет	-11.1229
▁карточка	-11.1229
▁разогнал	-11.1229
▁атлант	-11.1229
▁хадид	-11.1229
▁ультра	-11.1229
▁имидж	-11.1229
▁оккупаци	-11.1229
▁ребров	-11.1229
▁вскрыл	-11.1229
▁дрозд	-11.1229
▁тихон	-11.1229
▁угонщик	-11.123
▁ЦФО	-11.1231
▁порог	-11.1231
▁молодость	-11.1234
▁взломал	-11.1238
▁договоренност	-11.1239
▁щит	-11.1246
▁пытавший	-11.1255
DR	-11.127
▁угоди	-11.1271
▁сказать	-11.1273
телеком	-11.1297
стояние	-11.131
▁duty	-11.1319
▁НПЗ	-11.1319
▁бастрыкин	-11.1319
▁демонтаж	-11.1319
▁джигарханян	-11.1319
▁нацпроекту	-11.1319
▁полмиллиарда	-11.1319
▁приангарье	-11.1319
▁расставание	-11.1319
▁сначала	-11.1319
▁монумент	-11.1319
▁неприемлем	-11.1319
▁ростуризм	-11.1319
▁отстранить	-11.1319
▁подстанция	-11.1319
▁неприятный	-11.1319
▁ильхам	-11.132
▁PC	-11.132
▁бездомный	-11.132
▁отметить	-11.132
▁рельс	-11.132
▁жилет	-11.132
▁балтика	-11.1323
формирование	-11.1324
▁рождественский	-11.1324
▁инсайдер	-11.1326
▁предпоч	-11.1332
кормить	-11.1342
▁раскол	-11.1353
ВО	-11.1355
▁брифинг	-11.1411
▁губерниев	-11.1411
▁запатентова	-11.1411
▁зарплатн	-11.1411
▁излечился	-11.1411
▁индонезия	-11.1411
▁николич	-11.1411
▁обследую	-11.1411
▁орловщина	-11.1411
▁праздновать	-11.1411
▁преступность	-11.1411
▁просроченный	-11.1411
▁рабинович	-11.1411
▁росавиаци	-11.1411
▁религиозн	-11.1411
▁азиат	-11.1411
▁колонок	-11.1411
▁значительный	-11.1411
▁плитка	-11.1411
▁остаток	-11.1411
▁нарьян	-11.1412
рушивший	-11.1413
▁стремл	-11.1413
▁шейк	-11.1421
▁теплоход	-11.1427
МИ	-11.1442
▁диагностирован	-11.1477
жечь	-11.1478
▁сало	-11.1479
▁абсолют	-11.1486
ADA	-11.1503
▁стамбул	-11.1504
непродовольствен	-11.1504
▁ВШЭ	-11.1504
▁КПП	-11.1504
▁УВД	-11.1504
▁альварес	-11.1504
▁меморандум	-11.1504
▁позднее	-11.1504
▁репортаж	-11.1504
▁расстройство	-11.1504
▁ведьмак	-11.1504
▁утилизация	-11.1504
ругался	-11.1504
▁котельник	-11.1504
▁FT	-11.1504
▁аудит	-11.1504
▁окраина	-11.1504
▁ловушка	-11.1504
▁драться	-11.1504
▁уханя	-11.1504
▁ортис	-11.1505
▁федора	-11.1505
▁печаль	-11.1505
▁lake	-11.1505
▁львовщине	-11.1506
▁юмор	-11.1511
▁груб	-11.1515
▁хроник	-11.1548
▁sho	-11.1549
▁андр	-11.157
▁солист	-11.1573
▁подрыв	-11.1577
бомб	-11.1581
▁инсайд	-11.159
▁international	-11.1597
▁ipad	-11.1597
▁СБР	-11.1597
▁агрессивный	-11.1597
▁видеонаблюдение	-11.1597
▁видеофакт	-11.1597
▁златоуст	-11.1597
▁йованович	-11.1597
▁круглосуточ	-11.1597
▁расчленителя	-11.1597
▁салехард	-11.1597
▁сепаратист	-11.1597
▁усадьба	-11.1597
▁хранилище	-11.1597
▁онкобольн	-11.1597
▁решетов	-11.1597
▁поступок	-11.1597
▁поисковик	-11.1597
▁оскверн	-11.1597
▁гомес	-11.1597
▁буква	-11.1598
▁бомж	-11.1598
▁кровав	-11.1598
▁лещенко	-11.16
▁бояться	-11.1604
▁БК	-11.1607
▁холм	-11.1611
грыз	-11.1618
▁alyx	-11.1692
▁dragon	-11.1692
▁motorola	-11.1692
▁МАУ	-11.1692
▁алеппо	-11.1692
▁донетчине	-11.1692
▁новомосков	-11.1692
▁окончательный	-11.1692
▁погашение	-11.1692
▁телеведущая	-11.1692
▁утверждён	-11.1692
▁объём	-11.1692
▁ослабляю	-11.1692
▁распознава	-11.1692
▁трусы	-11.1692
▁воспоминание	-11.1692
▁мандат	-11.1692
▁хачанов	-11.1692
▁мститель	-11.1692
▁тонкий	-11.1692
▁острый	-11.1692
▁поехать	-11.1692
▁месть	-11.1692
▁локал	-11.1693
▁спешил	-11.1694
▁маневр	-11.1696
биваюсь	-11.1697
▁минчанин	-11.1699
ound	-11.1701
▁mode	-11.1714
▁угон	-11.1714
▁титан	-11.172
▁температур	-11.1738
▁выставлен	-11.1753
▁сброс	-11.1756
▁chrome	-11.1787
▁ЛДНР	-11.1787
▁дезинформация	-11.1787
▁дзюдо	-11.1787
▁коммуникация	-11.1787
▁молитва	-11.1787
▁невинномысск	-11.1787
▁объявить	-11.1787
▁оппозиционный	-11.1787
▁отремонтирован	-11.1787
▁побеждаю	-11.1787
▁русофоб	-11.1787
▁солидарность	-11.1787
▁туктамышев	-11.1787
▁фернанд	-11.1787
▁хачатурян	-11.1787
▁холодильник	-11.1787
▁выполняю	-11.1787
▁косторная	-11.1787
▁потратить	-11.1787
▁серебро	-11.1787
▁вахтовики	-11.1787
▁небесный	-11.1787
▁олейник	-11.1787
▁перепись	-11.1787
▁известие	-11.1787
▁частота	-11.1787
▁зол	-11.1787
▁аборт	-11.1787
▁отзываю	-11.1788
▁единовремен	-11.1788
▁транш	-11.1788
▁поступаю	-11.1789
требовать	-11.1789
▁милевский	-11.179
▁шахты	-11.179
▁торговец	-11.1791
▁lite	-11.1793
▁коап	-11.1803
cha	-11.1814
вшая	-11.1836
▁квартир	-11.1837
▁расчлен	-11.1869
▁вызыва	-11.1878
▁benz	-11.1883
▁diablo	-11.1883
▁воспользовался	-11.1883
▁голландия	-11.1883
▁луганщине	-11.1883
▁принудительный	-11.1883
▁респиратор	-11.1883
▁рецензия	-11.1883
▁санврач	-11.1883
▁союзмультфильм	-11.1883
▁хозяйка	-11.1883
▁продвижение	-11.1883
▁пушкинский	-11.1883
▁шумахер	-11.1883
▁пацан	-11.1883
▁ургант	-11.1883
▁абакан	-11.1883
▁огнен	-11.1883
кладывать	-11.1883
▁получен	-11.1886
▁госсовет	-11.189
▁обама	-11.189
▁заговор	-11.1916
▁отдыхаю	-11.192
▁воскрес	-11.1935
▁апелляци	-11.1961
▁абсурд	-11.198
▁автолюбитель	-11.198
▁аудитория	-11.198
▁геймплей	-11.198
▁жёсткий	-11.198
▁ненависть	-11.198
▁нефтехимик	-11.198
▁отличаюсь	-11.198
▁перепрофилирова	-11.198
▁подозрительный	-11.198
▁приезжаю	-11.198
▁стимул	-11.198
▁экстрадиция	-11.198
▁вождение	-11.198
▁аталант	-11.198
▁разобрал	-11.198
▁разрушил	-11.198
▁водолаз	-11.198
▁щерб	-11.198
▁каспий	-11.198
▁велюр	-11.1982
▁котировка	-11.1986
▁финам	-11.199
▁приволж	-11.1993
▁удаленн	-11.2009
▁задействова	-11.2021
ивает	-11.2026
AN	-11.2035
овременный	-11.2042
▁ГАИ	-11.2078
▁ГРУ	-11.2078
▁МКАД	-11.2078
▁УМВД	-11.2078
▁безопасен	-11.2078
▁возмущён	-11.2078
▁композитор	-11.2078
▁межрегион	-11.2078
▁откровенен	-11.2078
▁понадобился	-11.2078
▁превратить	-11.2078
▁прихожанин	-11.2078
▁разочарован	-11.2078
▁ребенку	-11.2078
▁рецессия	-11.2078
▁халатность	-11.2078
▁обанкроти	-11.2078
▁катюша	-11.2078
▁извинение	-11.2078
▁очистил	-11.2078
▁сокровищ	-11.2078
▁устранил	-11.2078
▁аноним	-11.2078
▁особо	-11.2078
▁СПЧ	-11.2078
▁седоков	-11.2078
▁постройка	-11.2079
▁профинансирова	-11.2079
▁СПГ	-11.208
▁новорожденного	-11.208
▁кардинал	-11.2081
▁задание	-11.2081
▁кишечник	-11.2082
▁постпред	-11.2083
лучивший	-11.2084
▁подроб	-11.2174
▁sohu	-11.2177
▁АТР	-11.2177
▁аллергия	-11.2177
▁пенальти	-11.2177
▁рафаэл	-11.2177
▁упражнение	-11.2177
▁САП	-11.2177
▁джексон	-11.2177
▁долгострой	-11.2177
▁vivo	-11.2177
▁пшеница	-11.2177
▁автоледи	-11.2177
▁приравня	-11.2177
▁дневник	-11.2177
▁коляска	-11.2177
▁примирение	-11.2177
▁роджер	-11.2177
▁маркетс	-11.2177
▁афера	-11.2178
▁заживо	-11.2178
▁dota	-11.2179
▁похититель	-11.2179
▁УЗ	-11.218
▁band	-11.2181
услуг	-11.2181
▁олень	-11.2182
зрел	-11.2182
▁чарт	-11.227
▁красив	-11.2272
▁допвыплат	-11.2277
▁НТВ	-11.2277
▁благоприятный	-11.2277
▁браслет	-11.2277
▁бронежилет	-11.2277
▁встречка	-11.2277
▁землей	-11.2277
▁инфаркт	-11.2277
▁окружение	-11.2277
▁партизан	-11.2277
▁посвящён	-11.2277
▁серьёзный	-11.2277
▁справедливость	-11.2277
▁удовлетвор	-11.2277
▁улучшить	-11.2277
▁аннулирую	-11.2277
▁беженец	-11.2277
▁госорган	-11.2277
▁маньяк	-11.2277
▁распоряди	-11.2277
▁якушев	-11.2277
▁северянин	-11.2277
▁чибис	-11.2277
▁палатка	-11.2277
▁милоны	-11.2277
▁переулок	-11.2277
▁сапсан	-11.2277
▁нечего	-11.2277
▁ожог	-11.2278
▁югорчан	-11.2278
▁MC	-11.2282
▁роструд	-11.2285
▁положен	-11.2288
▁выстроил	-11.2292
▁энергетик	-11.2329
▁поставлен	-11.2354
▁химически	-11.2356
▁увеличен	-11.2372
электроснабжение	-11.2378
▁stadium	-11.2378
▁ТКО	-11.2378
▁астронавт	-11.2378
▁горбольниц	-11.2378
▁ефремов	-11.2378
▁кислород	-11.2378
▁ненавижу	-11.2378
▁обсуждать	-11.2378
▁пашинян	-11.2378
▁переселенец	-11.2378
▁приглашение	-11.2378
▁сивохо	-11.2378
▁соблазн	-11.2378
▁фантастический	-11.2378
▁шымкент	-11.2378
▁южноуральц	-11.2378
▁горжусь	-11.2378
▁ереван	-11.2378
▁орловец	-11.2378
▁маркетинг	-11.2378
▁пионер	-11.2378
▁кластер	-11.2378
▁монако	-11.2378
▁достроил	-11.2378
ниженный	-11.2379
▁ехать	-11.2379
▁багаж	-11.2379
▁зидан	-11.238
▁распрода	-11.238
▁табак	-11.238
▁легче	-11.2381
▁частичный	-11.2381
▁you	-11.2384
▁рассад	-11.2391
▁перевози	-11.2407
танковый	-11.2424
▁волонтерам	-11.2431
▁товарищес	-11.2468
▁желаю	-11.2475
▁цикл	-11.2476
▁geforce	-11.248
▁surface	-11.248
▁tiktok	-11.248
▁vodafone	-11.248
▁ГСЧС	-11.248
▁вертолёт	-11.248
▁двусторонний	-11.248
▁зелёный	-11.248
▁манипуляция	-11.248
▁мывместе	-11.248
▁огурец	-11.248
▁одновременен	-11.248
▁поножовщина	-11.248
▁рентген	-11.248
▁росалкогол	-11.248
▁сослуживец	-11.248
▁фальсификация	-11.248
▁дерзкий	-11.248
▁сладость	-11.248
▁хостел	-11.248
▁шорты	-11.248
▁пещер	-11.248
▁престиж	-11.248
▁миномет	-11.248
▁подсветка	-11.248
▁мансийск	-11.248
▁отстранен	-11.2481
▁бомбардировщик	-11.2481
▁мысль	-11.2481
▁поместил	-11.2481
▁застройка	-11.2481
▁опора	-11.2482
▁погаси	-11.2483
▁трагически	-11.2486
▁кремлев	-11.2486
ign	-11.2486
▁колокол	-11.2487
▁меньш	-11.249
▁хейт	-11.2496
▁джасти	-11.2512
орожен	-11.2516
талия	-11.2523
▁похорон	-11.2561
▁переболевши	-11.2574
волок	-11.2575
очки	-11.2575
▁NFC	-11.2583
▁secret	-11.2583
▁горнолыж	-11.2583
▁дискуссия	-11.2583
▁заслуга	-11.2583
▁интерфакс	-11.2583
▁кабардино	-11.2583
▁красавица	-11.2583
▁легкоатлет	-11.2583
▁медреформы	-11.2583
▁подполковник	-11.2583
▁распознать	-11.2583
▁рособрнадзор	-11.2583
▁серебряный	-11.2583
▁удостоверение	-11.2583
реагировать	-11.2583
▁валенсия	-11.2583
▁фриске	-11.2583
▁николас	-11.2583
▁дюмин	-11.2583
▁видеоролик	-11.2583
▁евролига	-11.2583
▁кирпич	-11.2584
▁рижский	-11.2584
▁подделка	-11.2584
▁отправка	-11.2584
▁гатчин	-11.2584
▁бросаю	-11.2585
▁нацсовет	-11.2585
▁WS	-11.2586
▁прояви	-11.2593
▁сбыт	-11.2603
▁очаков	-11.2604
▁КМ	-11.2614
▁кейн	-11.2627
десят	-11.2635
▁динамик	-11.2639
400	-11.2648
▁лампа	-11.2659
▁деятель	-11.2683
публиковать	-11.2687
▁cross	-11.2687
▁legend	-11.2687
▁oneplus	-11.2687
▁диспансер	-11.2687
▁дядя	-11.2687
▁жизнен	-11.2687
▁кинешем	-11.2687
▁компромисс	-11.2687
▁павлодар	-11.2687
▁поджигатель	-11.2687
▁развеял	-11.2687
▁свастика	-11.2687
▁смолянин	-11.2687
▁тюрем	-11.2687
▁картошка	-11.2687
▁номинант	-11.2687
▁пицца	-11.2687
▁представлять	-11.2687
▁купюра	-11.2687
▁выращива	-11.2687
▁коридор	-11.2687
▁чушь	-11.2687
▁лестница	-11.2687
ворачива	-11.2687
▁аксён	-11.2688
▁жозе	-11.2688
▁кашель	-11.2688
▁кудрин	-11.2688
▁1941	-11.2688
▁суворов	-11.2688
▁одинокий	-11.2688
▁ГТС	-11.2689
▁овца	-11.2689
▁могилевская	-11.2689
▁гвине	-11.269
▁разрешаю	-11.2691
▁секретарь	-11.2691
▁шапш	-11.2694
▁кратк	-11.2707
▁популяр	-11.2716
▁сорвать	-11.2719
▁вымани	-11.2744
▁карьер	-11.2744
вращение	-11.2791
▁snapdragon	-11.2793
▁ВМФ	-11.2793
▁авиаперевозка	-11.2793
▁бумажный	-11.2793
▁главред	-11.2793
▁комендант	-11.2793
▁ликвидировать	-11.2793
▁обращаться	-11.2793
▁предпочитаю	-11.2793
▁прозвуча	-11.2793
▁пятерку	-11.2793
▁распределение	-11.2793
▁скончавшийся	-11.2793
▁стерненко	-11.2793
▁съёмка	-11.2793
▁тенденция	-11.2793
▁транснефть	-11.2793
▁успенский	-11.2793
▁новокузнечан	-11.2793
▁голкипер	-11.2793
▁училище	-11.2793
▁бобруйск	-11.2793
▁звёзд	-11.2793
▁крепость	-11.2793
▁юноша	-11.2793
▁звено	-11.2793
▁монтаж	-11.2793
▁задушил	-11.2793
▁сытник	-11.2793
▁ревность	-11.2793
▁лазер	-11.2793
▁акула	-11.2793
▁иначе	-11.2795
▁производить	-11.2795
▁третьяк	-11.2805
▁велес	-11.2809
▁покида	-11.281
▁обучаю	-11.2827
бук	-11.2829
▁нацелил	-11.2846
audi	-11.2878
▁наказан	-11.2893
прашиваю	-11.2899
▁reuter	-11.2899
▁volvo	-11.2899
▁ажиотаж	-11.2899
▁алгоритм	-11.2899
▁кадастр	-11.2899
▁коэффициент	-11.2899
▁криштиану	-11.2899
▁лазарев	-11.2899
▁минкомсвязи	-11.2899
▁одноразовый	-11.2899
▁роттердам	-11.2899
▁тейлор	-11.2899
▁управлять	-11.2899
▁утвержден	-11.2899
▁минспорт	-11.2899
▁миротворец	-11.2899
▁карабах	-11.2899
▁полярный	-11.2899
▁ельцин	-11.2899
▁сталинград	-11.2899
▁мажор	-11.2899
▁подъем	-11.2899
▁словения	-11.2899
▁euro	-11.2899
▁расправа	-11.2899
▁скучаю	-11.2899
▁общаюсь	-11.2899
▁бурятский	-11.2899
▁пятно	-11.2899
▁анкара	-11.2899
▁поселок	-11.29
▁жанна	-11.29
▁воюю	-11.29
▁спортзал	-11.29
▁подавать	-11.2907
▁интеллектуал	-11.2923
▁гидро	-11.2943
▁вторич	-11.2973
морозил	-11.2973
электро	-11.2987
безопасность	-11.2987
▁неопределенн	-11.3006
▁учреди	-11.3007
▁wink	-11.3007
▁ТАСС	-11.3007
▁аршавин	-11.3007
▁балотелли	-11.3007
▁гимнастика	-11.3007
▁командующий	-11.3007
▁набиуллина	-11.3007
▁отремонтировать	-11.3007
▁прибытие	-11.3007
▁публикую	-11.3007
▁балкария	-11.3007
▁терплю	-11.3007
▁короток	-11.3007
▁колонна	-11.3007
▁лицей	-11.3007
▁припаркован	-11.3007
▁WTA	-11.3007
▁ловлю	-11.3008
▁ES	-11.301
▁соснов	-11.3027
гоняю	-11.307
могаю	-11.308
американ	-11.3082
заметен	-11.3084
▁скрыл	-11.3093
—	-11.3097
уточн	-11.3099
стоял	-11.3108
тягиваю	-11.3115
▁aramco	-11.3115
▁mitsubishi	-11.3115
▁ФБР	-11.3115
▁агуэро	-11.3115
▁бедствие	-11.3115
▁дрезден	-11.3115
▁мандалорец	-11.3115
▁райффайзен	-11.3115
▁уменьшить	-11.3115
▁услышал	-11.3115
▁четвертьфинал	-11.3115
▁яремчук	-11.3115
▁босния	-11.3115
▁палестин	-11.3115
▁сомнение	-11.3115
▁хореограф	-11.3115
▁ЧЕ	-11.3115
▁восьми	-11.3115
▁отправлять	-11.3115
▁преемник	-11.3115
▁соратник	-11.3115
▁закрывать	-11.3115
▁погреб	-11.3115
▁укрепить	-11.3115
▁стилист	-11.3116
▁зоря	-11.3117
▁сестер	-11.3118
▁болото	-11.3123
ломанный	-11.3141
ухой	-11.3141
бросивший	-11.3176
снял	-11.3199
очек	-11.3209
структур	-11.3225
▁ЛГБТ	-11.3225
несанкцион	-11.3225
оплачиваемы	-11.3225
проинспектировал	-11.3225
▁auto	-11.3225
▁ТЭЦ	-11.3225
▁вступительный	-11.3225
▁категорически	-11.3225
▁короновирус	-11.3225
▁новочеркасск	-11.3225
▁оптимизация	-11.3225
▁рейхстаг	-11.3225
▁смягчать	-11.3225
▁сомневаюсь	-11.3225
▁стенограмма	-11.3225
▁черкасский	-11.3225
▁реутово	-11.3225
▁санкцион	-11.3225
▁состояться	-11.3225
▁травмирую	-11.3225
▁vesta	-11.3225
▁борисполь	-11.3225
▁милованов	-11.3225
▁слышу	-11.3225
▁усиливаю	-11.3225
▁киоск	-11.3225
▁узбек	-11.3225
▁длительный	-11.3225
▁жених	-11.3225
▁общепит	-11.3226
▁винницк	-11.3227
▁холанд	-11.3229
▁подчинен	-11.3255
▁познакомил	-11.3271
▁оригинал	-11.3312
▁вооруженн	-11.3318
▁выстрел	-11.3327
▁аграр	-11.3327
▁nintendo	-11.3336
▁австралий	-11.3336
▁аннексирован	-11.3336
▁ассанжа	-11.3336
▁бойфренд	-11.3336
▁бразиль	-11.3336
▁драмтеатр	-11.3336
▁замедлился	-11.3336
▁игнорирую	-11.3336
▁контрафакт	-11.3336
▁милявская	-11.3336
▁обыграть	-11.3336
▁петросян	-11.3336
▁преждевременный	-11.3336
▁приамурья	-11.3336
▁сладкое	-11.3336
▁суррогат	-11.3336
госавтоинспекция	-11.3336
▁глупость	-11.3336
▁дженнер	-11.3336
ишвили	-11.3336
▁разбираюсь	-11.3336
▁лорак	-11.3336
▁отмывание	-11.3336
▁голунов	-11.3336
крутил	-11.3336
▁срочник	-11.3336
▁бабушкин	-11.3337
▁подписан	-11.3339
▁барыс	-11.334
▁ривз	-11.3341
▁противореч	-11.3345
техническ	-11.335
dge	-11.337
▁ограби	-11.3421
▁кировск	-11.344
▁таможенн	-11.3445
▁financ	-11.3449
▁кондратьев	-11.3449
▁осуществл	-11.3449
▁существо	-11.3449
▁ГАЗ	-11.3449
▁галактика	-11.3449
▁демонстрант	-11.3449
▁дорожка	-11.3449
▁дубневич	-11.3449
▁епископ	-11.3449
▁минсоцполитики	-11.3449
▁нюанс	-11.3449
▁обслуживать	-11.3449
▁предустановк	-11.3449
▁предыдущий	-11.3449
▁проезжий	-11.3449
▁проявляю	-11.3449
▁соответствие	-11.3449
▁территориальный	-11.3449
▁тяжелобольной	-11.3449
▁фьючерс	-11.3449
▁шикарный	-11.3449
▁ДНК	-11.3449
▁книжный	-11.3449
▁корниенко	-11.3449
▁мартинес	-11.3449
▁бандит	-11.3449
▁колодец	-11.3449
▁мопед	-11.3449
▁зинченко	-11.3449
▁речной	-11.3449
▁червь	-11.3449
▁затрата	-11.3449
▁облако	-11.3449
▁абрамович	-11.345
▁вернер	-11.3451
▁оскол	-11.3451
▁североморск	-11.3452
mark	-11.3453
▁авари	-11.3474
▁нефтегазов	-11.3539
профилактический	-11.3562
▁автовладелец	-11.3562
▁адаптивный	-11.3562
▁бородино	-11.3562
▁вестибюль	-11.3562
▁вильфанд	-11.3562
▁вятрович	-11.3562
▁гвоздик	-11.3562
▁гимнастка	-11.3562
▁евромайдан	-11.3562
▁жеребьевк	-11.3562
▁звоню	-11.3562
▁косметика	-11.3562
▁льготник	-11.3562
▁неправилен	-11.3562
▁обследование	-11.3562
▁пребывание	-11.3562
▁проявление	-11.3562
▁разъяснение	-11.3562
▁самозанятым	-11.3562
▁таблица	-11.3562
▁теплотрасса	-11.3562
▁челябинец	-11.3562
▁гонорар	-11.3562
▁псевдо	-11.3562
▁цитата	-11.3562
▁знакомство	-11.3562
▁айлиш	-11.3562
▁триумф	-11.3562
▁рестарт	-11.3562
▁мутация	-11.3562
▁дольше	-11.3562
▁понятие	-11.3563
▁сиквел	-11.3563
страивать	-11.3563
▁ролл	-11.3563
▁муфти	-11.3564
▁пойман	-11.3565
▁оригинальн	-11.3587
▁соверши	-11.3601
▁изнасилова	-11.3601
агит	-11.3618
падаю	-11.3642
ьрегулирования	-11.3677
▁восторг	-11.3677
▁девятиклассник	-11.3677
▁детектив	-11.3677
▁ессентуки	-11.3677
▁концлагерь	-11.3677
▁мёртвый	-11.3677
▁недостаточно	-11.3677
▁оскорбля	-11.3677
▁подтверждаю	-11.3677
▁пятиэтажка	-11.3677
▁супрун	-11.3677
▁убежище	-11.3677
▁уроженец	-11.3677
▁фрегат	-11.3677
▁огнем	-11.3677
work	-11.3677
реструктуризация	-11.3677
▁северодвинск	-11.3677
▁милиция	-11.3677
▁столько	-11.3677
▁чарли	-11.3677
▁смертелен	-11.3677
▁явление	-11.3677
▁награжден	-11.3677
▁вступаю	-11.3677
▁обратен	-11.3677
▁биометри	-11.368
▁смеша	-11.3682
▁табачн	-11.3682
▁повесил	-11.3688
eep	-11.369
кусал	-11.3707
иану	-11.372
вшие	-11.3724
ирует	-11.3727
говариваю	-11.3737
▁бишкек	-11.3793
mortal	-11.3793
уменьшение	-11.3793
▁league	-11.3793
▁switch	-11.3793
▁баллотироваться	-11.3793
▁витренко	-11.3793
▁накопление	-11.3793
▁обезьяна	-11.3793
▁перинатальный	-11.3793
▁подскочил	-11.3793
▁таблетка	-11.3793
▁табличка	-11.3793
▁ультиматум	-11.3793
▁выполнять	-11.3793
▁пересадок	-11.3793
▁суверенный	-11.3793
▁устюг	-11.3793
▁выезжать	-11.3794
▁крепкий	-11.3794
▁формирую	-11.3794
▁капуста	-11.3794
▁сегмент	-11.3794
way	-11.3794
▁наступаю	-11.3794
▁санчо	-11.3794
▁штука	-11.3794
▁применять	-11.3794
▁брайан	-11.3794
▁ингуш	-11.3794
▁выгода	-11.3794
▁карлос	-11.3794
▁free	-11.3794
▁сергиев	-11.3794
▁свеча	-11.3794
▁валуй	-11.3795
▁идиот	-11.3795
▁сенцов	-11.3796
▁разоблач	-11.3844
▁сдвинул	-11.3854
▁прорвал	-11.3868
off	-11.3883
▁gold	-11.3911
ининфраструктуры	-11.3911
▁inside	-11.3911
▁аппетит	-11.3911
▁компенсирую	-11.3911
▁приангарья	-11.3911
▁приключение	-11.3911
▁птицефабрика	-11.3911
▁риккардо	-11.3911
▁укравтодор	-11.3911
▁фрунзенский	-11.3911
▁монреаль	-11.3911
▁эффективен	-11.3911
▁выписка	-11.3911
▁маргарит	-11.3911
▁одиночество	-11.3911
▁одинцово	-11.3911
▁сумел	-11.3912
▁таинствен	-11.3913
042020	-11.3913
телей	-11.3927
▁ручн	-11.3928
качать	-11.3939
▁минерал	-11.3947
▁востребован	-11.3962
▁церков	-11.4022
звезд	-11.4023
недобросовестный	-11.403
▁pixel	-11.403
▁road	-11.403
▁ubisoft	-11.403
▁worldskills	-11.403
▁ФНБ	-11.403
▁настоятель	-11.403
▁отреставрировал	-11.403
▁пензенец	-11.403
▁теплоснабжение	-11.403
▁ферстаппен	-11.403
▁конопля	-11.403
▁перестановка	-11.403
▁привычный	-11.403
▁разминирование	-11.403
▁байкер	-11.403
▁тобольск	-11.403
▁численность	-11.403
▁связываю	-11.403
▁уехать	-11.403
▁общаться	-11.403
▁факел	-11.403
▁лесоруб	-11.4031
▁обвинен	-11.4031
▁ёлка	-11.4032
▁водонаев	-11.4033
рушить	-11.4043
▁дариг	-11.4055
брасываю	-11.408
▁вооруж	-11.4112
▁агат	-11.4117
ГТУ	-11.4151
▁smart	-11.4151
▁арзамас	-11.4151
▁брянщине	-11.4151
▁буковине	-11.4151
▁воспользоваться	-11.4151
▁джатдоев	-11.4151
▁долголетие	-11.4151
▁конкретный	-11.4151
▁отчуждение	-11.4151
▁повлиять	-11.4151
▁поцелуй	-11.4151
▁присоединение	-11.4151
▁провоцирую	-11.4151
▁росреестр	-11.4151
▁сформировал	-11.4151
▁энергоблок	-11.4151
▁яндекстакси	-11.4151
▁гривня	-11.4151
▁opel	-11.4151
▁калужанин	-11.4151
▁фадей	-11.4151
▁шарапов	-11.4151
▁возмещ	-11.4151
▁ученица	-11.4151
▁удачный	-11.4151
▁помнить	-11.4151
▁означаю	-11.4154
садивший	-11.4169
числил	-11.4174
▁пластик	-11.4217
▁бирж	-11.4225
▁игнат	-11.4236
▁выпив	-11.4259
▁сэкономи	-11.4261
материал	-11.4268
производств	-11.4269
▁мичурин	-11.4273
▁alibaba	-11.4273
▁grand	-11.4273
▁ВНО	-11.4273
▁СНВ	-11.4273
▁боруссии	-11.4273
▁диктант	-11.4273
▁клевета	-11.4273
▁коттедж	-11.4273
▁кьеллини	-11.4273
▁медсестер	-11.4273
▁окружающи	-11.4273
▁ощущение	-11.4273
▁паблика	-11.4273
▁развлечение	-11.4273
▁разыграл	-11.4273
▁спецоперация	-11.4273
▁тедеско	-11.4273
▁улучшаю	-11.4273
▁фейерверк	-11.4273
▁чукотка	-11.4273
▁шамсутдинов	-11.4273
▁экспедиция	-11.4273
▁эстафета	-11.4273
▁комедия	-11.4273
▁объезд	-11.4273
▁гриценко	-11.4273
▁насилую	-11.4273
▁пошутил	-11.4273
▁прощание	-11.4273
▁пожалел	-11.4273
▁канело	-11.4273
▁чернышев	-11.4273
▁отмечен	-11.4273
▁укладка	-11.4273
▁куртка	-11.4273
▁карачаев	-11.4273
▁обратный	-11.4274
▁закупать	-11.4275
тысячный	-11.4277
▁саранск	-11.4296
деваю	-11.4328
▁ослаб	-11.4371
▁недопустим	-11.4383
плыв	-11.4387
▁обеспечен	-11.439
▁mcdonald	-11.4396
▁ВКС	-11.4396
▁УАФ	-11.4396
▁автосалон	-11.4396
▁башкортостан	-11.4396
▁екатеринбуржец	-11.4396
▁заблокирован	-11.4396
▁застолье	-11.4396
▁иерусалим	-11.4396
▁кандалакш	-11.4396
▁князь	-11.4396
▁кузьмин	-11.4396
▁остановлен	-11.4396
▁перспективный	-11.4396
▁позвонил	-11.4396
▁предзаказ	-11.4396
▁кошелёк	-11.4396
▁торонто	-11.4396
▁фильтр	-11.4396
▁эвертон	-11.4396
▁условен	-11.4396
▁штаны	-11.4396
▁датчик	-11.4396
▁удвоил	-11.4396
▁валуев	-11.4396
▁воровство	-11.4396
▁программист	-11.4396
▁еврозона	-11.4396
▁эмери	-11.4396
▁мутко	-11.4396
▁ухтин	-11.4397
▁задний	-11.4397
брачный	-11.4399
▁вычисли	-11.4409
▁хронически	-11.441
надцать	-11.4418
▁утопи	-11.4485
▁побои	-11.451
основатель	-11.4519
возможность	-11.4519
стабилизировался	-11.4521
▁алибасов	-11.4521
▁апокалипсис	-11.4521
▁бородянский	-11.4521
▁виторган	-11.4521
▁возобновлён	-11.4521
▁волшеб	-11.4521
▁гвардиола	-11.4521
▁демонстрирую	-11.4521
▁дисциплина	-11.4521
▁жигунов	-11.4521
▁изготовление	-11.4521
▁конструктор	-11.4521
▁объявляю	-11.4521
▁ожидаемый	-11.4521
▁появляюсь	-11.4521
▁симоньян	-11.4521
▁шедевр	-11.4521
▁энтони	-11.4521
ординатор	-11.4521
▁блокпост	-11.4521
▁командный	-11.4521
▁упрекну	-11.4521
▁приехать	-11.4521
▁красотка	-11.4521
▁рошаль	-11.4521
▁бесконеч	-11.4521
▁коротков	-11.4521
▁кулинар	-11.4521
▁драчев	-11.4521
▁прибываю	-11.4521
▁помеха	-11.4522
▁грех	-11.4523
ключительный	-11.4563
▁дополнен	-11.4642
$	-11.4645
▁haval	-11.4648
▁ПФЛ	-11.4648
▁абилимпикс	-11.4648
▁аннексия	-11.4648
▁ансамбль	-11.4648
▁взяточничество	-11.4648
▁геленджик	-11.4648
▁доработка	-11.4648
▁коктейль	-11.4648
▁коломойскому	-11.4648
▁медперсонал	-11.4648
▁орловчанин	-11.4648
▁подготовлен	-11.4648
▁прибайкалье	-11.4648
▁распоряжение	-11.4648
▁регулирование	-11.4648
▁росздравнадзор	-11.4648
▁снижаться	-11.4648
▁упростить	-11.4648
▁уренгой	-11.4648
▁бэтмен	-11.4648
▁интенсив	-11.4648
▁краматорск	-11.4648
▁правосудие	-11.4648
▁скорпион	-11.4648
▁ЗВО	-11.4648
▁экстрадирова	-11.4648
▁признавать	-11.4648
▁ворскла	-11.4648
▁побороть	-11.4648
▁издатель	-11.4648
▁телеграм	-11.4648
▁орешкин	-11.4648
▁страсть	-11.4648
▁немедлен	-11.4648
▁выживаю	-11.4649
▁первич	-11.4649
▁пальм	-11.4665
▁анджел	-11.4774
охозяйственн	-11.4776
▁victoria	-11.4776
▁дельфина	-11.4776
▁ОПЗЖ	-11.4776
▁администратор	-11.4776
▁брюссель	-11.4776
▁волынь	-11.4776
▁госслужащий	-11.4776
▁дербент	-11.4776
▁издевательство	-11.4776
▁кооператив	-11.4776
▁лаутаро	-11.4776
▁ломбард	-11.4776
▁льюис	-11.4776
▁пансионат	-11.4776
▁питтсбург	-11.4776
▁предъявлен	-11.4776
▁рассекречен	-11.4776
▁трансформация	-11.4776
▁трудоустройство	-11.4776
▁шмыгаля	-11.4776
▁вещание	-11.4776
▁множеств	-11.4776
▁совершаю	-11.4776
▁яременко	-11.4776
▁малиновский	-11.4776
▁арабский	-11.4776
ТРК	-11.4776
▁кравец	-11.4776
▁авента	-11.4776
▁манеж	-11.4776
▁решён	-11.4776
▁пообщал	-11.4776
▁верланов	-11.4776
▁производствен	-11.4779
▁укрзал	-11.478
▁норд	-11.485
▁рэп	-11.4899
▁тракт	-11.4901
ГКБ	-11.4902
▁amnesty	-11.4906
▁mafia	-11.4906
▁plus	-11.4906
▁radeon	-11.4906
▁ЛЭП	-11.4906
▁аутсайдер	-11.4906
▁беспокою	-11.4906
▁включая	-11.4906
▁дискриминация	-11.4906
▁инициативный	-11.4906
▁минцифры	-11.4906
▁общественность	-11.4906
▁партнёр	-11.4906
▁принудителен	-11.4906
▁приостановить	-11.4906
▁резидент	-11.4906
▁стипендия	-11.4906
▁сулейман	-11.4906
▁туберкулез	-11.4906
▁энтузиаст	-11.4906
будоражи	-11.4906
▁бактерия	-11.4906
▁игнорирова	-11.4906
▁кировчанин	-11.4906
▁черновцы	-11.4906
▁физика	-11.4906
▁дракон	-11.4906
▁ничья	-11.4906
▁змея	-11.4906
▁парнас	-11.4906
▁молчу	-11.4906
▁триполи	-11.4907
▁синтети	-11.4908
▁поменять	-11.491
▁пищево	-11.4911
▁террор	-11.4976
▁обрушил	-11.5015
▁оптимист	-11.5037
▁регламент	-11.5037
▁delfi	-11.5037
▁national	-11.5037
▁ГТО	-11.5037
▁алкоголизм	-11.5037
▁бессмыслен	-11.5037
▁вернидуб	-11.5037
▁госизмене	-11.5037
▁дождался	-11.5037
▁железнодорожник	-11.5037
▁изготови	-11.5037
▁кроссовок	-11.5037
▁мягкий	-11.5037
▁режиссёр	-11.5037
▁служение	-11.5037
▁уважение	-11.5037
▁хуснуллин	-11.5037
▁экспозиция	-11.5037
▁ярмоленко	-11.5037
▁бесконтактн	-11.5037
▁плечо	-11.5037
▁ковалёв	-11.5037
▁митингующий	-11.5037
▁детдом	-11.5037
▁выживание	-11.5037
▁волную	-11.5037
▁базука	-11.5037
▁браун	-11.5037
▁закупал	-11.5038
достаточный	-11.504
▁кулак	-11.5041
▁поднимаю	-11.5056
считан	-11.5148
▁молдав	-11.5164
▁app	-11.517
▁CNN	-11.5171
▁alyona	-11.5171
▁girl	-11.5171
▁honda	-11.5171
▁ВТО	-11.5171
▁ЕЦБ	-11.5171
▁КВН	-11.5171
▁белаэс	-11.5171
▁воссозда	-11.5171
▁канцлер	-11.5171
▁кожемяко	-11.5171
▁конструкция	-11.5171
▁лабораторный	-11.5171
▁повезёт	-11.5171
▁пропагандист	-11.5171
▁ранхигс	-11.5171
▁симулятор	-11.5171
▁справедливый	-11.5171
▁суперкомпьютер	-11.5171
▁чемодан	-11.5171
▁гардероб	-11.5171
▁впадина	-11.5171
▁госпрограмма	-11.5171
▁предстою	-11.5171
ашвили	-11.5171
▁грунт	-11.5171
▁нарисовал	-11.5171
▁кейдж	-11.5171
▁попроща	-11.5171
▁облегч	-11.5171
▁елку	-11.5172
▁ковров	-11.5173
шествие	-11.5177
▁заполнен	-11.5189
▁прослави	-11.5195
▁влиятельн	-11.52
▁слуцк	-11.523
▁пугачев	-11.525
▁ярослав	-11.5255
▁упрощен	-11.5256
▁практик	-11.5301
▁rammstein	-11.5306
▁антивирус	-11.5306
▁включён	-11.5306
▁восстание	-11.5306
▁грамотность	-11.5306
▁динозавр	-11.5306
▁империя	-11.5306
▁ископаемый	-11.5306
▁локализован	-11.5306
▁наращиваю	-11.5306
▁наркоторговец	-11.5306
▁несчастный	-11.5306
▁облачность	-11.5306
▁падчерица	-11.5306
▁первоуральск	-11.5306
▁пранкер	-11.5306
▁разногласие	-11.5306
▁серябкин	-11.5306
▁скриншот	-11.5306
▁сложнее	-11.5306
▁степень	-11.5306
▁трансплантолог	-11.5306
▁уничтожаю	-11.5306
▁шварценеггер	-11.5306
▁активизирую	-11.5306
▁нападки	-11.5306
▁очистка	-11.5306
▁упаковка	-11.5306
▁переселение	-11.5306
▁сдерживание	-11.5306
▁загреб	-11.5306
▁соберет	-11.5307
▁грабл	-11.5312
вшей	-11.5336
▁дежур	-11.5371
▁созыв	-11.5385
сылаю	-11.5388
ужусь	-11.5404
нижаю	-11.5404
▁восстанавливать	-11.5407
▁должност	-11.5434
▁швейцар	-11.5436
▁универсал	-11.5438
катастрофический	-11.5443
▁URARU	-11.5443
▁global	-11.5443
▁kombat	-11.5443
▁беспрецедентный	-11.5443
▁биробиджан	-11.5443
▁варшава	-11.5443
▁великолепный	-11.5443
▁военкомат	-11.5443
▁дьявол	-11.5443
▁заключён	-11.5443
▁кукуруз	-11.5443
▁наблюдать	-11.5443
▁новатэк	-11.5443
▁однажды	-11.5443
▁положителен	-11.5443
▁разблокирова	-11.5443
▁ротенберг	-11.5443
▁ружьё	-11.5443
▁свержение	-11.5443
▁содействие	-11.5443
▁старшеклассник	-11.5443
▁туркменистан	-11.5443
▁тёплый	-11.5443
▁уберечь	-11.5443
▁физкультур	-11.5443
▁спокоен	-11.5443
▁стекло	-11.5443
▁юпитер	-11.5443
▁дерипаск	-11.5443
▁трофей	-11.5443
▁шукшин	-11.5443
▁пополнение	-11.5443
▁хоррор	-11.5443
▁дубилет	-11.5443
▁постоялец	-11.5443
▁аромат	-11.5443
▁ласковый	-11.5443
▁фотошоп	-11.5443
▁юбка	-11.5443
▁нижне	-11.5443
▁леброн	-11.5443
двинуть	-11.5444
▁победи	-11.5445
▁переизбра	-11.5445
▁поражаю	-11.5457
функциональный	-11.5476
счёт	-11.5479
▁уменьшил	-11.556
ассамблея	-11.5582
управляемый	-11.5582
▁cruiser	-11.5582
▁ВЭБ	-11.5582
▁авербух	-11.5582
▁автовокзал	-11.5582
▁вылечившихся	-11.5582
▁дисквалификация	-11.5582
▁жидкость	-11.5582
▁задымление	-11.5582
▁отличился	-11.5582
▁порекомендова	-11.5582
▁прекращён	-11.5582
▁приготовление	-11.5582
▁просрочка	-11.5582
▁раскладушка	-11.5582
▁резиденция	-11.5582
▁скопление	-11.5582
▁совладелец	-11.5582
▁удобрение	-11.5582
▁уссурийск	-11.5582
▁феномен	-11.5582
▁фиктивный	-11.5582
▁шизофрения	-11.5582
▁бункер	-11.5582
▁несправедлив	-11.5582
▁обращаюсь	-11.5582
▁прописка	-11.5582
▁проконтролирова	-11.5582
▁мошенничес	-11.5582
▁шалимов	-11.5582
▁оправдыва	-11.5582
▁переполнен	-11.5582
▁словарь	-11.5582
▁техас	-11.5582
▁пушилин	-11.5582
▁балтия	-11.5582
▁опереди	-11.5582
▁леклер	-11.5582
▁отрезан	-11.5582
▁шапка	-11.5582
владение	-11.5585
▁причес	-11.559
▁FIFA	-11.5722
▁adidas	-11.5722
▁алонсо	-11.5722
▁величайший	-11.5722
▁ветлицкая	-11.5722
▁выезжаю	-11.5722
▁замгубернатора	-11.5722
▁изобрёл	-11.5722
▁имуществен	-11.5722
▁новошешмин	-11.5722
▁отдохнуть	-11.5722
▁прибалтика	-11.5722
▁проигнорировал	-11.5722
▁скважина	-11.5722
▁скорректировал	-11.5722
▁спортплощадка	-11.5722
▁фотовыставка	-11.5722
▁фотогалерея	-11.5722
▁электростанция	-11.5722
печатал	-11.5723
▁камбэк	-11.5723
▁квантовый	-11.5723
▁кнопка	-11.5723
▁ветхий	-11.5723
▁обострение	-11.5723
▁приношу	-11.5723
▁изделие	-11.5723
▁диаметр	-11.5723
▁драфт	-11.5723
▁европеец	-11.5723
▁заболеть	-11.5723
▁чикаго	-11.5723
▁беспредел	-11.5723
▁обочина	-11.5723
▁тупик	-11.5723
▁канализацион	-11.5723
▁греф	-11.5723
▁аркади	-11.5723
▁комментирова	-11.5724
▁возмести	-11.5725
▁превзо	-11.5727
▁запланирова	-11.5802
▁скрыв	-11.5822
▁MMA	-11.5865
▁studio	-11.5865
▁бриллиант	-11.5865
▁глобус	-11.5865
▁грандиоз	-11.5865
▁дефолт	-11.5865
▁карагандин	-11.5865
▁клинцевич	-11.5865
▁комментатор	-11.5865
▁линдеманн	-11.5865
▁недовольный	-11.5865
▁никитюк	-11.5865
▁оружейный	-11.5865
▁оставляю	-11.5865
▁парализую	-11.5865
▁пирамида	-11.5865
▁распространил	-11.5865
▁стабилен	-11.5865
▁татнефть	-11.5865
▁фламенго	-11.5865
▁фристайл	-11.5865
▁евсей	-11.5865
▁красносельский	-11.5865
▁светильник	-11.5865
энергосбыт	-11.5865
▁глубина	-11.5865
▁госслужба	-11.5865
▁разозлил	-11.5865
▁истерика	-11.5866
▁медикамент	-11.5866
▁сенсацион	-11.5866
▁левада	-11.5866
▁next	-11.5866
▁симфони	-11.5867
чищаю	-11.5868
▁продвига	-11.5873
▁аналити	-11.5989
огласил	-11.601
▁geely	-11.601
▁ghost	-11.601
▁lamborghini	-11.601
▁redemption	-11.601
▁velvet	-11.601
▁алматинец	-11.601
▁амбулатор	-11.601
▁видеосвязи	-11.601
▁госсекретарь	-11.601
▁замначальник	-11.601
▁красноярец	-11.601
▁летучий	-11.601
▁луческу	-11.601
▁молодёжь	-11.601
▁наркодиспансер	-11.601
▁насекомое	-11.601
▁оранжевый	-11.601
▁противовирусный	-11.601
▁удовольствие	-11.601
▁укрзализныци	-11.601
▁хрустальный	-11.601
▁экспонат	-11.601
▁cup	-11.601
▁жигули	-11.601
▁мошенница	-11.601
▁трубопровод	-11.601
▁янтарь	-11.601
▁воркутин	-11.601
▁загадка	-11.601
▁косметолог	-11.601
▁ягудин	-11.601
▁переворот	-11.601
▁лацио	-11.601
▁рублёв	-11.601
▁постановка	-11.601
▁кержак	-11.601
▁буллит	-11.601
▁проехать	-11.601
▁вынуди	-11.6011
▁post	-11.6013
▁пыль	-11.6013
▁капитальн	-11.6016
▁проживаю	-11.6019
динамо	-11.6052
клонение	-11.6095
▁обратил	-11.6136
▁символиче	-11.6138
▁дождлив	-11.6145
▁флори	-11.6152
▁вымогатель	-11.6153
▁закарпат	-11.6155
▁кинематограф	-11.6157
▁определяю	-11.6157
гвардейский	-11.6157
прикосновенность	-11.6157
▁blizzard	-11.6157
▁engine	-11.6157
▁lenovo	-11.6157
▁maruv	-11.6157
▁АМКУ	-11.6157
▁бэнкси	-11.6157
▁география	-11.6157
▁гризманн	-11.6157
▁декольте	-11.6157
▁дифтерия	-11.6157
▁дыхание	-11.6157
▁ежегоден	-11.6157
▁кизляр	-11.6157
▁конькобеж	-11.6157
▁курильщик	-11.6157
▁локализую	-11.6157
▁недалёк	-11.6157
▁незнакомец	-11.6157
▁петрозаводчанин	-11.6157
▁поверхность	-11.6157
▁полсотни	-11.6157
▁потасовка	-11.6157
▁предпенсион	-11.6157
▁пригласить	-11.6157
▁противостоять	-11.6157
▁соломина	-11.6157
▁соцопрос	-11.6157
▁суверенитет	-11.6157
▁терапия	-11.6157
▁треугольник	-11.6157
▁увольняю	-11.6157
▁фиксация	-11.6157
▁черкесия	-11.6157
▁эдуард	-11.6157
press	-11.6157
▁дрифт	-11.6157
▁кофейня	-11.6157
▁собачий	-11.6157
▁ссылка	-11.6157
▁коноплянка	-11.6157
▁выдержал	-11.6157
▁операционный	-11.6157
рефинансирование	-11.6157
▁регби	-11.6157
▁гитара	-11.6157
▁пивной	-11.6158
▁отравивший	-11.6158
▁утрата	-11.6158
▁гибну	-11.6158
думываю	-11.616
сыпаю	-11.6172
писанный	-11.6252
кусил	-11.6292
▁разрушаю	-11.6293
▁нужда	-11.6303
индустри	-11.6306
deutsche	-11.6307
нарколабораторию	-11.6307
▁fortnite	-11.6307
▁street	-11.6307
▁БАТЭ	-11.6307
▁БКАД	-11.6307
▁ВАКС	-11.6307
▁ОРЛО	-11.6307
▁абитуриент	-11.6307
▁видеокамера	-11.6307
▁возмущен	-11.6307
▁высотка	-11.6307
▁дисквалифицир	-11.6307
▁замдиректор	-11.6307
▁калькулятор	-11.6307
▁каталония	-11.6307
▁компромат	-11.6307
▁медвежонок	-11.6307
▁обсервацию	-11.6307
▁петергоф	-11.6307
▁родригес	-11.6307
▁сертификация	-11.6307
▁уэльс	-11.6307
▁уязвимый	-11.6307
▁цифровизаци	-11.6307
▁инновация	-11.6307
▁металлолом	-11.6307
▁пакистан	-11.6307
отрасли	-11.6307
▁poco	-11.6307
▁дискредит	-11.6307
▁номинация	-11.6307
▁опережаю	-11.6307
▁пользование	-11.6307
▁слияние	-11.6307
▁evil	-11.6307
▁взрывчатка	-11.6307
▁соловее	-11.6307
▁юниор	-11.6307
▁дибала	-11.6307
▁туркмен	-11.6307
▁пламя	-11.6307
▁бронзовый	-11.6307
▁мощь	-11.6307
▁неудача	-11.6307
▁нетизен	-11.6307
ооборот	-11.6329
водоканал	-11.633
говорить	-11.636
тронул	-11.6373
▁парикмахер	-11.6413
▁самоизолирова	-11.6417
▁mustang	-11.6458
▁tiffany	-11.6458
▁батарейка	-11.6458
▁всеволожск	-11.6458
▁гиперзвук	-11.6458
▁депортация	-11.6458
▁калмыкия	-11.6458
▁недовольство	-11.6458
▁обогащение	-11.6458
▁похмелие	-11.6458
▁реагирую	-11.6458
▁ритейлер	-11.6458
▁служить	-11.6458
▁сопротивление	-11.6458
▁стокгольм	-11.6458
▁труженик	-11.6458
▁художница	-11.6458
▁цзиньпин	-11.6458
▁прикрыл	-11.6458
▁рафаил	-11.6458
▁ремастер	-11.6458
▁электробус	-11.6458
▁осторожен	-11.6458
▁героический	-11.6458
▁реалити	-11.6458
park	-11.6459
▁произвол	-11.6461
▁ученым	-11.6468
▁латви	-11.6593
▁участи	-11.6593
▁абрам	-11.6611
антиколомойского	-11.6612
▁warfare	-11.6612
▁аэроэкспресс	-11.6612
▁билборд	-11.6612
▁браузер	-11.6612
▁встречный	-11.6612
▁госкомпания	-11.6612
▁двукратн	-11.6612
▁император	-11.6612
▁оснастил	-11.6612
▁пожароопасный	-11.6612
▁прошивка	-11.6612
▁разграничение	-11.6612
▁ратаковски	-11.6612
▁розыгрыш	-11.6612
▁соотечественник	-11.6612
▁устранение	-11.6612
▁интрига	-11.6612
▁мороженый	-11.6612
▁останавливаю	-11.6612
▁сокращать	-11.6612
▁сырьё	-11.6612
▁доказать	-11.6612
▁ревнив	-11.6612
▁кокляев	-11.6612
▁купчино	-11.6612
▁индустриальный	-11.6612
▁лопата	-11.6612
▁яковлев	-11.6612
креплять	-11.6612
▁бушую	-11.6612
работница	-11.6612
▁рольф	-11.6612
▁доигровк	-11.6612
▁юношес	-11.6613
▁пепел	-11.6613
победы	-11.662
воевать	-11.6632
карантин	-11.664
▁обнинск	-11.675
примечательность	-11.6768
▁fitch	-11.6768
▁overwatch	-11.6768
▁sampp	-11.6768
▁ТГУ	-11.6768
▁антимонополь	-11.6768
▁белокаменке	-11.6768
▁вильнюс	-11.6768
▁доставляю	-11.6768
▁канделаки	-11.6768
▁нарушать	-11.6768
▁невероятен	-11.6768
▁овертайм	-11.6768
▁оппонент	-11.6768
▁отомстил	-11.6768
▁переименовал	-11.6768
▁помешать	-11.6768
▁радоницу	-11.6768
▁санитайзер	-11.6768
▁себастьян	-11.6768
▁севилья	-11.6768
▁тяжкий	-11.6768
▁увольнять	-11.6768
▁шугалея	-11.6768
▁отличить	-11.6768
▁поздно	-11.6768
▁стерлинг	-11.6768
▁торжество	-11.6768
▁хомчак	-11.6768
конфуз	-11.6768
числять	-11.6768
▁вылечить	-11.6768
▁горбачев	-11.6768
▁даниэл	-11.6768
▁превосхо	-11.6768
▁сценарист	-11.6768
▁тормоз	-11.6768
▁автодилер	-11.6768
▁марсиан	-11.6768
▁закладчик	-11.6768
ветствую	-11.6782
стандарт	-11.6799
▁обзав	-11.6853
гидромет	-11.6863
▁внезап	-11.6909
▁уничтожен	-11.6921
истемообразующим	-11.6927
▁airbus	-11.6927
▁digital	-11.6927
▁magic	-11.6927
▁mastercard	-11.6927
▁СВАО	-11.6927
▁ЦРУ	-11.6927
▁авиакатастрофа	-11.6927
▁аттестация	-11.6927
▁бродяч	-11.6927
▁видеообращение	-11.6927
▁выработок	-11.6927
▁гранатомет	-11.6927
▁диссидент	-11.6927
▁капитуляция	-11.6927
▁континент	-11.6927
▁лоукостер	-11.6927
▁менеджмент	-11.6927
▁мясной	-11.6927
▁ограничивать	-11.6927
▁оздоровительный	-11.6927
▁перезапуск	-11.6927
▁позволить	-11.6927
▁препятствие	-11.6927
▁промоутер	-11.6927
▁развлекательный	-11.6927
▁скамейка	-11.6927
▁телеведущий	-11.6927
▁холифилд	-11.6927
▁nord	-11.6927
▁СНТ	-11.6927
▁заблуди	-11.6927
▁козерог	-11.6927
▁лобановский	-11.6927
▁премиальный	-11.6927
▁селезнев	-11.6927
▁эмират	-11.6927
▁унизил	-11.6927
▁черышев	-11.6927
▁беспроцент	-11.6927
▁краеведче	-11.6927
▁левандовски	-11.6927
▁сириец	-11.6927
▁смелый	-11.6927
▁калибр	-11.6927
▁каравай	-11.6927
▁совесть	-11.6927
▁доиграл	-11.6927
▁привык	-11.6927
▁сторож	-11.6928
▁грудн	-11.6954
▁диагност	-11.6969
▁фармацевт	-11.7088
▁mclaren	-11.7088
▁vuitton	-11.7088
▁ВКО	-11.7088
▁ОМОН	-11.7088
▁абдулманап	-11.7088
▁аттракцион	-11.7088
▁бесполезный	-11.7088
▁бондаренко	-11.7088
▁герцеговина	-11.7088
▁госпереворот	-11.7088
▁госэкзамен	-11.7088
▁двадцать	-11.7088
▁девелопер	-11.7088
▁дистанцирова	-11.7088
▁запомнился	-11.7088
▁испанец	-11.7088
▁кондиционер	-11.7088
▁корректировка	-11.7088
▁леопард	-11.7088
▁молодёжный	-11.7088
▁онкоцентр	-11.7088
▁переоборудова	-11.7088
▁прилепин	-11.7088
▁субсидирован	-11.7088
▁эндрю	-11.7088
▁gear	-11.7088
▁крейсер	-11.7088
▁пермяк	-11.7088
▁поэтапен	-11.7088
▁ледокол	-11.7088
▁нововведение	-11.7088
▁суарес	-11.7088
space	-11.7088
▁нетипич	-11.7088
▁павлово	-11.7088
▁варлам	-11.7088
▁выделяю	-11.7088
▁лечащий	-11.7088
▁слушаю	-11.7089
▁воскресенск	-11.7163
поминание	-11.7227
▁рождественск	-11.7243
▁атырау	-11.7252
▁философ	-11.7252
▁american	-11.7252
▁baltic	-11.7252
▁playboy	-11.7252
▁vogue	-11.7252
▁ФМБА	-11.7252
▁величие	-11.7252
▁видеозапись	-11.7252
▁возобновлять	-11.7252
▁вологодчины	-11.7252
▁железногорск	-11.7252
▁кемеровчанин	-11.7252
▁концентрация	-11.7252
▁копенгаген	-11.7252
▁лёгкое	-11.7252
▁модернизирован	-11.7252
▁налогообложение	-11.7252
▁ожирение	-11.7252
▁оценивать	-11.7252
▁прошлогодний	-11.7252
▁разглашение	-11.7252
▁рябошапки	-11.7252
▁стройплощадка	-11.7252
▁фургон	-11.7252
▁казанская	-11.7252
▁премиум	-11.7252
▁раздражаю	-11.7252
▁сафрон	-11.7252
русскоязычн	-11.7252
▁виллиан	-11.7252
▁портфель	-11.7252
▁тускну	-11.7252
▁очистный	-11.7252
▁аптеч	-11.7252
▁перемирие	-11.7252
▁деппа	-11.7252
▁фонарик	-11.7252
▁рассмеши	-11.7252
сквозь	-11.7252
▁подчеркну	-11.7253
странён	-11.7253
▁белогорск	-11.7259
допустимый	-11.727
оточив	-11.7276
анатолий	-11.7278
ообщать	-11.7311
▁обеспечиваю	-11.7319
▁аспирант	-11.7392
▁участвова	-11.7407
зарегистрировать	-11.7419
▁starship	-11.7419
▁ЕВРО	-11.7419
▁МРОТ	-11.7419
▁УДО	-11.7419
▁агрессор	-11.7419
▁академический	-11.7419
▁вентиляция	-11.7419
▁вознаграждение	-11.7419
▁волочковой	-11.7419
▁дмитриев	-11.7419
▁изолирую	-11.7419
▁компенсировать	-11.7419
▁красноармеец	-11.7419
▁кронштадт	-11.7419
▁москальков	-11.7419
▁напрямую	-11.7419
▁недоношенный	-11.7419
▁одноклубник	-11.7419
▁оптимальный	-11.7419
▁позвоночник	-11.7419
▁приднестровье	-11.7419
▁проститутка	-11.7419
▁психоневрологи	-11.7419
▁регоператор	-11.7419
▁роскошь	-11.7419
▁терапевт	-11.7419
▁тинькофф	-11.7419
▁уведомление	-11.7419
▁хасавюрт	-11.7419
▁южнокорейск	-11.7419
▁гаврил	-11.7419
▁зерновые	-11.7419
▁нелепый	-11.7419
▁подержанный	-11.7419
▁посещаю	-11.7419
▁протекаю	-11.7419
▁съемочн	-11.7419
▁азмун	-11.7419
▁колбаса	-11.7419
▁молотов	-11.7419
▁семейство	-11.7419
▁эрнст	-11.7419
▁хитрый	-11.7419
▁гаджиев	-11.7419
▁коболев	-11.7419
▁энергоатом	-11.7419
▁сомнител	-11.7423
▁предсказыва	-11.7433
казываюсь	-11.7434
больничный	-11.746
налогоплательщик	-11.7588
совершеннолетнее	-11.7588
▁guardian	-11.7588
▁mobile	-11.7588
▁octavia	-11.7588
▁МЭР	-11.7588
▁автотранспорт	-11.7588
▁гепатит	-11.7588
▁диверсант	-11.7588
▁добровольный	-11.7588
▁загороднюк	-11.7588
▁инклюзив	-11.7588
▁иртыш	-11.7588
▁итальянец	-11.7588
▁коалиция	-11.7588
▁медоборудование	-11.7588
▁минивэн	-11.7588
▁недостоверный	-11.7588
▁обсервации	-11.7588
▁обустроил	-11.7588
▁партийный	-11.7588
▁предостережение	-11.7588
▁принадлежу	-11.7588
▁разрушитель	-11.7588
▁рассылка	-11.7588
▁шляхтин	-11.7588
антикоронавирусн	-11.7588
▁кафельников	-11.7588
▁рассрочка	-11.7588
▁спойлер	-11.7588
▁харламов	-11.7588
▁генетика	-11.7588
▁трёх	-11.7588
▁самонкин	-11.7588
▁акциз	-11.7588
▁смоленщин	-11.7588
▁кавани	-11.7588
▁развенча	-11.7589
▁пластиче	-11.759
▁скандинав	-11.7761
▁comedy	-11.7761
▁entertainment	-11.7761
▁resident	-11.7761
▁ryanair	-11.7761
▁амстердам	-11.7761
▁аризона	-11.7761
▁восьмеро	-11.7761
▁дальнобойщик	-11.7761
▁заполярный	-11.7761
▁запчасть	-11.7761
▁ирландия	-11.7761
▁кондуктор	-11.7761
▁мосбиржа	-11.7761
▁нотариус	-11.7761
▁педиатр	-11.7761
▁перекрёсток	-11.7761
▁прохладный	-11.7761
▁тяжесть	-11.7761
▁цивилев	-11.7761
▁эмбарго	-11.7761
▁энрике	-11.7761
▁биография	-11.7761
▁буславец	-11.7761
▁жомарт	-11.7761
▁кубометр	-11.7761
▁саженец	-11.7761
▁стриптиз	-11.7761
▁кристиан	-11.7761
▁пискаревск	-11.7761
▁провокацион	-11.7761
▁решетник	-11.7761
▁выдвижение	-11.7761
▁пройден	-11.7761
▁каролина	-11.7761
▁накопитель	-11.7761
▁комиссар	-11.7761
▁вмешива	-11.7762
▁полагаю	-11.7779
▁расплати	-11.7806
производитель	-11.7808
▁включен	-11.793
малообеспеченный	-11.7936
▁ESPN	-11.7936
▁airbnb	-11.7936
▁capital	-11.7936
▁class	-11.7936
▁interest	-11.7936
▁origin	-11.7936
▁ДОМРФ	-11.7936
▁НАПК	-11.7936
▁НАСА	-11.7936
▁ТПУ	-11.7936
▁аргумент	-11.7936
▁арнольд	-11.7936
▁богослужение	-11.7936
▁грабёж	-11.7936
▁евробондов	-11.7936
▁заслуживаю	-11.7936
.	-13.0869
