<unk>	0
<s>	0
</s>	0
▁to	-3.67798
▁in	-3.98917
▁a	-4.21381
▁the	-4.24798
▁of	-4.30288
▁for	-4.40224
▁be	-4.56489
▁on	-4.73928
▁and	-4.78001
▁s	-4.89137
▁	-5.05394
▁with	-5.18021
s	-5.34951
▁19	-5.39064
▁covid	-5.39693
▁at	-5.45
▁new	-5.45282
▁coronavirus	-5.50399
▁from	-5.57162
▁after	-5.59606
▁say	-5.61449
e	-5.79238
▁it	-5.80761
▁by	-5.91848
▁over	-5.94422
▁will	-5.98846
▁much	-5.99523
y	-5.99666
▁can	-6.01271
er	-6.04913
▁up	-6.10953
▁lockdown	-6.23298
▁man	-6.2377
▁how	-6.23921
ly	-6.2636
m	-6.28679
▁may	-6.3029
▁US	-6.30519
▁2020	-6.31446
▁ha	-6.34134
▁year	-6.35957
n	-6.36614
▁trump	-6.37285
▁out	-6.38484
a	-6.39692
▁not	-6.41092
▁you	-6.42454
▁business	-6.42488
▁make	-6.42545
▁have	-6.42636
▁day	-6.42643
▁thi	-6.43179
t	-6.44453
▁hi	-6.45718
▁get	-6.47811
▁t	-6.49461
▁report	-6.52333
▁home	-6.52369
▁star	-6.52947
r	-6.53058
▁u	-6.54118
▁i	-6.5688
▁no	-6.57883
▁that	-6.58277
▁well	-6.59371
▁call	-6.60268
▁go	-6.61217
▁first	-6.6277
▁back	-6.62865
i	-6.63875
▁he	-6.64325
▁2	-6.64907
▁death	-6.65319
k	-6.67279
▁about	-6.67663
▁time	-6.68466
o	-6.70919
▁an	-6.71093
▁china	-6.73373
▁re	-6.74254
▁your	-6.74327
▁india	-6.74414
▁wa	-6.74811
d	-6.75031
▁all	-6.75326
▁plan	-6.76489
▁who	-6.77098
g	-6.77286
▁what	-6.77715
▁3	-6.78531
▁show	-6.79257
▁video	-6.79655
▁amp	-6.79793
▁state	-6.8062
▁cas	-6.80964
▁return	-6.81352
▁police	-6.8176
▁her	-6.82195
▁insider	-6.82798
▁but	-6.83381
▁pandemic	-6.84363
al	-6.85042
▁world	-6.85225
▁during	-6.86365
▁now	-6.86767
▁game	-6.86799
▁take	-6.87206
▁against	-6.87297
▁do	-6.87738
▁off	-6.88298
▁v	-6.88681
▁one	-6.89441
▁win	-6.90499
▁test	-6.90725
▁5	-6.91337
b	-6.93806
▁1	-6.94445
▁week	-6.94466
▁10	-6.94844
▁work	-6.94944
▁open	-6.95637
▁top	-6.96842
1	-6.98139
▁launch	-6.98627
▁help	-6.98733
▁we	-6.98892
▁into	-6.99571
▁deal	-6.99673
▁amid	-7.00266
th	-7.0086
▁why	-7.01365
▁two	-7.0162
▁reveal	-7.01672
▁high	-7.01677
▁woman	-7.02019
▁people	-7.04192
c	-7.05037
▁face	-7.05629
▁r	-7.05653
▁kill	-7.06802
▁hit	-7.06858
▁house	-7.07349
▁watch	-7.08174
▁d	-7.08498
l	-7.08816
▁need	-7.09329
▁worker	-7.10282
▁use	-7.10868
▁find	-7.10982
▁set	-7.11219
▁4	-7.11303
▁million	-7.11727
▁virus	-7.12342
▁court	-7.12382
le	-7.12533
▁q	-7.13191
▁down	-7.13338
▁UK	-7.13693
▁2019	-7.15242
▁look	-7.15374
▁want	-7.15449
▁reopen	-7.15547
▁dy	-7.15625
▁their	-7.15717
▁give	-7.16292
▁see	-7.16394
▁release	-7.16579
▁than	-7.16635
▁share	-7.16884
▁big	-7.17999
▁city	-7.18751
▁health	-7.19311
▁car	-7.19377
ing	-7.19518
▁life	-7.20595
▁end	-7.21097
▁government	-7.2127
▁result	-7.21435
▁come	-7.21592
▁price	-7.2175
▁season	-7.24555
▁fight	-7.25208
▁late	-7.25909
▁fan	-7.26286
in	-7.26496
▁bank	-7.26829
▁govt	-7.2749
st	-7.27792
▁next	-7.28595
an	-7.29027
▁play	-7.29125
▁free	-7.29163
▁league	-7.29966
▁start	-7.30242
▁sale	-7.31353
A	-7.31432
▁record	-7.31845
▁update	-7.32172
▁claim	-7.32379
re	-7.32384
▁announce	-7.33131
▁singapore	-7.33387
▁team	-7.33522
▁school	-7.33747
▁arrest	-7.33927
▁old	-7.34612
▁pay	-7.34857
▁if	-7.35001
▁stock	-7.35418
▁official	-7.35797
▁black	-7.36155
C	-7.36562
▁under	-7.3666
on	-7.36849
▁fire	-7.36908
▁market	-7.37124
ed	-7.37148
▁news	-7.38072
▁un	-7.38511
or	-7.38529
▁or	-7.39827
▁break	-7.40023
▁e	-7.40467
▁so	-7.41094
▁post	-7.41425
▁meet	-7.41559
▁player	-7.42349
▁like	-7.43085
▁pro	-7.43499
▁support	-7.4367
▁earning	-7.43707
▁hold	-7.44039
▁live	-7.44368
▁child	-7.44403
”	-7.45177
▁google	-7.45503
▁“	-7.45903
▁co	-7.45909
▁minister	-7.46162
▁close	-7.46372
▁just	-7.46888
▁talk	-7.47726
▁chief	-7.47966
▁trade	-7.48244
▁shall	-7.48375
▁case	-7.48407
▁attack	-7.48493
▁month	-7.48779
▁rule	-7.48884
▁war	-7.48886
▁order	-7.48894
▁—	-7.48993
▁CEO	-7.50294
▁fall	-7.50334
▁charge	-7.50389
▁she	-7.50459
p	-7.50495
▁20	-7.5093
▁former	-7.50956
▁apple	-7.51128
▁when	-7.51456
▁offer	-7.5196
u	-7.52028
▁move	-7.52079
▁other	-7.52252
▁PM	-7.52782
▁hospital	-7.52827
▁cut	-7.53202
▁train	-7.53447
▁my	-7.53649
▁they	-7.53684
▁kNOw	-7.54116
▁leave	-7.54142
▁three	-7.54244
▁family	-7.54269
▁south	-7.54825
▁service	-7.55167
2	-7.55233
z	-7.55754
▁tell	-7.56108
▁n	-7.56147
▁unite	-7.5625
▁dead	-7.56584
h	-7.57407
el	-7.57833
▁president	-7.58138
▁election	-7.58311
▁near	-7.58369
▁review	-7.58469
na	-7.58637
▁still	-7.5903
w	-7.59083
▁me	-7.59117
▁online	-7.59119
▁right	-7.59238
▁crisis	-7.59481
▁shoot	-7.59989
▁m	-7.60179
▁ex	-7.60307
▁way	-7.61479
▁positive	-7.61656
▁app	-7.61827
man	-7.62114
▁fund	-7.62378
▁de	-7.62589
en	-7.63429
▁before	-7.64104
▁social	-7.64394
▁buy	-7.64554
▁group	-7.64566
▁run	-7.64616
▁rise	-7.64701
▁some	-7.64946
▁today	-7.64985
4	-7.65123
f	-7.65247
▁here	-7.65537
▁student	-7.66152
▁la	-7.66263
▁issue	-7.66612
▁12	-7.66678
▁keep	-7.66774
▁ahead	-7.6689
▁change	-7.66907
▁k	-7.67008
▁turn	-7.67287
▁force	-7.67381
▁7	-7.67829
▁company	-7.67949
▁long	-7.68096
▁serie	-7.68099
▁due	-7.68275
▁air	-7.68327
▁low	-7.686
▁migrant	-7.68625
▁job	-7.68898
L	-7.69076
▁TV	-7.70042
ion	-7.70071
▁last	-7.7081
ri	-7.7089
il	-7.70992
▁indian	-7.71121
I	-7.71359
us	-7.71399
▁11	-7.71452
▁drop	-7.71715
▁seek	-7.72461
P	-7.72753
ne	-7.72765
▁photo	-7.72833
▁public	-7.73176
▁warn	-7.73333
▁inc	-7.73559
ro	-7.73727
▁lead	-7.74287
R	-7.7433
▁ask	-7.74815
▁sell	-7.75198
▁him	-7.75323
ra	-7.7578
▁football	-7.75883
▁good	-7.76285
▁white	-7.76424
▁stay	-7.77228
▁second	-7.7733
▁hong	-7.77435
▁f	-7.77558
▁kong	-7.77827
▁ease	-7.77845
▁patient	-7.77975
▁mask	-7.7838
▁leader	-7.78439
▁6	-7.78604
▁8	-7.78792
▁power	-7.78909
▁protest	-7.7901
▁name	-7.79064
O	-7.79132
▁ke	-7.79137
▁risk	-7.79384
3	-7.79482
▁teste	-7.79875
▁future	-7.80166
▁global	-7.81105
▁west	-7.814
▁stop	-7.81483
B	-7.81599
▁urge	-7.8161
se	-7.8231
▁ga	-7.83641
▁food	-7.83749
▁target	-7.83939
▁cup	-7.84261
M	-7.84616
▁love	-7.84839
▁15	-7.84862
▁bill	-7.84969
▁national	-7.85133
▁ban	-7.85369
espite	-7.85392
la	-7.85939
▁datum	-7.85951
▁friday	-7.86021
▁premier	-7.86339
▁sign	-7.8674
▁again	-7.86867
▁medium	-7.86903
▁build	-7.86982
▁real	-7.87214
▁head	-7.87407
▁centre	-7.87454
▁nation	-7.87582
▁quarantine	-7.87682
▁g	-7.87958
T	-7.88078
▁american	-7.8818
▁billion	-7.88495
ie	-7.88715
▁oil	-7.8873
▁sport	-7.88843
▁economy	-7.88901
▁o	-7.8904
it	-7.89268
▁beat	-7.89273
▁rate	-7.89286
te	-7.89433
▁country	-7.89559
ation	-7.89604
de	-7.89775
▁far	-7.89896
▁race	-7.89947
x	-7.90343
D	-7.90949
▁five	-7.90983
▁demand	-7.91471
ar	-7.91748
▁amazon	-7.91763
▁street	-7.9224
▁mis	-7.92423
▁great	-7.92576
▁impeachment	-7.92765
▁transfer	-7.92914
▁club	-7.92953
F	-7.93194
▁extend	-7.9329
ta	-7.93309
▁key	-7.93431
▁drive	-7.9355
▁another	-7.9363
ic	-7.93654
▁hope	-7.93975
▁care	-7.94009
ma	-7.94204
▁through	-7.94237
▁transcript	-7.94313
N	-7.94415
▁final	-7.945
▁expect	-7.94696
▁lose	-7.94893
▁begin	-7.94972
▁special	-7.95003
▁johnson	-7.95101
▁drug	-7.95274
▁hand	-7.96006
▁security	-7.96034
▁mother	-7.96163
▁le	-7.96223
▁date	-7.96264
▁fear	-7.96301
▁study	-7.96595
▁follow	-7.96754
▁loss	-7.96782
nd	-7.96915
▁road	-7.97219
▁our	-7.97439
▁allow	-7.975
▁crash	-7.97687
▁delhi	-7.97724
▁save	-7.98382
▁13	-7.98571
ch	-7.98599
E	-7.98622
▁30	-7.98945
▁mark	-7.98971
ve	-7.99447
▁per	-7.99691
▁challenge	-7.99697
▁early	-7.99699
▁award	-8.00069
▁accuse	-8.00214
▁battle	-8.00236
▁must	-8.00422
▁murder	-8.0048
▁liverpool	-8.00601
▁four	-8.00655
▁only	-8.00809
ia	-8.00863
▁join	-8.00888
▁while	-8.0162
▁p	-8.01842
▁part	-8.02006
▁wrong	-8.0203
▁project	-8.02031
▁australia	-8.02064
▁store	-8.02162
es	-8.02343
▁money	-8.02418
able	-8.02479
▁biden	-8.02561
▁send	-8.0269
son	-8.0361
▁become	-8.03747
▁nigeria	-8.04317
▁step	-8.04335
id	-8.04502
ur	-8.05095
▁party	-8.05107
▁shop	-8.05326
▁allege	-8.05464
▁boss	-8.05516
▁continue	-8.05636
▁film	-8.05722
▁north	-8.06163
▁son	-8.06337
▁b	-8.06726
▁firm	-8.07008
5	-8.07188
▁probe	-8.07867
▁baby	-8.08037
▁line	-8.08109
▁doctor	-8.08234
▁9	-8.08487
▁even	-8.08524
▁chinese	-8.08752
ul	-8.08768
▁office	-8.08797
▁expert	-8.09282
▁x	-8.09297
▁park	-8.09593
ton	-8.09727
▁travel	-8.1028
▁resume	-8.10304
▁york	-8.10306
▁think	-8.10495
ll	-8.10614
sh	-8.10713
v	-8.10788
▁less	-8.11075
▁remain	-8.11157
▁water	-8.11381
ry	-8.11422
com	-8.11847
▁c	-8.11855
▁industry	-8.11972
ti	-8.12231
▁link	-8.12304
▁vote	-8.12375
▁economic	-8.12382
▁law	-8.12489
▁eye	-8.13041
li	-8.13128
▁anti	-8.13283
▁green	-8.13575
▁boost	-8.13603
▁movie	-8.13621
▁point	-8.1366
▁im	-8.1375
▁music	-8.1406
▁without	-8.14374
▁w	-8.14424
lo	-8.14516
▁facebook	-8.14706
▁14	-8.1483
▁check	-8.14841
▁ready	-8.14911
▁boy	-8.14971
▁away	-8.1504
▁story	-8.1507
▁toll	-8.15101
G	-8.15465
ist	-8.15738
▁question	-8.15869
U	-8.15953
▁super	-8.16004
▁cr	-8.16237
▁tech	-8.16247
▁put	-8.16291
ck	-8.16455
▁manchester	-8.16527
▁night	-8.16569
▁increase	-8.16575
▁these	-8.1723
▁khan	-8.17245
▁let	-8.17284
ment	-8.17481
co	-8.17496
▁england	-8.17579
▁body	-8.17689
▁cancel	-8.17724
▁don	-8.1779
▁16	-8.17844
▁staff	-8.17876
to	-8.17943
▁bar	-8.18197
▁cost	-8.18327
▁trial	-8.18932
▁israel	-8.18934
▁system	-8.18983
▁pre	-8.19159
▁feature	-8.19277
▁russia	-8.19449
ge	-8.19491
▁april	-8.19521
▁mo	-8.19786
▁book	-8.19794
▁hour	-8.19812
▁ad	-8.19832
▁own	-8.20015
▁campaign	-8.20456
▁push	-8.20467
▁joe	-8.20477
▁kid	-8.20565
▁california	-8.20605
▁girl	-8.20851
▁microsoft	-8.20853
▁rais	-8.21087
▁concern	-8.21101
ish	-8.21181
▁na	-8.212
▁list	-8.214
▁br	-8.2142
20	-8.21474
▁ever	-8.21489
▁major	-8.21826
▁vaccine	-8.21851
▁pakistan	-8.22021
▁strike	-8.2221
▁flight	-8.22215
▁june	-8.22347
▁iran	-8.22381
▁michael	-8.22505
▁UFC	-8.2291
▁100	-8.22954
▁distance	-8.23011
▁korea	-8.23093
S	-8.23312
▁twitter	-8.23571
▁profit	-8.243
▁action	-8.24368
▁bas	-8.24677
▁confirm	-8.24782
▁delay	-8.25069
sa	-8.25103
▁sh	-8.25198
▁driver	-8.25471
▁arsenal	-8.25484
▁dream	-8.2553
at	-8.25634
▁reach	-8.25822
▁impact	-8.25842
▁heres	-8.26132
ers	-8.26277
▁soon	-8.26303
less	-8.264
▁thing	-8.265
go	-8.26502
▁john	-8.26531
▁feel	-8.26682
▁behind	-8.26734
da	-8.26797
▁young	-8.26798
▁phone	-8.26929
▁member	-8.26937
▁honolulu	-8.26997
▁coach	-8.27013
▁hear	-8.2716
▁level	-8.27209
▁virtual	-8.27283
▁light	-8.27283
▁place	-8.27372
▁try	-8.27387
▁japan	-8.27419
▁too	-8.27552
▁decision	-8.27633
▁disney	-8.27673
▁receive	-8.27899
ity	-8.27943
▁st	-8.27999
▁cal	-8.281
▁six	-8.2811
ir	-8.2812
▁mar	-8.28131
9	-8.28185
▁explain	-8.28595
et	-8.28641
▁advertiser	-8.28663
▁50	-8.2869
▁restriction	-8.28868
▁ka	-8.28963
di	-8.28998
▁create	-8.29025
▁picture	-8.29079
▁inside	-8.29154
▁contract	-8.29181
▁learn	-8.29565
▁likely	-8.29748
ha	-8.2975
▁bring	-8.29816
▁suspect	-8.29836
▁stream	-8.29877
▁25	-8.29937
▁h	-8.30213
▁daily	-8.30272
is	-8.30504
▁international	-8.30655
▁employee	-8.30711
▁fe	-8.30892
X	-8.31132
▁where	-8.31149
▁bad	-8.3116
ce	-8.31254
ba	-8.31292
am	-8.31443
um	-8.31539
▁include	-8.3159
▁full	-8.31625
me	-8.31634
▁al	-8.31652
▁17	-8.3191
▁heart	-8.31918
▁africa	-8.31974
▁restart	-8.31978
▁age	-8.32142
▁officer	-8.3216
▁never	-8.32215
▁canada	-8.32525
▁con	-8.32582
▁gold	-8.32592
▁message	-8.32761
▁crore	-8.32936
▁relief	-8.33151
▁border	-8.33265
ke	-8.33352
▁title	-8.33545
▁card	-8.33562
▁pick	-8.3368
▁event	-8.33822
▁loan	-8.34013
▁community	-8.34622
▁lift	-8.34743
▁since	-8.34794
▁jail	-8.35002
▁track	-8.35669
▁poll	-8.35707
▁outbreak	-8.35782
▁digital	-8.35905
mo	-8.36368
▁wear	-8.36424
▁hard	-8.36645
▁dog	-8.3669
▁celebrate	-8.36754
▁them	-8.36836
▁unveil	-8.37103
▁response	-8.37236
▁saudi	-8.37281
▁spread	-8.37378
▁congress	-8.37631
▁grow	-8.37732
▁local	-8.37753
▁among	-8.37809
▁county	-8.37906
▁governor	-8.37919
▁financial	-8.37925
▁spend	-8.37928
▁november	-8.37984
▁bu	-8.37996
▁appeal	-8.38279
▁there	-8.38329
ine	-8.38582
▁tesla	-8.39229
0000	-8.3924
K	-8.39294
▁resident	-8.3934
▁kapoor	-8.39408
▁visit	-8.39466
▁past	-8.39593
▁match	-8.39645
▁ireland	-8.39708
▁sex	-8.39712
▁plant	-8.39857
▁class	-8.40029
▁nurse	-8.40068
▁christmas	-8.40189
▁wife	-8.40312
▁add	-8.40861
▁tour	-8.41167
▁j	-8.41217
wa	-8.41235
ian	-8.41571
▁gett	-8.41743
▁space	-8.41751
▁host	-8.4176
▁small	-8.41768
▁slam	-8.41789
▁bid	-8.42067
▁detail	-8.42197
ni	-8.42429
▁maharashtra	-8.42443
▁prepare	-8.42505
▁fast	-8.42598
▁fail	-8.42759
un	-8.43036
▁cause	-8.43186
H	-8.43197
▁18	-8.43328
▁around	-8.43372
▁land	-8.43541
▁university	-8.43746
▁24	-8.43865
io	-8.4407
▁aid	-8.44401
▁general	-8.44499
▁modi	-8.44671
▁judge	-8.44813
▁abuse	-8.44843
▁bo	-8.44847
▁emergency	-8.44942
▁40	-8.44998
▁consider	-8.45193
▁ma	-8.45304
land	-8.45331
▁bitcoin	-8.45383
▁kim	-8.4541
▁very	-8.45418
V	-8.45588
▁europe	-8.45644
ak	-8.45827
▁board	-8.45853
▁daughter	-8.45892
do	-8.45971
▁double	-8.46084
▁summer	-8.46277
ive	-8.46523
nt	-8.46573
▁holiday	-8.46596
▁labour	-8.46692
▁samsung	-8.46725
▁package	-8.46925
edly	-8.46941
▁tax	-8.47028
▁EU	-8.47064
ard	-8.47234
▁protester	-8.4725
▁single	-8.47323
▁across	-8.475
▁growth	-8.47535
▁warne	-8.47665
▁america	-8.47698
▁prince	-8.47778
▁admit	-8.4783
▁france	-8.47854
ntil	-8.48132
▁term	-8.48317
▁recovery	-8.48399
▁NFL	-8.48477
▁ja	-8.48646
▁galaxy	-8.48739
▁london	-8.49002
▁song	-8.49006
▁human	-8.49025
ise	-8.49033
▁threaten	-8.49179
▁netflix	-8.492
ah	-8.4922
▁weekend	-8.49571
7	-8.49756
▁medical	-8.4976
▁ra	-8.49796
▁assault	-8.49994
▁chelsea	-8.49994
▁lo	-8.50052
▁victim	-8.50127
▁interest	-8.50132
▁exclusive	-8.5026
ate	-8.50299
▁military	-8.50327
▁arm	-8.50386
▁between	-8.50394
os	-8.50457
▁birthday	-8.50464
▁dr	-8.50856
▁cash	-8.50963
▁stand	-8.5104
▁every	-8.5132
▁third	-8.51526
▁sector	-8.51808
be	-8.51879
▁director	-8.51917
▁2021	-8.51958
▁$1	-8.51982
ka	-8.52211
▁democrat	-8.52225
ley	-8.52248
▁policy	-8.52348
▁large	-8.52416
▁surge	-8.5249
▁half	-8.52508
▁mi	-8.5267
▁user	-8.52684
ant	-8.5287
▁union	-8.52908
▁score	-8.53247
▁supreme	-8.53305
▁capital	-8.53374
▁injury	-8.53374
▁CM	-8.53519
▁art	-8.53519
▁steal	-8.53667
▁germany	-8.5376
mp	-8.53768
▁control	-8.53794
▁injure	-8.53857
▁cop	-8.53915
▁infection	-8.54083
▁short	-8.54183
vi	-8.54208
▁clash	-8.54285
▁town	-8.54386
▁focus	-8.54899
▁scientist	-8.55108
▁z	-8.55122
▁source	-8.55154
▁owner	-8.55155
▁block	-8.55188
▁doe	-8.55272
8	-8.55545
▁spot	-8.55592
▁measure	-8.5581
▁camera	-8.55811
▁role	-8.56048
▁actor	-8.56104
▁deny	-8.56105
▁draw	-8.5624
▁NH	-8.56278
▁android	-8.56376
▁bori	-8.56493
▁champion	-8.56516
▁self	-8.56559
▁gain	-8.56673
▁ukraine	-8.5673
▁friend	-8.56766
6	-8.56858
▁file	-8.56889
▁secret	-8.56929
▁protect	-8.5697
▁model	-8.57004
ty	-8.57088
▁threat	-8.57323
▁climate	-8.57443
▁struggle	-8.57443
▁mobile	-8.57481
▁catch	-8.57572
▁reject	-8.57587
▁british	-8.57667
▁many	-8.57689
▁council	-8.5773
▁east	-8.57734
▁prison	-8.57866
▁worth	-8.57888
▁die	-8.58038
ut	-8.58244
▁leaf	-8.58321
ful	-8.58342
▁operation	-8.58379
▁rock	-8.58432
▁iphone	-8.58478
▁numb	-8.58502
▁history	-8.58813
▁french	-8.5925
▁restaurant	-8.5925
▁political	-8.5949
▁strong	-8.59542
▁investor	-8.59578
▁parent	-8.59696
ho	-8.59921
▁jo	-8.59947
▁brand	-8.59954
▁fresh	-8.5999
▁donald	-8.60055
ot	-8.60058
▁rally	-8.60175
▁su	-8.60218
▁because	-8.60349
▁area	-8.60363
as	-8.60375
▁hotel	-8.60489
▁UN	-8.60572
▁little	-8.60793
ner	-8.60824
va	-8.60838
▁tottenham	-8.61164
▁march	-8.61231
▁dont	-8.61322
▁sea	-8.61553
▁design	-8.61568
▁passe	-8.61654
▁monday	-8.61914
▁tak	-8.61973
▁paul	-8.62017
▁ba	-8.62172
▁safety	-8.62529
▁cover	-8.62572
▁provide	-8.62668
▁james	-8.62748
ca	-8.6275
▁potential	-8.62812
▁happen	-8.62888
▁leak	-8.63054
▁andrew	-8.63126
▁gun	-8.63189
▁island	-8.63344
W	-8.63412
▁treatment	-8.63441
bi	-8.63447
▁mourinho	-8.63876
▁strand	-8.63882
ud	-8.63907
▁safe	-8.64139
▁russian	-8.64144
▁wall	-8.64255
▁sa	-8.64268
▁21	-8.64297
tic	-8.64333
▁musk	-8.64444
▁walk	-8.64465
▁clear	-8.64861
dy	-8.64862
▁account	-8.64873
▁huawei	-8.65105
ee	-8.65357
ness	-8.65384
▁britain	-8.65492
▁research	-8.65725
per	-8.65835
▁approve	-8.66037
▁euro	-8.66102
▁comment	-8.66103
▁private	-8.66271
bo	-8.66301
▁net	-8.66424
▁instagram	-8.66428
▁en	-8.66515
▁investment	-8.66524
▁available	-8.66586
▁deliver	-8.66731
▁barcelona	-8.66899
▁german	-8.67023
▁hero	-8.67045
▁utd	-8.67059
▁note	-8.67124
▁search	-8.67136
▁WHO	-8.67141
▁problem	-8.67215
▁partner	-8.67243
▁supply	-8.67293
▁switch	-8.67452
▁wont	-8.67531
▁ris	-8.67554
▁develop	-8.67586
▁cancer	-8.67653
ent	-8.67682
ous	-8.67688
▁suspend	-8.67689
▁rescue	-8.67848
▁nigerian	-8.67859
▁airline	-8.67885
▁yet	-8.67999
▁david	-8.68137
▁fine	-8.68168
▁window	-8.68171
▁th	-8.68226
▁jump	-8.6834
▁truck	-8.68429
▁reason	-8.68646
▁manager	-8.68719
▁mumbai	-8.68726
▁army	-8.68733
▁energy	-8.68806
▁promise	-8.69047
▁tip	-8.69118
po	-8.69246
▁production	-8.6925
▁fi	-8.69404
▁debut	-8.69455
▁zealand	-8.69693
▁shut	-8.69704
▁reporte	-8.69771
▁interview	-8.69775
▁foreign	-8.69946
▁lakh	-8.69955
▁N	-8.70115
up	-8.70143
▁ko	-8.70173
mi	-8.70476
▁investigation	-8.70587
▁australian	-8.70602
▁ministry	-8.70669
▁blue	-8.70674
▁hot	-8.70702
▁any	-8.70824
▁suffer	-8.70833
▁suggest	-8.70869
j	-8.70894
no	-8.70997
▁huge	-8.71011
▁chang	-8.71074
▁mean	-8.71134
▁finally	-8.71162
▁giant	-8.71332
▁pressure	-8.71419
▁surprise	-8.71819
▁goal	-8.71831
▁ro	-8.71922
▁dance	-8.72006
▁celebrity	-8.72068
▁letter	-8.72111
▁college	-8.72234
▁AI	-8.72235
▁press	-8.72292
▁which	-8.72484
▁fly	-8.72654
ya	-8.72718
han	-8.72818
50	-8.72925
ize	-8.72928
▁harry	-8.72996
▁credit	-8.73181
▁storm	-8.73209
we	-8.73245
way	-8.73299
▁revenue	-8.73993
▁legal	-8.74235
▁federal	-8.74247
▁act	-8.74288
▁non	-8.74331
▁confirme	-8.74367
▁quarter	-8.74469
▁mc	-8.74514
▁payment	-8.7453
▁customer	-8.74589
▁22	-8.74786
▁speak	-8.74886
ru	-8.7493
▁donate	-8.74965
▁benefit	-8.75012
▁screen	-8.75056
▁miss	-8.75142
▁thank	-8.75146
▁react	-8.75323
▁ball	-8.75368
ko	-8.75398
ter	-8.75407
▁trailer	-8.7551
▁fix	-8.75672
▁brexit	-8.75783
age	-8.75834
▁delivery	-8.75967
▁normal	-8.75994
▁li	-8.76185
▁possible	-8.76214
▁number	-8.76239
▁farmer	-8.7624
▁sha	-8.763
▁rugby	-8.76387
ja	-8.76443
▁form	-8.76448
▁arrive	-8.7656
▁fake	-8.76665
▁irish	-8.76772
▁tweet	-8.76821
▁da	-8.76824
pe	-8.77018
▁smart	-8.77092
ad	-8.77095
▁vehicle	-8.77343
▁moment	-8.77383
▁0	-8.77393
▁senate	-8.77456
▁district	-8.77606
▁san	-8.77927
▁justice	-8.77971
▁recover	-8.77975
▁el	-8.78002
▁tribute	-8.78045
▁roll	-8.78056
▁teen	-8.78104
▁trace	-8.78243
▁ve	-8.78349
▁discuss	-8.78529
▁worry	-8.78663
▁performance	-8.78672
lu	-8.78808
▁view	-8.78852
▁violence	-8.78929
vin	-8.79067
▁disease	-8.79106
▁image	-8.79226
▁kit	-8.7932
rd	-8.79324
im	-8.79536
▁welcome	-8.79552
▁sun	-8.79595
q	-8.7961
▁technology	-8.79731
▁product	-8.79894
▁guide	-8.79992
▁access	-8.80089
▁investigate	-8.80269
▁father	-8.80364
▁european	-8.80368
▁ni	-8.80426
out	-8.807
▁kick	-8.8077
▁dollar	-8.80811
▁cat	-8.80844
▁royal	-8.80953
▁total	-8.80969
▁passenger	-8.81082
▁prediction	-8.81121
▁chris	-8.81264
▁cap	-8.81278
▁winner	-8.8135
▁room	-8.81433
▁ty	-8.81453
▁candidate	-8.81538
▁jordan	-8.81628
▁canadian	-8.81628
▁shock	-8.8173
11	-8.81783
▁AP	-8.81845
▁row	-8.81856
▁mass	-8.8212
ina	-8.82175
▁development	-8.82209
▁gov	-8.82254
▁budget	-8.82361
ey	-8.82483
▁newspaper	-8.82544
▁aim	-8.82559
▁forecast	-8.82637
▁elon	-8.82645
▁side	-8.82705
▁respond	-8.82728
▁mum	-8.82907
▁lu	-8.82992
▁mental	-8.83106
▁massive	-8.83212
▁enter	-8.83302
▁person	-8.83342
▁teacher	-8.8342
▁animal	-8.83469
▁gift	-8.83474
he	-8.83571
▁site	-8.83577
▁ship	-8.83617
▁pe	-8.83718
za	-8.83778
ol	-8.83798
▁winn	-8.83832
▁captain	-8.83931
▁album	-8.84028
▁everything	-8.84121
▁finance	-8.84124
▁lago	-8.84154
▁ne	-8.84265
▁hide	-8.84295
▁clean	-8.84354
▁dark	-8.84467
▁electric	-8.84471
▁mid	-8.84489
▁crime	-8.84496
▁contact	-8.84658
▁affect	-8.84684
▁SA	-8.84706
▁brazil	-8.84755
▁camp	-8.84853
10	-8.84955
▁vi	-8.85024
▁african	-8.85165
▁pull	-8.85195
ary	-8.85213
▁platform	-8.85344
▁avoid	-8.85344
▁management	-8.85453
▁door	-8.8549
ism	-8.85522
▁legend	-8.85523
▁60	-8.85542
▁speed	-8.85629
▁debate	-8.85723
▁spain	-8.85928
▁treat	-8.85986
▁burn	-8.86009
▁bear	-8.86137
▁madrid	-8.86391
min	-8.86548
▁malaysia	-8.86698
▁exit	-8.86914
▁weather	-8.86954
▁$3	-8.87066
▁declare	-8.87079
▁zone	-8.87081
▁stadium	-8.87159
▁debt	-8.87353
▁dis	-8.8744
▁italy	-8.87567
▁turkey	-8.87649
▁write	-8.87789
▁round	-8.87819
▁analysis	-8.87836
▁lab	-8.87838
▁address	-8.87842
▁stimulus	-8.87933
▁florida	-8.88032
▁brother	-8.88033
▁network	-8.88038
▁flood	-8.88225
▁SC	-8.88345
▁gu	-8.88348
▁emerge	-8.88513
▁airport	-8.88635
▁central	-8.88713
▁23	-8.88742
▁mike	-8.88764
▁olympic	-8.88811
▁obama	-8.88814
▁stick	-8.88829
▁presentation	-8.88839
▁grant	-8.88863
▁slow	-8.8897
▁thousand	-8.89105
hi	-8.89128
▁option	-8.89367
▁bangladesh	-8.89499
▁mexico	-8.89598
▁charity	-8.89605
▁factory	-8.89808
▁july	-8.89859
ney	-8.89881
▁sexual	-8.90056
ik	-8.90134
▁cast	-8.90454
▁stun	-8.90477
▁almost	-8.90491
ler	-8.90522
▁plus	-8.90691
▁morning	-8.90692
▁really	-8.90913
▁facility	-8.9109
▁education	-8.91223
ga	-8.91514
▁beach	-8.91525
▁smith	-8.91636
▁inter	-8.9176
▁defend	-8.91924
▁navy	-8.9205
dly	-8.9206
si	-8.92146
pa	-8.92172
▁200	-8.92191
▁BJP	-8.92202
▁xbox	-8.92213
▁condition	-8.92301
▁presidential	-8.92332
▁refuse	-8.92413
▁ram	-8.92518
▁wild	-8.92569
▁prime	-8.92611
▁highlight	-8.92655
▁viral	-8.92708
▁uber	-8.92753
▁rival	-8.9278
▁happy	-8.9281
▁van	-8.92816
▁blast	-8.92876
line	-8.92885
▁program	-8.9297
▁together	-8.93014
▁seven	-8.93021
▁grand	-8.93143
▁fee	-8.93278
▁queen	-8.93424
▁outside	-8.9364
▁wave	-8.93652
▁mayor	-8.93709
▁lie	-8.93823
▁fuel	-8.93849
▁ta	-8.93871
▁internet	-8.93945
▁raise	-8.94048
▁chance	-8.94057
▁bond	-8.9414
▁ho	-8.94157
▁stage	-8.94178
▁cross	-8.94186
▁deep	-8.94194
▁K	-8.94198
▁schedule	-8.94248
▁spark	-8.94275
▁singh	-8.94328
ze	-8.94391
▁perfect	-8.94558
▁victory	-8.94601
▁agree	-8.94738
▁dubai	-8.94768
▁poor	-8.94999
▁william	-8.95048
▁trip	-8.95201
▁zoom	-8.95257
▁believe	-8.95499
tt	-8.95515
▁predict	-8.95662
▁anniversary	-8.95707
▁cricket	-8.95788
▁experience	-8.96022
▁idea	-8.96153
▁couple	-8.96269
▁di	-8.96298
▁traffic	-8.96339
▁complete	-8.96697
▁$2	-8.96774
▁eat	-8.96839
ex	-8.96905
▁blame	-8.9698
▁researcher	-8.97188
▁decline	-8.97196
▁bundesliga	-8.97294
▁pass	-8.97441
ance	-8.9748
▁NBA	-8.97632
▁blow	-8.97854
▁syria	-8.97871
▁stab	-8.97873
▁rumour	-8.97936
▁mom	-8.97986
▁veteran	-8.98044
▁style	-8.98083
▁israeli	-8.98152
▁pop	-8.98304
▁effort	-8.98366
ani	-8.98488
▁senior	-8.98582
▁easy	-8.98583
▁career	-8.98604
▁spy	-8.98743
our	-8.98844
▁domestic	-8.98907
▁texas	-8.98907
ou	-8.99009
▁process	-8.99062
▁church	-8.99124
▁auto	-8.99143
▁cent	-8.99203
▁MP	-8.99234
▁ticket	-8.99237
▁spike	-8.99342
▁cloud	-8.99372
bu	-8.99379
▁ye	-8.99419
▁liquor	-8.9945
▁minute	-8.99559
▁crosse	-8.99619
▁appoint	-8.99751
der	-8.99987
▁replace	-9.00208
▁trust	-9.0035
▁attempt	-9.00436
▁buhari	-9.00436
▁dad	-9.00453
ster	-9.0047
au	-9.0048
▁speech	-9.00546
▁remove	-9.00547
▁device	-9.00552
▁mu	-9.00586
▁artist	-9.00685
▁station	-9.01086
▁ed	-9.011
▁allegation	-9.01321
▁episode	-9.01321
ure	-9.01496
gu	-9.01505
▁HC	-9.01627
▁appear	-9.01642
ES	-9.01827
▁ranger	-9.01848
▁blood	-9.01856
▁rare	-9.01871
▁lawyer	-9.01879
▁tri	-9.02029
▁recall	-9.02102
▁stake	-9.02229
▁expand	-9.02325
▁drink	-9.02326
▁preview	-9.02329
▁same	-9.02411
fa	-9.02426
▁different	-9.02439
▁smartphone	-9.02554
▁cant	-9.02556
▁rape	-9.02596
▁brown	-9.02667
sha	-9.02872
ip	-9.02964
che	-9.02991
▁port	-9.03024
▁scheme	-9.03228
▁agency	-9.03236
lin	-9.03434
ss	-9.03564
▁praise	-9.03576
▁trend	-9.03576
▁se	-9.03578
J	-9.03647
har	-9.03651
▁leake	-9.03835
▁ab	-9.03843
▁70	-9.04004
▁ju	-9.04012
ff	-9.04092
▁perform	-9.04124
▁december	-9.04251
▁taiwan	-9.04367
mon	-9.04368
▁pic	-9.044
▁journalist	-9.04618
▁NYSE	-9.0471
▁inquiry	-9.04824
▁iraq	-9.04939
Y	-9.04952
▁jose	-9.05108
▁throw	-9.05166
▁taylor	-9.05169
▁WWE	-9.05171
▁toward	-9.05368
hose	-9.05395
▁guideline	-9.05418
ten	-9.05593
▁UP	-9.05633
▁lawsuit	-9.05637
▁till	-9.05685
▁rep	-9.05726
▁festival	-9.05748
▁property	-9.05869
▁PC	-9.05945
▁youth	-9.05964
▁river	-9.05983
▁tear	-9.05987
hu	-9.06046
▁bomb	-9.0606
▁sam	-9.06282
que	-9.06323
▁answer	-9.0633
▁scene	-9.06332
▁secretary	-9.06354
▁illegal	-9.06373
▁husband	-9.06447
▁duty	-9.06467
▁edge	-9.06618
bn	-9.06678
▁scotland	-9.06694
▁mix	-9.06782
▁tom	-9.06891
▁parliament	-9.06898
▁championship	-9.06929
▁introduce	-9.07033
▁direct	-9.07071
▁damage	-9.07158
▁pari	-9.07191
▁brain	-9.07204
▁newcastle	-9.07269
▁bull	-9.07624
▁rich	-9.07649
▁vow	-9.07683
▁hundred	-9.07741
▁forward	-9.07822
▁du	-9.07837
▁opposition	-9.0786
▁ride	-9.07862
▁lack	-9.08096
▁decide	-9.08103
▁retail	-9.0822
ng	-9.08294
ber	-9.08361
▁chairman	-9.08717
▁success	-9.08732
▁31	-9.08742
▁rain	-9.08798
▁relate	-9.08813
▁tough	-9.08857
▁accident	-9.08934
ye	-9.08958
▁spur	-9.08968
▁jet	-9.09094
▁ten	-9.09095
▁farm	-9.09151
▁survey	-9.09172
▁eight	-9.09176
▁salary	-9.0918
▁front	-9.09271
▁freeze	-9.09283
▁ford	-9.09345
▁committee	-9.09413
▁boe	-9.09596
▁hail	-9.09601
▁ar	-9.09615
▁guard	-9.09657
▁coast	-9.09658
▁decade	-9.09663
▁unit	-9.09693
ek	-9.09764
▁shift	-9.09775
du	-9.09793
▁wind	-9.09971
ft	-9.0999
▁reduce	-9.10017
▁authority	-9.1015
coming	-9.10217
ap	-9.10294
▁mind	-9.1039
▁90	-9.10419
tu	-9.10467
▁surface	-9.10503
▁enough	-9.10508
▁handle	-9.10572
▁essential	-9.10624
▁villa	-9.10672
ig	-9.10679
▁department	-9.10874
▁pi	-9.10942
▁mon	-9.10978
▁davi	-9.11313
▁fact	-9.11315
▁hunt	-9.11479
mer	-9.11479
lan	-9.11581
▁sleep	-9.11604
▁alert	-9.11618
▁exam	-9.1168
▁northern	-9.11729
▁activity	-9.11974
▁survive	-9.12098
▁session	-9.12098
30	-9.12128
▁postpone	-9.12317
▁shutdown	-9.12353
▁position	-9.12389
▁isolation	-9.12469
▁1000	-9.12616
▁improve	-9.12618
▁motor	-9.12631
▁wait	-9.12748
▁display	-9.12847
▁asia	-9.12947
▁plane	-9.12978
ay	-9.13088
▁arabia	-9.13218
▁hike	-9.13316
by	-9.13325
tra	-9.13433
▁lion	-9.13484
▁invest	-9.13635
▁te	-9.13639
▁approach	-9.13719
▁figure	-9.13719
ki	-9.13751
▁healthcare	-9.13845
ling	-9.13853
▁meat	-9.14122
▁cell	-9.14151
▁personal	-9.14228
▁sunday	-9.14232
▁center	-9.1425
▁breach	-9.14352
▁UAE	-9.14352
▁forest	-9.14421
▁propose	-9.14476
▁lot	-9.14601
▁accord	-9.14602
▁chase	-9.14723
▁corona	-9.14847
▁once	-9.14851
▁xiaomi	-9.14856
▁prove	-9.14876
▁seize	-9.1488
▁rishi	-9.15007
▁wed	-9.15012
ana	-9.15037
▁cha	-9.15136
▁inspire	-9.15197
ji	-9.15312
▁hu	-9.15442
▁wale	-9.15533
su	-9.15612
oo	-9.15662
▁robert	-9.15861
▁already	-9.15879
▁value	-9.15882
▁celtic	-9.15883
ura	-9.15905
▁curb	-9.15919
shi	-9.15945
▁garden	-9.16015
▁export	-9.16038
▁consumer	-9.16149
▁pixel	-9.16265
▁word	-9.16265
▁studio	-9.16267
▁panel	-9.16304
▁gen	-9.16472
tion	-9.16473
▁present	-9.16486
▁web	-9.16648
▁transport	-9.16876
▁plea	-9.16892
wan	-9.17021
▁evidence	-9.17042
▁discover	-9.17049
▁lawmaker	-9.17054
▁conference	-9.17302
▁railway	-9.17314
so	-9.17435
▁signe	-9.1753
▁pledge	-9.17563
▁75	-9.17732
▁wish	-9.17815
▁cheap	-9.17834
▁intel	-9.17954
▁carry	-9.1804
▁fraud	-9.18206
▁youtube	-9.18206
▁honor	-9.1835
▁500	-9.18362
▁35	-9.18389
▁ben	-9.18397
▁lock	-9.18495
▁los	-9.18547
▁era	-9.18683
▁sky	-9.18784
▁box	-9.18804
▁soldier	-9.18878
▁prevent	-9.18971
▁sue	-9.19014
▁executive	-9.19017
▁remember	-9.19276
▁26	-9.19388
▁heat	-9.19406
▁bi	-9.19406
ps	-9.19469
▁adam	-9.19543
▁seat	-9.19561
▁politics	-9.19607
▁tally	-9.19613
▁jack	-9.19815
kin	-9.19829
back	-9.19833
op	-9.19873
▁fish	-9.19956
time	-9.20065
▁draft	-9.20076
▁hall	-9.20114
om	-9.20149
▁po	-9.20155
▁alex	-9.20166
▁crypto	-9.2021
▁warren	-9.20509
▁hack	-9.20611
▁epstein	-9.20613
▁max	-9.2062
▁tool	-9.20747
▁region	-9.20768
gi	-9.20801
▁reade	-9.20814
▁bengal	-9.20888
▁escape	-9.20888
ola	-9.2104
▁28	-9.21105
▁limit	-9.21168
▁korean	-9.21342
▁few	-9.21412
▁negative	-9.21425
▁hint	-9.21508
▁nov	-9.21569
▁finish	-9.21569
▁secure	-9.21701
▁pa	-9.21781
ang	-9.21861
▁cl	-9.21874
amp	-9.21881
▁georgia	-9.21969
▁identify	-9.21969
▁fighter	-9.22001
con	-9.22066
▁strategy	-9.22106
▁aston	-9.22116
ag	-9.22136
▁ya	-9.22175
▁main	-9.22177
ble	-9.22216
▁relationship	-9.22245
▁sack	-9.22299
▁witness	-9.22517
ac	-9.22633
▁ghana	-9.22781
▁fit	-9.22849
▁jones	-9.22886
▁27	-9.22993
ally	-9.23098
ib	-9.23102
▁deadly	-9.2311
▁y	-9.23172
▁winter	-9.23237
ron	-9.23242
▁FG	-9.23345
▁via	-9.2343
▁sub	-9.23563
▁drama	-9.23613
▁exchange	-9.23621
▁gear	-9.23785
▁asian	-9.23832
▁agent	-9.2385
▁richard	-9.23923
ai	-9.23954
▁jong	-9.24025
▁suicide	-9.24038
▁channel	-9.24178
▁bann	-9.24195
field	-9.24203
▁golf	-9.2423
ph	-9.24253
▁asset	-9.2433
av	-9.24334
▁crowd	-9.24684
▁solution	-9.24738
▁defeat	-9.24738
▁shield	-9.24882
pp	-9.24915
gan	-9.25042
▁par	-9.25056
▁singer	-9.25075
ger	-9.25109
▁mine	-9.25244
▁sound	-9.25302
▁limite	-9.25434
▁shah	-9.25484
ku	-9.25588
▁expose	-9.25592
▁fashion	-9.25725
▁rumor	-9.25729
▁citizen	-9.25859
▁karnataka	-9.25867
▁senator	-9.25877
▁paper	-9.25885
em	-9.25975
▁task	-9.2601
▁closure	-9.26151
▁II	-9.26168
▁beyond	-9.26294
▁above	-9.26295
▁vega	-9.26463
▁fa	-9.26506
▁bag	-9.26519
▁egypt	-9.26557
▁birth	-9.26573
▁rank	-9.26652
▁read	-9.2669
▁steve	-9.26716
▁bail	-9.26781
▁rob	-9.26839
▁ham	-9.26873
▁request	-9.27009
od	-9.27017
▁pet	-9.27038
▁$4	-9.27089
▁below	-9.27097
▁killer	-9.27112
▁tamil	-9.27174
▁za	-9.27291
▁january	-9.27297
▁tackle	-9.27297
▁80	-9.27306
▁founder	-9.27333
▁ali	-9.27566
▁involve	-9.27585
▁op	-9.27736
fer	-9.27795
▁ps	-9.27824
▁sentence	-9.28019
▁scott	-9.28044
19	-9.2819
▁messi	-9.28208
▁nintendo	-9.2831
▁female	-9.2831
▁derby	-9.28313
▁express	-9.28325
ker	-9.28424
▁opportunity	-9.28455
▁foot	-9.28673
▁october	-9.28747
▁mode	-9.28751
▁nine	-9.28792
▁rest	-9.28881
▁quit	-9.28929
▁mac	-9.29
80	-9.29169
▁plunge	-9.29186
▁recipe	-9.29186
▁stone	-9.29256
▁effect	-9.29312
▁analyst	-9.29333
▁dismiss	-9.29375
▁god	-9.29433
▁corporation	-9.2948
▁unemployment	-9.2948
▁lee	-9.295
▁statement	-9.29673
ham	-9.29726
▁oklahoma	-9.29775
▁lay	-9.29858
▁insurance	-9.29922
▁quality	-9.29922
▁surgery	-9.29987
▁reform	-9.30071
▁29	-9.30091
▁dividend	-9.30092
▁classic	-9.30177
▁hill	-9.30229
den	-9.30283
▁comeback	-9.303
▁ti	-9.30331
▁democratic	-9.30338
▁pompeo	-9.30367
▁voice	-9.30367
▁wuhan	-9.30367
▁tokyo	-9.30371
▁incident	-9.30664
▁extra	-9.30744
▁hate	-9.30745
▁protection	-9.30758
▁irrfan	-9.30813
▁pregnant	-9.30813
ci	-9.30849
▁mission	-9.30919
▁mcdonald	-9.30963
▁scandal	-9.30963
▁hurt	-9.30972
▁FM	-9.30976
▁code	-9.3099
▁bat	-9.30991
▁field	-9.31051
▁pack	-9.31071
▁collapse	-9.31112
▁bridge	-9.31144
▁breitbart	-9.31262
▁def	-9.31449
▁true	-9.31502
▁martin	-9.31558
▁each	-9.3161
▁ca	-9.31652
▁guilty	-9.31712
▁important	-9.31882
▁republican	-9.31896
▁map	-9.31933
▁bc	-9.31964
▁ru	-9.32157
▁tuesday	-9.32165
▁multi	-9.32218
▁chain	-9.32288
▁wage	-9.3229
▁flynn	-9.32468
fi	-9.32521
▁kashmir	-9.3264
▁speaker	-9.32898
▁robot	-9.32981
ika	-9.32983
▁cool	-9.33043
▁activist	-9.33076
▁extension	-9.33076
▁pen	-9.33095
▁bra	-9.33154
▁che	-9.3327
▁earth	-9.33433
▁middle	-9.3351
▁commit	-9.33527
▁BMW	-9.33538
▁reality	-9.33645
▁trouble	-9.33688
▁defence	-9.33695
▁band	-9.33755
▁saturday	-9.33842
▁voter	-9.33865
▁matt	-9.33881
▁suit	-9.33892
▁peter	-9.33945
▁inch	-9.34043
▁waste	-9.34084
▁resign	-9.34113
side	-9.34219
▁pochettino	-9.34304
▁premium	-9.34304
▁slip	-9.3431
▁doesnt	-9.34585
▁l	-9.34755
▁deputy	-9.34768
▁historic	-9.34772
ill	-9.34848
▁teas	-9.34904
▁peace	-9.3506
▁edition	-9.35092
▁holding	-9.35115
▁acquire	-9.35235
▁punjab	-9.35235
▁swift	-9.35235
▁collection	-9.35259
▁fatal	-9.35312
ify	-9.35331
board	-9.35347
▁privacy	-9.35391
▁buie	-9.35492
▁document	-9.35532
▁cruise	-9.35547
▁hearing	-9.35611
▁trick	-9.35647
▁chi	-9.35664
▁kerala	-9.35704
▁tourism	-9.35742
▁hire	-9.35791
▁science	-9.35821
ong	-9.35835
▁auction	-9.3586
▁income	-9.35882
▁village	-9.35909
▁discount	-9.36019
▁dublin	-9.36021
▁io	-9.36157
▁capture	-9.36174
tro	-9.36196
▁grind	-9.36332
▁ronaldo	-9.36346
▁zero	-9.36351
▁ku	-9.36409
▁import	-9.36478
▁defense	-9.3649
nder	-9.36627
500	-9.36641
▁NYC	-9.3669
▁lesson	-9.36715
ver	-9.36765
▁mini	-9.36792
▁oneplus	-9.36806
▁infect	-9.36915
▁retire	-9.36937
▁rocket	-9.37102
▁cold	-9.37115
▁conduct	-9.37123
▁compare	-9.37123
▁GOP	-9.37138
▁administration	-9.37282
▁fr	-9.37332
▁victoria	-9.37363
▁earn	-9.37413
ino	-9.37489
ator	-9.37531
▁H	-9.3789
▁dispute	-9.37921
▁yo	-9.37987
▁teach	-9.3803
▁lake	-9.3807
▁george	-9.38081
▁tory	-9.38127
▁testify	-9.38184
▁discharge	-9.38245
▁weapon	-9.38402
▁LA	-9.38413
▁concert	-9.38563
▁startup	-9.38697
▁wednesday	-9.38724
▁wood	-9.38778
▁pradesh	-9.38886
▁beauty	-9.38886
qui	-9.38961
mu	-9.38962
▁ll	-9.38981
▁soar	-9.38994
▁monitor	-9.39048
▁muslim	-9.39048
▁verdict	-9.39048
40	-9.39057
▁modern	-9.39061
▁FC	-9.39099
▁within	-9.39148
▁advice	-9.3921
▁purchase	-9.3921
▁pilot	-9.3921
pi	-9.39217
▁headline	-9.39442
▁chip	-9.39504
▁everyone	-9.39547
▁seal	-9.39587
▁dec	-9.39637
▁serve	-9.39716
▁spoiler	-9.39741
▁PPE	-9.39867
gen	-9.399
ran	-9.39964
▁complaint	-9.40091
▁popular	-9.40167
▁character	-9.40188
▁climb	-9.40188
▁gang	-9.40313
▁serious	-9.40326
▁critical	-9.40389
my	-9.40465
▁path	-9.40548
▁accept	-9.40681
▁FA	-9.4069
▁count	-9.40797
▁whatsapp	-9.40845
▁bh	-9.4096
▁advance	-9.4101
▁thursday	-9.4101
▁$5	-9.41109
▁bay	-9.41138
end	-9.41145
vo	-9.41302
ix	-9.41336
▁heavy	-9.41339
▁dem	-9.41365
▁himself	-9.41507
the	-9.41643
▁epic	-9.41675
▁pok	-9.41803
▁ambassador	-9.4184
ts	-9.41858
▁justin	-9.41946
▁gate	-9.41947
▁mile	-9.41989
▁competition	-9.42173
▁ferrari	-9.42174
▁fun	-9.42307
ial	-9.4232
▁phase	-9.42456
▁mp	-9.42493
▁corp	-9.42628
▁hawaii	-9.42676
▁daniel	-9.42677
▁content	-9.4285
▁weigh	-9.42867
▁lady	-9.42947
▁hair	-9.42996
▁troop	-9.43012
▁mount	-9.43041
▁raid	-9.4309
▁destroy	-9.43181
▁pain	-9.43218
▁chart	-9.43369
▁fox	-9.4358
▁homeless	-9.43655
▁hollywood	-9.4369
▁kenya	-9.43696
▁mistake	-9.43698
▁bio	-9.43758
▁gar	-9.43783
▁matter	-9.43817
▁donation	-9.43821
▁bristol	-9.43858
▁squad	-9.43859
▁nothing	-9.4386
▁pub	-9.43885
▁register	-9.44028
▁silver	-9.4403
▁harris	-9.44039
▁ago	-9.4405
▁dar	-9.44173
▁halt	-9.44188
▁micro	-9.44202
▁machine	-9.44205
▁tree	-9.44266
ite	-9.44299
▁corruption	-9.44376
chi	-9.44433
▁core	-9.44596
ung	-9.44671
▁golden	-9.44709
bar	-9.44744
▁fair	-9.44792
▁gizchina	-9.44883
▁bloomberg	-9.44884
▁angel	-9.44898
▁flu	-9.45
▁nasdaq	-9.45055
▁netanyahu	-9.45055
▁survivor	-9.45055
▁tiktok	-9.45227
▁soccer	-9.45228
ass	-9.45248
▁promote	-9.45264
▁sony	-9.45386
▁opinion	-9.45399
▁LG	-9.454
▁kohli	-9.45414
ny	-9.45437
af	-9.45445
▁sri	-9.45518
▁symptom	-9.45572
▁current	-9.45573
▁BBC	-9.4559
▁smoke	-9.45594
▁pink	-9.45601
▁$10	-9.45651
▁jenner	-9.45751
ita	-9.45756
▁dangerous	-9.45756
▁scam	-9.45762
▁hy	-9.45786
$	-9.45786
▁retirement	-9.45949
▁249	-9.45953
▁sir	-9.4604
ara	-9.46064
▁version	-9.46113
▁kar	-9.46128
▁weight	-9.46137
ship	-9.46204
▁ki	-9.46232
rt	-9.46287
zi	-9.4635
▁skin	-9.46378
▁outlook	-9.4644
▁situation	-9.46614
▁sister	-9.46624
▁rail	-9.46636
ett	-9.46769
▁morgan	-9.46799
▁penny	-9.46904
▁viewer	-9.46918
▁anthony	-9.46964
▁ryan	-9.47016
▁tomorrow	-9.47316
▁freedom	-9.47316
▁movement	-9.47339
▁mate	-9.47426
▁exercise	-9.47492
▁ignore	-9.47492
▁doubt	-9.47492
▁information	-9.47508
▁tu	-9.47509
▁theory	-9.47529
▁didnt	-9.47615
▁honour	-9.47668
▁barr	-9.47679
▁pan	-9.47704
▁pollution	-9.47845
▁plot	-9.47846
▁radio	-9.47854
▁commission	-9.47965
ev	-9.47986
▁require	-9.47993
▁nuclear	-9.48022
▁wi	-9.48098
▁sit	-9.48139
▁listen	-9.48235
▁dev	-9.48352
▁scrap	-9.48378
▁ray	-9.48547
▁assembly	-9.48555
▁tennis	-9.48555
▁moon	-9.48577
lic	-9.48602
les	-9.48617
▁corbyn	-9.48733
▁jersey	-9.48733
▁washington	-9.48735
ore	-9.48827
▁bike	-9.48833
▁E	-9.48866
fe	-9.48888
▁criminal	-9.48911
▁dip	-9.48924
▁ice	-9.48946
▁tony	-9.49205
▁attend	-9.49419
▁generation	-9.4945
▁sharma	-9.49455
▁stephen	-9.49464
▁museum	-9.49629
▁operate	-9.49629
▁download	-9.49664
▁tourist	-9.4976
▁hub	-9.49949
▁renew	-9.49962
▁forget	-9.49973
▁straight	-9.4999
▁upgrade	-9.4999
▁pal	-9.50009
▁pat	-9.50158
▁NASA	-9.50172
ell	-9.50231
▁condemn	-9.50352
▁horror	-9.50352
▁VE	-9.50353
▁construction	-9.50358
▁adviser	-9.50448
ez	-9.50499
▁ferguson	-9.50533
▁ste	-9.50589
▁antibody	-9.50715
▁frontline	-9.50727
▁insist	-9.50753
▁bite	-9.50879
▁both	-9.50945
▁practice	-9.51079
▁afghanistan	-9.51262
▁funeral	-9.51263
▁toronto	-9.51264
▁await	-9.51264
▁pose	-9.5142
▁podcast	-9.51445
▁tiger	-9.51459
▁chat	-9.51465
light	-9.51526
▁striker	-9.51602
▁pin	-9.51613
▁philippine	-9.51629
▁fo	-9.51632
▁snap	-9.51634
▁ramp	-9.51639
▁common	-9.51648
▁notice	-9.51713
▁zimbabwe	-9.51927
▁tariff	-9.51998
ted	-9.52032
▁mor	-9.52272
▁IT	-9.5229
rn	-9.52309
▁cabinet	-9.52372
pur	-9.52425
well	-9.52639
▁controversial	-9.52737
▁thomas	-9.52737
▁battery	-9.52775
▁stress	-9.52858
▁flat	-9.52917
▁tim	-9.53116
▁ohio	-9.53117
▁FBI	-9.53119
▁dress	-9.53179
▁disaster	-9.53296
▁prize	-9.53307
▁loom	-9.53325
70	-9.53403
▁whistleblower	-9.53483
ld	-9.53498
▁also	-9.53524
▁zdnet	-9.5367
▁western	-9.53672
▁ipad	-9.53731
▁remote	-9.53854
▁estate	-9.5387
wi	-9.53967
▁weekly	-9.53969
60	-9.54023
▁testimony	-9.54045
▁entertainment	-9.54054
▁tension	-9.54056
▁BT	-9.54061
▁commissioner	-9.54106
▁kate	-9.54165
▁michigan	-9.54234
▁magic	-9.54234
▁print	-9.54253
▁dan	-9.54283
jo	-9.54318
▁je	-9.54345
gar	-9.54347
▁bell	-9.54501
▁conspiracy	-9.54611
▁explore	-9.54611
▁warrior	-9.54612
est	-9.54666
▁kano	-9.54796
▁afghan	-9.54801
▁split	-9.54805
log	-9.54812
▁talent	-9.55006
▁manage	-9.55037
▁pope	-9.55072
▁spanish	-9.55181
▁combat	-9.55184
▁workout	-9.55193
unt	-9.55243
▁bust	-9.55313
▁intelligence	-9.55371
▁wireless	-9.55381
▁ensure	-9.55562
▁mall	-9.55583
▁excite	-9.55753
▁hamilton	-9.55753
▁crown	-9.55792
▁cla	-9.55862
▁inmate	-9.55901
▁slash	-9.55946
▁cook	-9.55986
▁rent	-9.56037
▁progress	-9.56116
▁vulnerable	-9.56137
▁shortage	-9.56181
▁tara	-9.56191
▁mad	-9.56226
▁always	-9.56329
▁cyber	-9.56366
lt	-9.56556
▁doesn	-9.56561
▁shape	-9.56597
▁pu	-9.56681
▁meghan	-9.56715
▁percent	-9.56736
▁campus	-9.56807
▁enjoy	-9.56908
▁kardashian	-9.56908
sta	-9.5703
▁bud	-9.57082
▁32	-9.57093
tch	-9.57172
▁flag	-9.57173
▁recent	-9.57182
ical	-9.57403
▁proposal	-9.57491
▁macbook	-9.57498
▁programme	-9.57597
▁billionaire	-9.57686
▁producer	-9.57728
ile	-9.57765
gate	-9.57857
▁range	-9.57936
▁pitch	-9.58026
▁apply	-9.58068
99	-9.58088
▁scottish	-9.58114
ford	-9.58135
▁scot	-9.58202
▁waite	-9.58229
▁maker	-9.58257
▁sitharaman	-9.58273
▁laptop	-9.58273
▁dutch	-9.58284
▁mail	-9.58334
▁strange	-9.58471
▁favourite	-9.58473
ence	-9.58512
0	-9.58565
▁lil	-9.58643
her	-9.58653
▁aide	-9.58796
▁sick	-9.58857
ram	-9.58908
ris	-9.58962
▁meal	-9.59058
▁palace	-9.59061
▁cannabis	-9.59066
▁cry	-9.59211
▁spit	-9.59291
cc	-9.59306
▁amit	-9.59408
▁comp	-9.59417
az	-9.59541
▁sena	-9.5968
▁sand	-9.59711
▁LLC	-9.59855
▁gujarat	-9.59855
▁annual	-9.59858
▁tap	-9.59912
▁healthy	-9.59996
kh	-9.60002
▁produce	-9.60042
▁several	-9.60055
▁spin	-9.60114
ju	-9.60192
▁leg	-9.60205
ach	-9.60233
▁fauci	-9.60255
▁pound	-9.60255
▁italian	-9.60256
▁reaction	-9.6036
▁relax	-9.60418
ier	-9.60452
▁september	-9.60455
▁ventilator	-9.60455
▁dump	-9.6049
men	-9.60497
▁45	-9.60503
▁touch	-9.60554
▁plead	-9.60633
▁bayern	-9.60657
▁lebanon	-9.60857
▁course	-9.60873
▁quick	-9.6088
▁sp	-9.60975
▁boxe	-9.60982
▁klopp	-9.61059
▁sweet	-9.6106
tter	-9.61172
▁alive	-9.61201
▁active	-9.61241
▁entire	-9.61261
▁southern	-9.61265
▁teaser	-9.61364
▁emotional	-9.61376
▁drag	-9.61441
gh	-9.61582
▁wrap	-9.61667
house	-9.61723
▁ob	-9.61798
▁origin	-9.61864
▁trillion	-9.6187
ization	-9.61899
▁rip	-9.61902
▁terrorist	-9.6191
rs	-9.61954
▁difficult	-9.62073
▁troll	-9.62074
▁criticism	-9.62084
▁watchdog	-9.62107
▁standard	-9.62136
▁joke	-9.62206
▁partie	-9.62275
▁conservative	-9.62277
▁silence	-9.62278
▁along	-9.62469
▁hole	-9.62487
▁charles	-9.62505
▁CS	-9.62568
▁developer	-9.62677
▁mystery	-9.62687
▁andy	-9.62732
▁wide	-9.62733
▁agreement	-9.62742
▁marry	-9.62801
▁elect	-9.62949
zo	-9.62956
▁celebration	-9.631
▁status	-9.63126
▁steel	-9.63137
▁failure	-9.63138
▁extreme	-9.63304
▁iconic	-9.63321
▁indonesia	-9.63338
ible	-9.6342
cha	-9.63452
▁nokia	-9.63514
▁sad	-9.63547
▁manufacture	-9.63574
▁primary	-9.63718
▁gandhi	-9.63718
▁bolivia	-9.63759
red	-9.63847
▁visa	-9.63907
▁nottingham	-9.63923
▁brutal	-9.6393
▁defender	-9.64044
day	-9.64071
▁DC	-9.64141
▁snow	-9.64152
▁color	-9.64204
▁girlfriend	-9.64344
net	-9.64344
▁original	-9.64535
▁marriage	-9.6455
▁punch	-9.6455
▁jay	-9.64688
▁bed	-9.64721
▁temperature	-9.64759
▁women	-9.64759
▁venezuela	-9.64796
▁wake	-9.64841
▁spec	-9.64962
ini	-9.64971
▁japanese	-9.64987
▁leadership	-9.65019
kar	-9.65188
dra	-9.65197
▁hell	-9.65205
je	-9.65252
▁nick	-9.65302
▁bug	-9.65312
▁rick	-9.65362
▁engine	-9.65366
▁qatar	-9.65391
▁choice	-9.65393
▁MS	-9.65398
▁balance	-9.65612
▁triple	-9.65663
▁fed	-9.65688
▁application	-9.65812
▁industrial	-9.65812
▁ver	-9.65824
▁connect	-9.65917
▁detain	-9.66026
▁connection	-9.66069
▁announcement	-9.66102
▁min	-9.66239
▁$	-9.66291
▁mull	-9.66425
▁bikini	-9.66449
▁multiple	-9.66449
▁gi	-9.66501
▁journey	-9.66662
▁teenager	-9.66744
▁sen	-9.66837
▁fantasy	-9.66876
▁base	-9.66876
ala	-9.6706
▁actually	-9.6709
▁spirit	-9.6709
▁vape	-9.67109
sion	-9.67184
▁hyderabad	-9.67305
▁brace	-9.67339
▁pelosi	-9.6752
▁improv	-9.67644
▁har	-9.67692
▁bro	-9.67705
ward	-9.67722
▁assistant	-9.67745
▁frank	-9.67814
ow	-9.67881
▁virgin	-9.67907
▁wolve	-9.67951
▁email	-9.67951
▁crack	-9.67958
▁kogi	-9.67981
▁sw	-9.68033
work	-9.68163
▁skill	-9.68193
▁cure	-9.6823
▁turk	-9.68289
ab	-9.68333
▁$6	-9.6835
▁cinema	-9.68385
▁master	-9.68388
▁lanka	-9.68394
▁drone	-9.68402
▁tyson	-9.68464
▁theres	-9.68556
▁highway	-9.68616
▁CA	-9.68712
ware	-9.68781
▁gather	-9.68782
▁alcohol	-9.6882
▁thanksgiving	-9.6882
▁technical	-9.6882
▁rol	-9.68823
▁restore	-9.68833
▁amaze	-9.68833
21	-9.68841
▁ill	-9.68842
▁cho	-9.68881
▁recession	-9.69038
▁shine	-9.69039
▁politician	-9.69043
wood	-9.6906
▁worldwide	-9.69064
▁beta	-9.69147
▁sydney	-9.69257
▁USD	-9.69258
▁culture	-9.69261
▁actress	-9.69267
▁GDP	-9.69476
▁material	-9.69476
▁kind	-9.69507
▁grab	-9.69587
oc	-9.69667
▁celeb	-9.6969
▁sanction	-9.69696
▁telangana	-9.69696
▁mourn	-9.69701
▁hang	-9.6973
▁patch	-9.69754
iz	-9.6976
▁brit	-9.7001
don	-9.70104
▁33	-9.70132
▁SE	-9.70154
▁mill	-9.70271
▁crow	-9.70285
▁civil	-9.70336
▁addition	-9.70362
iv	-9.70451
▁novel	-9.70474
▁table	-9.70504
▁settlement	-9.70604
▁nadu	-9.70629
▁ce	-9.70964
▁blockchain	-9.71025
▁province	-9.71025
▁attorney	-9.71025
▁roger	-9.71051
▁300	-9.71224
stone	-9.7124
▁abroad	-9.71248
▁alternative	-9.71248
▁bollywood	-9.71248
▁plastic	-9.71248
ide	-9.7125
port	-9.71254
▁pawar	-9.71264
box	-9.71302
▁tonight	-9.71348
▁everton	-9.71384
▁abandon	-9.71472
▁didn	-9.71765
ari	-9.71772
▁49	-9.71802
▁architect	-9.71909
▁regulator	-9.71921
▁item	-9.71966
▁prisoner	-9.71977
▁guy	-9.72129
▁neutral	-9.72146
▁empty	-9.72146
▁entry	-9.72147
▁powerful	-9.72276
zy	-9.72365
▁website	-9.72372
▁EC	-9.72463
▁deadline	-9.72487
▁oman	-9.72498
▁custom	-9.72591
▁label	-9.72596
▁beautiful	-9.72598
▁index	-9.72607
▁rage	-9.72629
act	-9.72636
▁recap	-9.72647
▁scale	-9.72722
gy	-9.72752
90	-9.72793
▁false	-9.72825
▁joy	-9.72826
▁severe	-9.72827
▁dig	-9.72839
▁formula	-9.72848
▁cycle	-9.72893
▁detect	-9.72922
van	-9.72936
▁pri	-9.73015
nny	-9.73024
▁signal	-9.73044
▁location	-9.73052
▁IPO	-9.73065
ven	-9.73086
ds	-9.73107
▁audio	-9.73159
▁GM	-9.73195
▁kelly	-9.73284
▁ultimate	-9.73508
▁henry	-9.73509
▁maintain	-9.73513
pro	-9.7353
nic	-9.73624
▁convict	-9.73692
rr	-9.73723
▁approval	-9.73737
▁boyfriend	-9.7374
▁alarm	-9.73751
▁documentary	-9.73758
▁leed	-9.73847
▁walmart	-9.73966
▁crush	-9.73967
▁equity	-9.73975
▁whether	-9.74196
▁jampk	-9.74196
▁em	-9.74389
▁reunite	-9.74427
▁reserve	-9.74427
▁period	-9.74427
▁AG	-9.74429
▁MLB	-9.74457
yo	-9.74464
▁rice	-9.74484
ess	-9.74604
▁gap	-9.74652
▁vietnam	-9.74653
▁democracy	-9.74657
▁FIFA	-9.74889
▁natural	-9.74889
▁fourth	-9.74944
▁kidnap	-9.75123
▁smash	-9.75124
▁truth	-9.75181
▁factor	-9.75226
▁tiny	-9.75236
▁G	-9.75288
yn	-9.75337
▁ontario	-9.75354
▁slump	-9.75372
▁peak	-9.75405
ane	-9.75558
▁retailer	-9.75579
▁summit	-9.75588
▁virat	-9.75599
▁understand	-9.75603
▁resource	-9.75615
▁NCP	-9.75624
▁temple	-9.75631
▁rm	-9.75676
ama	-9.75746
▁terror	-9.7576
ual	-9.75765
▁rebound	-9.75862
▁shiv	-9.75934
▁chennai	-9.76054
▁liste	-9.76147
▁tank	-9.76162
▁trader	-9.76183
▁syrian	-9.76198
▁transform	-9.76252
▁english	-9.76289
▁initiative	-9.76289
▁prosecutor	-9.76289
▁ground	-9.76289
▁unlikely	-9.76289
▁jr	-9.76317
▁athlete	-9.76525
▁physical	-9.7676
▁hacker	-9.76783
▁jackson	-9.76813
ens	-9.76826
▁robbery	-9.76843
▁swap	-9.76869
▁putin	-9.76871
▁fame	-9.76881
▁controversy	-9.76997
▁lewis	-9.76997
▁spring	-9.77003
▁throwback	-9.77017
▁shake	-9.77042
▁ch	-9.77045
▁IN	-9.77057
—	-9.77071
▁becom	-9.77126
▁regional	-9.772
▁august	-9.77234
▁cybertruck	-9.77234
▁invite	-9.77237
let	-9.7724
▁cor	-9.77272
▁RBI	-9.77273
▁jim	-9.77314
▁vice	-9.77344
▁10000	-9.77389
▁NY	-9.77403
▁king	-9.77411
5000	-9.77482
▁berlin	-9.77499
ign	-9.77553
▁boat	-9.77579
▁metal	-9.77666
bra	-9.77687
over	-9.77693
▁ramadan	-9.77709
▁jerem	-9.77712
▁cite	-9.77781
▁col	-9.7794
▁violation	-9.77948
▁marvel	-9.7795
▁uncertainty	-9.77959
aw	-9.77974
▁bird	-9.77981
▁carrier	-9.78017
burg	-9.78046
ock	-9.78053
▁iranian	-9.78054
ect	-9.781
100	-9.78161
▁petrol	-9.78187
▁rahul	-9.78187
▁wil	-9.78187
▁2000	-9.7823
▁39	-9.78234
▁phil	-9.78274
25	-9.78275
▁ace	-9.78411
▁ESPN	-9.78427
▁grammy	-9.7843
▁CDC	-9.78451
▁bowl	-9.78529
▁isn	-9.78551
book	-9.78638
▁airpod	-9.78668
▁strip	-9.78671
▁cape	-9.78742
▁65	-9.78779
▁gay	-9.7883
isation	-9.78866
▁divide	-9.78878
▁bankruptcy	-9.78909
▁dozen	-9.78909
▁foundation	-9.78918
▁revive	-9.7892
▁bale	-9.78937
▁opt	-9.78981
▁mock	-9.79072
▁sword	-9.7915
▁finale	-9.7916
▁mauric	-9.7918
▁rush	-9.79304
▁TD	-9.79395
cy	-9.79466
▁booke	-9.7949
ub	-9.79496
▁strictly	-9.79536
▁nu	-9.79565
▁jeff	-9.79578
gra	-9.79643
▁48	-9.79651
▁illness	-9.79655
mm	-9.79673
ov	-9.79863
▁bus	-9.79875
▁luxury	-9.79878
▁simple	-9.79878
▁text	-9.79881
▁software	-9.79882
▁fy	-9.79901
▁fitness	-9.79909
▁filme	-9.79936
▁ash	-9.7996
▁ama	-9.79992
▁knock	-9.80107
▁incredible	-9.80122
▁refund	-9.80122
▁racist	-9.80122
▁reliance	-9.80122
▁guest	-9.8014
nce	-9.80151
san	-9.80224
▁writer	-9.8035
sy	-9.80359
▁therapy	-9.80367
▁chair	-9.8037
tis	-9.80388
▁bett	-9.80555
▁bengaluru	-9.80612
▁patriot	-9.80612
▁venue	-9.80612
▁weak	-9.80649
▁chaos	-9.80653
▁$7	-9.80666
▁scare	-9.8068
▁38	-9.80687
▁es	-9.80708
▁para	-9.80778
▁roy	-9.80787
▁apologise	-9.80857
▁wealth	-9.80857
▁warm	-9.80984
▁diplomat	-9.81085
▁engineer	-9.81131
▁raj	-9.81141
and	-9.81205
▁rat	-9.81227
▁gary	-9.81289
ies	-9.81295
▁cam	-9.81325
ira	-9.81335
▁twist	-9.81351
▁rod	-9.81424
▁remark	-9.81429
ns	-9.81457
led	-9.81588
▁expansion	-9.81598
▁penalty	-9.81598
▁pentagon	-9.81598
▁trudeau	-9.81598
▁fifth	-9.81598
off	-9.81741
▁garda	-9.81753
▁lite	-9.81807
▁beijing	-9.81846
▁trigger	-9.81846
▁sweden	-9.81873
▁pier	-9.81979
▁tel	-9.81984
gb	-9.8199
ory	-9.82012
▁elizabeth	-9.82095
ther	-9.82098
▁choose	-9.82195
▁withdraw	-9.8224
▁suspension	-9.82344
▁ultra	-9.82345
▁woe	-9.82349
▁PA	-9.82376
▁cannot	-9.825
old	-9.82503
▁hilarious	-9.82594
▁FDA	-9.82604
▁flee	-9.82622
▁supporter	-9.82635
▁wine	-9.82657
▁isnt	-9.82762
▁ross	-9.82845
▁estimate	-9.82845
▁juventus	-9.82845
▁taliban	-9.82845
▁kumar	-9.82854
▁islamic	-9.82859
▁paint	-9.82885
ella	-9.82972
▁twin	-9.8303
▁coffee	-9.83096
▁violate	-9.83096
▁solar	-9.83144
▁christian	-9.83348
15	-9.83388
▁$100	-9.83388
▁HP	-9.83418
can	-9.83456
rk	-9.83578
▁alabama	-9.83601
▁birmingham	-9.83601
▁ghost	-9.83601
▁instead	-9.83603
▁sharp	-9.83617
▁PDP	-9.83885
▁steam	-9.83901
▁jeffre	-9.8393
ash	-9.84056
▁reporter	-9.84093
▁bayelsa	-9.84108
▁urban	-9.84108
▁emery	-9.84109
▁sar	-9.84254
▁alone	-9.84326
▁storage	-9.84362
▁sight	-9.84364
▁gender	-9.84397
▁coal	-9.84488
▁settle	-9.84611
▁cigarette	-9.84617
▁something	-9.84618
▁uganda	-9.84618
▁AC	-9.84648
▁hat	-9.84689
if	-9.84802
ath	-9.84812
tor	-9.84813
▁select	-9.84873
▁square	-9.84874
▁GP	-9.84892
▁horse	-9.84918
▁fla	-9.84975
ky	-9.85019
▁dun	-9.85094
▁aircraft	-9.85129
▁arizona	-9.85129
▁association	-9.85129
▁thailand	-9.85143
▁bet	-9.85224
rie	-9.85304
▁36	-9.85307
▁chemical	-9.8539
▁pep	-9.85505
▁bright	-9.85593
▁size	-9.85643
▁valley	-9.85657
ick	-9.85693
▁hunter	-9.85725
▁famous	-9.85796
▁400	-9.85876
▁twice	-9.85903
▁buck	-9.86027
ren	-9.86137
▁tournament	-9.86162
▁century	-9.86162
▁creator	-9.86162
▁AMD	-9.86181
▁pra	-9.86208
▁ge	-9.86224
▁cuomo	-9.86421
▁takeaway	-9.86422
war	-9.86655
▁commercial	-9.86682
▁arbery	-9.86682
▁basketball	-9.86682
sen	-9.86698
▁effective	-9.86719
▁setu	-9.86768
▁majority	-9.86814
▁princess	-9.86876
ea	-9.86901
cal	-9.86957
▁medicine	-9.86957
car	-9.86972
▁angeles	-9.86996
▁author	-9.87085
ox	-9.87186
▁ski	-9.87204
▁adult	-9.87207
▁64	-9.87208
▁carolina	-9.87213
▁piece	-9.87215
▁refugee	-9.87239
▁tipp	-9.87354
▁ceremony	-9.87467
▁helicopter	-9.87467
▁kentucky	-9.87467
▁mysterious	-9.87467
ious	-9.87506
▁appointment	-9.87535
▁premiere	-9.87657
▁adopt	-9.87686
▁CB	-9.87703
▁capacity	-9.8773
▁ahma	-9.87737
▁slide	-9.87752
▁minority	-9.87752
▁RB	-9.87831
▁coup	-9.87835
▁jam	-9.87891
head	-9.8797
▁vizag	-9.87994
▁evan	-9.88004
▁criticise	-9.88014
ated	-9.88211
▁coalition	-9.88259
▁envoy	-9.88259
▁nomination	-9.88259
▁gym	-9.88265
vert	-9.88313
▁34	-9.88334
▁takeover	-9.88375
▁friendly	-9.8844
▁equal	-9.8845
▁wound	-9.88524
gue	-9.88526
▁toyota	-9.88527
▁encourage	-9.88529
▁sink	-9.88537
▁route	-9.88673
▁publish	-9.88782
▁critic	-9.88784
▁custody	-9.8879
▁professor	-9.8879
▁reflect	-9.8879
▁remdesivir	-9.8879
▁NI	-9.88959
mar	-9.89042
lon	-9.89064
▁mega	-9.89209
▁sure	-9.89254
▁id	-9.89314
▁dept	-9.8932
▁grocery	-9.89324
▁language	-9.89324
▁carbon	-9.89379
▁42	-9.8953
▁impose	-9.89592
▁affair	-9.89592
▁exist	-9.89612
▁missile	-9.89616
▁ok	-9.89624
▁ros	-9.89648
▁riot	-9.89668
wal	-9.89794
nu	-9.89801
▁buffett	-9.89863
▁ger	-9.89898
▁imran	-9.89912
▁mary	-9.90012
▁simon	-9.90017
▁150	-9.90051
▁evacuate	-9.9013
▁reunion	-9.90131
▁advise	-9.90257
ting	-9.90302
▁glass	-9.90533
▁counter	-9.90584
▁whole	-9.90601
▁bachchan	-9.90672
▁elderly	-9.90672
700	-9.90685
▁mag	-9.90714
▁cheat	-9.90717
ban	-9.90819
tr	-9.90831
▁santa	-9.90902
▁pot	-9.90916
▁confident	-9.90935
▁mercedes	-9.90943
▁eagle	-9.90944
▁sense	-9.90965
▁BS	-9.90968
▁michelle	-9.91216
▁rural	-9.91217
▁cowboy	-9.91218
▁pair	-9.9133
tan	-9.91457
▁respect	-9.91489
▁corporate	-9.91489
▁isolate	-9.91489
▁deserve	-9.91489
▁personnel	-9.9149
▁XI	-9.91491
▁apartment	-9.91514
tri	-9.91579
oli	-9.91587
▁APC	-9.91679
▁dam	-9.91689
▁perry	-9.91711
▁firefighter	-9.91763
▁manifesto	-9.91763
▁baseball	-9.91768
▁aarogya	-9.92038
▁religious	-9.92038
▁bottom	-9.92039
▁barrier	-9.92059
▁NC	-9.92081
▁able	-9.92096
uff	-9.92096
▁cy	-9.92153
▁labourer	-9.92213
▁danger	-9.92311
▁concept	-9.92313
▁bon	-9.92353
ville	-9.92354
ability	-9.92359
▁37	-9.92566
▁editor	-9.92614
▁midfielder	-9.92651
hy	-9.92828
▁jan	-9.92831
▁disappoint	-9.92838
▁crucial	-9.92867
▁nifty	-9.92867
▁shirt	-9.92867
65	-9.92872
sco	-9.92874
▁rapid	-9.92892
▁appearance	-9.92898
▁iron	-9.92904
▁ken	-9.92962
list	-9.93051
▁enforce	-9.93127
▁comedy	-9.93134
▁pregnancy	-9.93144
▁society	-9.93144
▁page	-9.93153
▁chicken	-9.93164
uk	-9.93206
▁eric	-9.93236
berg	-9.93308
75	-9.93415
▁SUV	-9.93423
▁protocol	-9.93423
▁shame	-9.93432
▁type	-9.93472
ics	-9.93491
▁der	-9.93533
▁rating	-9.93575
abh	-9.93665
rian	-9.9368
▁playstation	-9.93703
▁nadal	-9.93703
▁xi	-9.93723
▁favorite	-9.93987
▁sampp	-9.94006
▁pune	-9.94048
▁nicola	-9.94049
ef	-9.94067
ros	-9.94082
▁jenni	-9.94088
pt	-9.9423
▁nirmala	-9.94263
▁VR	-9.9427
wo	-9.94382
bank	-9.94458
len	-9.94512
▁hockey	-9.94545
▁petition	-9.94545
▁sondland	-9.94545
▁aramco	-9.94545
▁brazilian	-9.94612
▁53	-9.94782
▁seem	-9.9479
▁pool	-9.94796
ade	-9.94817
▁violent	-9.94827
▁murray	-9.94827
▁chill	-9.94945
▁dow	-9.9498
▁metro	-9.9506
▁jon	-9.95078
▁explosion	-9.95111
▁marathon	-9.95111
▁contest	-9.95114
▁theatre	-9.95115
▁cree	-9.95117
▁del	-9.95123
▁PSG	-9.95138
▁partnership	-9.95139
▁clinic	-9.9515
▁2018	-9.95152
▁gare	-9.95158
qua	-9.95277
▁bal	-9.95296
▁duo	-9.95306
val	-9.95315
nam	-9.95369
down	-9.95394
▁confidence	-9.95395
▁immigration	-9.95395
▁bob	-9.9541
▁yemen	-9.95415
▁swim	-9.95417
▁quiz	-9.95425
▁designer	-9.95481
▁environment	-9.95525
▁odds	-9.95635
▁yield	-9.95683
▁ear	-9.9571
▁then	-9.95769
▁trail	-9.95775
▁kan	-9.95914
▁assassin	-9.95965
▁caution	-9.95965
▁guardiola	-9.95965
▁infrastructure	-9.95965
▁airbnb	-9.95965
▁surpass	-9.95965
low	-9.96038
bit	-9.96065
12	-9.96212
rin	-9.9622
▁chicago	-9.96252
▁desperate	-9.96252
▁dortmund	-9.96252
▁referendum	-9.96252
▁kitchen	-9.9626
one	-9.963
▁collect	-9.96409
▁ethiopia	-9.96539
▁blind	-9.96541
▁reward	-9.96698
▁realme	-9.96737
▁continu	-9.96806
▁solskjaer	-9.96827
▁superstar	-9.96851
▁crop	-9.96906
▁curfew	-9.97116
▁priority	-9.97116
▁WA	-9.97117
▁borrow	-9.97119
▁snub	-9.97119
▁slay	-9.97222
▁$15	-9.97313
▁76	-9.97321
▁72	-9.97334
yre	-9.97351
ese	-9.97365
▁clinton	-9.97406
▁dominate	-9.97406
▁den	-9.97462
▁mr	-9.97463
hr	-9.97474
800	-9.97545
rat	-9.97677
▁cristiano	-9.97697
▁depression	-9.97697
▁sugar	-9.97727
▁nest	-9.9776
▁panic	-9.97771
▁significant	-9.97797
▁ferry	-9.97798
▁DA	-9.97822
▁brief	-9.97898
▁malaysian	-9.97928
▁devastate	-9.97989
▁backlash	-9.97989
▁coronation	-9.98013
▁mel	-9.98035
aj	-9.98053
▁qualifier	-9.98075
▁bare	-9.98169
▁lend	-9.98208
▁recommend	-9.98244
▁forever	-9.98248
▁vision	-9.98302
▁keyboard	-9.98348
▁IR	-9.98401
▁anxiety	-9.98574
▁fortnite	-9.98574
▁prompt	-9.98575
▁editorial	-9.98583
▁delta	-9.98613
ology	-9.98634
▁mat	-9.98764
▁jobless	-9.98832
▁wheel	-9.98869
▁55	-9.98894
▁footage	-9.989
▁pur	-9.98907
ire	-9.98975
▁finde	-9.99056
▁54	-9.99092
▁militant	-9.99163
▁fiscal	-9.99163
▁rapper	-9.99177
▁sensex	-9.99204
▁brian	-9.99334
▁bind	-9.99396
▁adapt	-9.99425
▁floor	-9.99459
▁eastern	-9.99461
lie	-9.99473
▁ID	-9.99496
▁contain	-9.99507
▁steven	-9.99537
town	-9.99579
▁nazi	-9.99647
▁LIVE	-9.99756
▁saint	-9.99757
▁sal	-9.99798
▁gulf	-10.0006
▁fury	-10.0022
▁milan	-10.0025
▁anger	-10.0026
▁tam	-10.0028
cl	-10.003
▁PS	-10.0032
▁deploy	-10.0032
▁distribute	-10.0035
▁greece	-10.0035
▁footballer	-10.0046
▁lui	-10.0047
▁walt	-10.0048
▁boot	-10.0049
cient	-10.0054
▁gra	-10.0054
▁apologize	-10.0065
▁divorce	-10.0065
▁professional	-10.0065
▁install	-10.0065
▁redmi	-10.0067
▁liga	-10.007
ssa	-10.0072
▁license	-10.0085
▁kany	-10.0085
▁semi	-10.0089
▁mandatory	-10.0095
▁mosque	-10.0095
▁alliance	-10.0096
▁angry	-10.0098
▁merger	-10.0101
▁tra	-10.0122
▁prospect	-10.0125
▁tragedy	-10.0125
▁assam	-10.0127
▁photographer	-10.0133
▁gh	-10.0136
▁brave	-10.0136
▁CI	-10.0147
▁red	-10.0149
▁theft	-10.0153
▁communication	-10.0156
▁furlough	-10.0156
▁glasgow	-10.0156
▁memorial	-10.0156
▁orange	-10.0156
▁spotlight	-10.0159
▁wework	-10.0168
▁maha	-10.0169
▁colin	-10.018
▁commerce	-10.0186
▁netizen	-10.0186
▁sterling	-10.0187
▁someone	-10.0191
▁please	-10.0197
▁prayer	-10.0199
▁revolution	-10.0201
cher	-10.0204
▁zoo	-10.0212
▁sc	-10.0214
▁volunteer	-10.0216
▁licence	-10.0216
▁greg	-10.0216
▁anyone	-10.0218
▁comic	-10.0219
▁fate	-10.024
▁met	-10.0243
ncy	-10.0244
▁ayodhya	-10.0247
▁individual	-10.0247
▁resort	-10.0247
▁crazy	-10.0247
▁bihar	-10.0249
▁$50	-10.025
▁computer	-10.0251
hal	-10.0256
▁men	-10.0262
▁gunman	-10.0267
▁chu	-10.0274
▁neil	-10.0274
▁mountain	-10.0277
▁PH	-10.0277
▁cork	-10.0278
▁busy	-10.0282
▁fully	-10.0292
▁urgent	-10.0297
▁joint	-10.0304
million	-10.0306
▁male	-10.0306
▁regret	-10.0308
▁salman	-10.0314
▁cur	-10.0319
sis	-10.0326
▁strength	-10.0334
ls	-10.0338
▁independent	-10.0339
▁crude	-10.0339
▁gordon	-10.0339
▁emb	-10.034
maker	-10.0342
▁mas	-10.0344
▁tower	-10.0347
▁kylie	-10.0349
▁tata	-10.0361
mark	-10.0362
▁ang	-10.0366
tal	-10.0368
▁eastenders	-10.037
▁bushfire	-10.037
▁morales	-10.0371
ski	-10.0376
900	-10.0387
▁pakistani	-10.0389
▁abu	-10.0398
▁smuggle	-10.0401
▁surveillance	-10.0401
▁jimmy	-10.0402
▁120	-10.0403
▁parade	-10.0406
▁ajit	-10.0425
yan	-10.0426
▁scooter	-10.0432
▁nominate	-10.0432
▁walker	-10.0433
▁containment	-10.0435
▁louis	-10.0436
▁moore	-10.0437
nell	-10.0439
▁lande	-10.0455
▁mexican	-10.0463
▁creative	-10.0463
▁division	-10.0463
▁vijay	-10.0463
tur	-10.0467
▁ECB	-10.0468
▁reverse	-10.047
▁unity	-10.0471
▁boom	-10.0471
▁cope	-10.0478
▁jio	-10.0486
▁unai	-10.0487
ada	-10.0493
▁guidance	-10.0494
▁odisha	-10.0494
▁minor	-10.0501
▁lineup	-10.0506
▁earthquake	-10.0525
▁gomez	-10.0525
▁52	-10.0526
▁norm	-10.0528
▁nab	-10.0529
▁advisor	-10.0532
far	-10.0533
▁dine	-10.0537
▁enable	-10.0539
BC	-10.0539
▁markle	-10.0556
▁emission	-10.0557
▁sequel	-10.0557
▁survival	-10.0557
▁BE	-10.0557
▁curve	-10.056
▁pol	-10.0566
▁$20	-10.0569
▁cong	-10.0586
▁probably	-10.0588
▁shrink	-10.0588
▁ocean	-10.0588
▁difference	-10.0589
▁roundup	-10.0594
▁3000	-10.0596
tta	-10.0599
▁$8	-10.0606
sey	-10.0607
▁beef	-10.062
▁mandalorian	-10.062
▁lottery	-10.062
▁faith	-10.062
▁bharat	-10.062
pc	-10.0622
▁sexy	-10.0624
▁root	-10.0627
ring	-10.0642
▁cooke	-10.0642
▁republic	-10.0645
▁apart	-10.0647
▁output	-10.0652
▁OK	-10.0652
▁2022	-10.0652
▁complex	-10.0652
▁jewish	-10.0653
▁affordable	-10.0653
▁virginia	-10.0658
cent	-10.0658
▁solo	-10.066
▁airway	-10.0669
▁lover	-10.0673
row	-10.0674
▁engage	-10.0681
▁knife	-10.0683
▁bury	-10.0688
▁tele	-10.0688
▁planet	-10.0692
35	-10.0713
▁showcase	-10.0716
▁architecture	-10.0717
▁permit	-10.0719
▁fold	-10.0719
all	-10.072
▁dramatic	-10.0721
8000	-10.0723
criticize	-10.073
▁selfie	-10.0733
cut	-10.0733
▁distribution	-10.0748
▁hotspot	-10.0748
▁ATP	-10.075
▁pace	-10.0757
▁strict	-10.0761
▁sander	-10.0777
▁immigrant	-10.078
▁pogba	-10.078
▁bundle	-10.078
▁grace	-10.0782
▁headphone	-10.0783
ua	-10.0796
ever	-10.0804
▁AB	-10.0807
ep	-10.0812
▁stable	-10.0825
▁nod	-10.0833
▁subscription	-10.0844
▁crystal	-10.0844
▁adorable	-10.0844
uri	-10.0845
▁sample	-10.0845
▁relaxation	-10.085
fall	-10.0863
▁flower	-10.0868
▁MA	-10.0869
run	-10.0872
mit	-10.0875
▁ci	-10.0876
▁independence	-10.0877
▁delete	-10.0879
▁lane	-10.0881
▁buyer	-10.0885
▁cons	-10.0897
▁outline	-10.0898
▁nature	-10.091
▁flash	-10.0912
▁wolf	-10.0912
▁kiss	-10.0916
▁shot	-10.0922
fo	-10.0927
win	-10.093
▁gro	-10.0935
▁meme	-10.0936
▁francis	-10.094
▁neighbour	-10.0942
▁nvidia	-10.0942
▁regulation	-10.0942
▁bounce	-10.0942
▁remake	-10.0943
▁diesel	-10.0944
▁iowa	-10.0948
▁92	-10.0952
▁100000	-10.0953
▁wonder	-10.0973
▁rand	-10.0975
▁academy	-10.0975
▁aussie	-10.0975
▁describe	-10.0975
▁queue	-10.0975
▁laugh	-10.098
▁doc	-10.098
▁elite	-10.098
for	-10.0982
▁quarterly	-10.0983
▁andhra	-10.0983
▁scar	-10.0988
▁labor	-10.0996
▁quebec	-10.1008
▁reply	-10.1029
▁bang	-10.103
▁keen	-10.1032
▁mario	-10.1037
▁astro	-10.1038
▁mer	-10.1039
▁outrage	-10.1041
▁unrest	-10.1041
▁wright	-10.1042
▁telecom	-10.1044
▁interim	-10.1046
▁stat	-10.1068
▁info	-10.107
▁mod	-10.1073
▁pant	-10.1074
▁liberia	-10.1074
▁cocaine	-10.1075
▁spotify	-10.1078
katie	-10.109
▁milk	-10.1093
ress	-10.11
▁eco	-10.1104
▁satellite	-10.1107
▁outdoor	-10.1107
bel	-10.1108
▁revise	-10.1109
▁sing	-10.1122
▁len	-10.113
▁tale	-10.1135
▁shopper	-10.1137
▁evacuation	-10.114
▁yellow	-10.114
mbo	-10.114
▁anything	-10.114
▁neville	-10.1142
▁IPL	-10.1142
▁bia	-10.1143
▁patrick	-10.1144
▁nike	-10.1149
sar	-10.1154
▁bru	-10.1155
▁successful	-10.116
▁palestinian	-10.1174
▁universal	-10.1174
▁gallery	-10.1174
▁unique	-10.1178
▁tag	-10.1179
▁ji	-10.1183
▁cheer	-10.1195
▁laud	-10.1195
95	-10.1201
▁ring	-10.1203
▁dave	-10.1206
▁enhance	-10.1207
▁cancellation	-10.1207
▁vettel	-10.1208
▁bre	-10.1208
▁flip	-10.1208
▁graham	-10.1209
▁audi	-10.121
▁AD	-10.1212
▁commentary	-10.1214
▁alien	-10.1221
▁temporary	-10.1221
▁pete	-10.1222
▁fu	-10.1223
▁hopeful	-10.1224
▁legacy	-10.1241
ington	-10.1243
▁seriously	-10.1247
▁rebel	-10.1255
▁rover	-10.1257
fu	-10.1259
urgen	-10.1267
▁MC	-10.1268
▁chrome	-10.1274
▁pharma	-10.1274
▁cluster	-10.1275
▁innovation	-10.1275
▁opponent	-10.1275
▁pacific	-10.1275
▁sweep	-10.1275
vis	-10.1297
▁detention	-10.1309
▁embrace	-10.1309
▁horoscope	-10.1309
▁mcgregor	-10.1309
▁advisory	-10.1336
▁alibaba	-10.1343
▁junior	-10.1343
▁tanzania	-10.1343
▁layoff	-10.1344
▁kal	-10.1346
▁workplace	-10.1348
▁bonus	-10.1348
▁playoff	-10.1352
▁ward	-10.1353
lam	-10.1362
▁kh	-10.1365
▁staffer	-10.1372
▁HBO	-10.1377
▁louisiana	-10.1377
▁ian	-10.1377
▁gig	-10.1381
▁oust	-10.1385
▁boo	-10.1388
▁5000	-10.1401
▁attract	-10.1404
ms	-10.1405
▁recruit	-10.1408
▁nevada	-10.1411
▁shelter	-10.1411
▁brooklyn	-10.1411
▁visitor	-10.1412
▁IMF	-10.1412
▁nationwide	-10.1413
▁toilet	-10.1413
▁hawk	-10.1416
▁perth	-10.142
▁formation	-10.143
▁render	-10.1437
▁CP	-10.1438
▁tight	-10.1441
ette	-10.1443
app	-10.1445
▁bizarre	-10.1446
▁charlotte	-10.1446
▁resistance	-10.1446
▁studie	-10.1447
▁memory	-10.1447
▁toxic	-10.1447
elle	-10.1457
▁NE	-10.1465
▁allie	-10.1478
▁racism	-10.148
▁EP	-10.1481
▁wildfire	-10.1481
▁kenyan	-10.1481
point	-10.1482
dar	-10.1482
▁tablet	-10.1493
▁hum	-10.1495
▁han	-10.1514
▁associate	-10.1515
▁venice	-10.1515
▁average	-10.1515
▁horn	-10.1516
▁library	-10.1516
▁putt	-10.1517
fl	-10.1522
▁math	-10.1529
▁fare	-10.1529
▁aviation	-10.155
▁titan	-10.1551
▁ditch	-10.1551
▁shark	-10.1552
▁pickup	-10.156
▁barca	-10.1562
▁shadow	-10.1564
▁advocate	-10.1584
▁motogp	-10.1584
▁object	-10.1584
▁hazard	-10.1584
▁salon	-10.1596
▁pact	-10.1598
▁$25	-10.16
▁allen	-10.1606
▁66	-10.1619
▁conversation	-10.1619
py	-10.1622
iss	-10.1624
of	-10.1624
▁legendary	-10.1625
400	-10.1626
▁tan	-10.1642
▁sette	-10.1643
▁ML	-10.1643
▁currency	-10.1654
▁enemy	-10.1654
▁pretty	-10.1654
▁weird	-10.1655
▁clip	-10.1656
▁harassment	-10.1656
tha	-10.1657
dic	-10.166
▁char	-10.1661
▁IC	-10.1673
▁fallout	-10.1676
lis	-10.1676
▁os	-10.1682
▁51	-10.1683
ys	-10.1683
▁immunity	-10.1689
▁leicester	-10.1689
45	-10.1693
▁proof	-10.1696
▁household	-10.1698
▁$9	-10.1698
uc	-10.1704
lia	-10.1706
▁acte	-10.1716
▁rider	-10.1717
▁confusion	-10.1725
▁attention	-10.1725
▁yourself	-10.1725
▁liberal	-10.1725
star	-10.1726
▁dur	-10.1728
▁om	-10.173
▁basic	-10.1733
▁giuliani	-10.176
▁horizon	-10.176
▁cartoon	-10.176
▁lampard	-10.1761
▁bully	-10.1764
▁PD	-10.1765
▁addo	-10.1774
▁conflict	-10.1796
▁garrett	-10.1796
▁hyundai	-10.1796
▁wisconsin	-10.1796
▁equipment	-10.1797
▁AR	-10.1799
▁dragon	-10.1807
▁ranking	-10.1814
tz	-10.1822
cho	-10.1829
▁calendar	-10.1832
▁resolution	-10.1832
tive	-10.1833
▁$12	-10.1835
▁lip	-10.1841
▁swear	-10.186
▁admission	-10.1867
▁graduate	-10.1867
▁trophy	-10.1867
▁inflation	-10.1867
▁feed	-10.187
▁theater	-10.1872
▁grande	-10.1876
77	-10.1879
▁bump	-10.1881
▁shell	-10.1882
▁grade	-10.1883
▁taxis	-10.1887
▁mayo	-10.1895
▁yu	-10.1895
▁proud	-10.1896
▁deficit	-10.1903
▁alberta	-10.1903
▁apology	-10.1904
▁promotion	-10.1904
▁workforce	-10.1911
▁replacement	-10.1913
hold	-10.1913
▁ant	-10.1928
▁palm	-10.1933
▁djokovic	-10.1939
▁encounter	-10.1939
▁halloween	-10.1939
▁dinner	-10.194
▁schiff	-10.194
▁rein	-10.1941
▁idol	-10.1942
▁lung	-10.1946
▁lord	-10.1949
▁broadcast	-10.1952
she	-10.1956
ima	-10.1965
▁hol	-10.1966
▁brook	-10.1971
▁EURUSD	-10.1976
hood	-10.1976
graph	-10.1977
▁ariana	-10.1977
▁vital	-10.1978
▁civilian	-10.1979
▁prefer	-10.1983
MA	-10.1983
▁native	-10.1985
▁dean	-10.1994
▁NA	-10.2005
▁embassy	-10.2012
▁resumption	-10.2012
▁rupee	-10.2012
▁oscar	-10.2013
ball	-10.202
▁timeline	-10.2021
▁feud	-10.2024
tech	-10.2044
▁ukrainian	-10.2049
▁lorry	-10.2049
▁unlock	-10.2054
mor	-10.2055
illa	-10.2065
▁dal	-10.2072
sse	-10.2085
▁edward	-10.2087
▁46	-10.2088
▁transformation	-10.2091
▁41	-10.2091
▁fever	-10.2096
rate	-10.2106
▁spacex	-10.2108
▁soft	-10.2111
▁gene	-10.2113
▁gaza	-10.2116
▁sim	-10.2122
▁repatriation	-10.2122
▁munich	-10.2122
▁halve	-10.2122
▁47	-10.2124
▁2017	-10.2127
$1	-10.213
room	-10.2145
tti	-10.2148
▁load	-10.215
▁bin	-10.2154
▁disrupt	-10.2154
▁dundalk	-10.2159
jan	-10.216
▁sch	-10.2161
▁grave	-10.2163
▁var	-10.2175
▁57	-10.2176
▁brady	-10.2191
▁priyanka	-10.2196
▁themselves	-10.2196
▁greek	-10.2196
▁patrol	-10.2196
aternity	-10.2196
▁livestream	-10.2198
▁coverage	-10.2204
▁shower	-10.2207
▁ole	-10.2226
▁gut	-10.2229
▁population	-10.2233
▁bottle	-10.2233
▁repeat	-10.2233
▁GAA	-10.2236
▁teammate	-10.2239
▁chef	-10.2245
▁Y	-10.2252
MC	-10.2253
▁dry	-10.2258
▁hug	-10.2259
▁arrival	-10.227
▁emmerdale	-10.227
▁uddhav	-10.227
▁savage	-10.227
▁fintech	-10.2271
▁87	-10.2278
▁wash	-10.2283
▁teenage	-10.23
▁racial	-10.2307
▁argentina	-10.2308
▁function	-10.2308
glitz	-10.2309
ux	-10.231
▁ze	-10.231
▁shoe	-10.2312
▁EV	-10.2312
▁jamie	-10.2314
▁egg	-10.2327
▁miner	-10.2329
▁touche	-10.2329
▁rushe	-10.233
18	-10.2341
phone	-10.2343
▁brilliant	-10.2345
▁melbourne	-10.2345
▁treasury	-10.2345
▁operator	-10.2345
cr	-10.2346
▁tru	-10.2347
▁jerry	-10.2347
▁romance	-10.2348
▁warrant	-10.2349
▁stance	-10.2356
▁cafe	-10.2359
nnie	-10.2364
▁solve	-10.2365
▁soul	-10.2366
300	-10.2372
more	-10.2375
mba	-10.2377
▁clinical	-10.2378
▁ISI	-10.2383
▁tragic	-10.2384
▁porn	-10.2385
▁ME	-10.2389
▁flaw	-10.239
▁67	-10.2404
▁kane	-10.241
▁uk	-10.2414
▁kaepernick	-10.2421
▁vancouver	-10.2421
▁regular	-10.2421
▁nascar	-10.2421
▁grey	-10.2421
▁joshua	-10.2421
▁repair	-10.2422
▁NDC	-10.2422
▁powell	-10.2423
▁qua	-10.2432
▁baker	-10.2437
▁reader	-10.2448
awa	-10.2448
▁newborn	-10.2451
▁lib	-10.2455
▁syndrome	-10.2459
▁terrify	-10.2459
▁hadid	-10.2459
▁confront	-10.246
▁patent	-10.2463
▁ghanaian	-10.2465
▁I	-10.2466
▁TS	-10.2468
fin	-10.2472
▁85	-10.2489
▁theme	-10.249
▁discovery	-10.2496
▁plymouth	-10.2497
▁vol	-10.2503
▁zo	-10.2504
▁bryant	-10.2505
▁delight	-10.2507
▁flow	-10.2516
▁brom	-10.2527
bon	-10.2535
▁moscow	-10.2536
▁mislead	-10.2536
▁plasma	-10.2536
▁compete	-10.2536
▁medal	-10.2536
▁mamata	-10.2538
▁lyon	-10.2538
▁funny	-10.2538
▁lash	-10.2539
▁tran	-10.2542
▁congo	-10.2547
▁mal	-10.2547
▁SM	-10.2551
7000	-10.2554
▁fre	-10.2559
lit	-10.2563
▁achieve	-10.2572
set	-10.2573
▁favour	-10.2573
▁ambulance	-10.2574
▁bubble	-10.2574
▁lebron	-10.2574
▁separate	-10.2574
▁miller	-10.2578
mbi	-10.2583
▁fill	-10.2583
▁cole	-10.2584
28	-10.2588
▁RT	-10.2592
▁bow	-10.26
▁oppos	-10.2602
▁academic	-10.2613
▁convince	-10.2613
▁exploit	-10.2613
▁broad	-10.2615
▁radical	-10.2616
eng	-10.2617
vy	-10.2631
ice	-10.2635
▁implement	-10.2648
eddie	-10.2649
▁62	-10.2651
▁graduation	-10.2651
▁venture	-10.2651
▁certain	-10.2651
▁haryana	-10.2651
▁nightmare	-10.2651
▁morrison	-10.2654
▁undergo	-10.2659
▁improvement	-10.266
ium	-10.2661
ano	-10.2661
▁thriller	-10.2671
▁upset	-10.2675
not	-10.2675
▁demo	-10.268
▁cooper	-10.2685
▁entrepreneur	-10.2687
▁quest	-10.2687
▁starr	-10.2687
▁diet	-10.2687
▁impossible	-10.269
▁streak	-10.269
▁console	-10.269
▁nominee	-10.269
▁marine	-10.269
▁softbank	-10.2691
200	-10.2699
nda	-10.27
ston	-10.2711
▁dor	-10.2712
▁endorse	-10.2727
dha	-10.2729
▁accelerate	-10.2729
▁guarantee	-10.2729
▁gamble	-10.2729
▁queensland	-10.2729
▁sheriff	-10.273
dia	-10.273
▁2016	-10.2734
▁pon	-10.2736
▁qu	-10.2742
17	-10.2751
▁complain	-10.2753
tru	-10.2765
▁seoul	-10.2769
▁DJ	-10.2769
▁graphic	-10.2769
▁priest	-10.277
▁honda	-10.277
▁briefe	-10.2771
▁sustainable	-10.2771
iya	-10.2771
istic	-10.2773
▁echo	-10.2775
▁kha	-10.2785
▁tab	-10.2788
▁cute	-10.2795
▁ter	-10.2801
▁overseas	-10.2808
▁colorado	-10.2809
▁rap	-10.2809
▁bake	-10.281
pin	-10.2829
▁blaze	-10.2834
▁journal	-10.2838
▁tea	-10.2846
▁asylum	-10.2847
▁dhoni	-10.2847
▁miami	-10.2849
▁bruce	-10.285
▁fille	-10.2851
▁jedi	-10.2853
▁prix	-10.2854
▁737	-10.2856
▁dish	-10.2857
▁audit	-10.2868
▁gala	-10.2877
▁arab	-10.288
▁inform	-10.2885
▁lok	-10.2885
bert	-10.2886
▁collision	-10.2887
▁bailout	-10.2891
mate	-10.29
▁OS	-10.2902
hen	-10.2905
ue	-10.2915
▁ration	-10.2916
▁hitt	-10.2918
▁bit	-10.2923
▁advantage	-10.2927
▁portugal	-10.2927
▁thug	-10.2927
▁mala	-10.2927
▁adventure	-10.2927
▁thai	-10.293
bal	-10.2936
play	-10.2942
▁permanent	-10.2948
▁mess	-10.2949
lf	-10.2953
▁globally	-10.2956
▁policeman	-10.2965
▁SPFL	-10.2967
▁catholic	-10.2967
▁colombia	-10.2967
▁tennessee	-10.2967
▁branch	-10.2967
▁exec	-10.2968
▁DNA	-10.297
▁francisco	-10.2971
▁MCO	-10.2972
▁musical	-10.2974
RA	-10.2983
▁corn	-10.2992
pri	-10.2993
▁completely	-10.2999
king	-10.3004
▁accidental	-10.3007
▁collaboration	-10.3007
▁previous	-10.3007
▁russell	-10.3007
▁speculation	-10.3007
▁merkel	-10.3007
▁rohit	-10.3007
▁furious	-10.3007
▁ron	-10.3015
49	-10.3016
▁mustang	-10.3017
▁habit	-10.3033
▁hor	-10.3033
china	-10.3042
▁poste	-10.3044
▁craig	-10.3048
▁visual	-10.3048
▁evil	-10.3048
▁diamond	-10.3048
▁ref	-10.3051
▁mouse	-10.3054
▁controller	-10.3056
ative	-10.307
600	-10.3083
▁VP	-10.3085
▁quickly	-10.3086
▁fault	-10.3088
▁dominic	-10.3089
▁NSW	-10.3089
▁chopra	-10.309
▁stoke	-10.309
▁hindu	-10.309
kufo	-10.3094
▁childhood	-10.3094
ori	-10.3104
▁tie	-10.3107
▁NHL	-10.3114
ndi	-10.3126
▁alan	-10.3127
▁gaethje	-10.3129
▁depend	-10.3129
▁alexander	-10.3129
▁submit	-10.313
▁MLA	-10.3136
▁AS	-10.314
▁prof	-10.3151
▁medic	-10.3152
▁copy	-10.3159
▁88	-10.316
▁andre	-10.3164
▁goldman	-10.3164
▁ap	-10.3166
▁GBPUSD	-10.3169
▁portfolio	-10.3169
▁shropshire	-10.3169
▁universe	-10.317
oon	-10.3175
▁traditional	-10.3176
4000	-10.3184
▁roman	-10.3188
▁underway	-10.32
▁acquisition	-10.321
▁plummet	-10.321
▁strategic	-10.321
▁itself	-10.321
▁sancho	-10.3212
▁aaron	-10.3213
exceed	-10.3214
▁ree	-10.3216
▁jar	-10.3224
▁GT	-10.3225
ification	-10.3229
▁kir	-10.3231
▁sec	-10.3234
▁rout	-10.3236
esh	-10.3237
▁sponsor	-10.3251
dale	-10.3252
▁cautious	-10.3252
▁exposure	-10.3252
▁rohingya	-10.3252
pan	-10.3253
▁smile	-10.3254
▁hammer	-10.3255
▁holder	-10.3258
▁sarah	-10.3261
▁ax	-10.3265
die	-10.3275
▁IA	-10.3276
mine	-10.3279
▁cable	-10.329
▁alphabet	-10.3293
▁welfare	-10.3293
load	-10.3297
▁clock	-10.3297
▁SS	-10.3301
▁brew	-10.3302
▁cord	-10.3304
lea	-10.3305
▁myles	-10.3306
tric	-10.3308
▁josh	-10.3328
▁tumble	-10.3334
▁plague	-10.3335
▁method	-10.3335
▁flagship	-10.3336
▁subway	-10.3339
ica	-10.3343
▁cow	-10.3345
vic	-10.3346
era	-10.3358
▁colon	-10.336
ular	-10.3372
▁calm	-10.3374
▁cov	-10.3374
▁gallagher	-10.3376
▁intensify	-10.3376
▁stewart	-10.3376
▁error	-10.3376
▁burger	-10.3377
▁convert	-10.338
▁ITV	-10.3381
▁strengthen	-10.3383
▁RS	-10.3394
▁accuser	-10.3399
water	-10.3408
▁pm	-10.3413
▁offensive	-10.3418
▁optimism	-10.3418
▁dundee	-10.3418
▁ligu	-10.3418
banese	-10.3419
▁profile	-10.3419
▁UC	-10.342
▁spell	-10.342
▁knight	-10.3421
▁babie	-10.3421
▁airbus	-10.3421
▁scan	-10.3422
▁monster	-10.3422
▁gameplay	-10.3429
▁electricity	-10.3429
▁examine	-10.343
ali	-10.3432
▁61	-10.3438
▁warning	-10.3441
▁rid	-10.3443
▁101	-10.3448
▁accusation	-10.346
▁insight	-10.346
▁msmes	-10.346
▁reboot	-10.346
▁lynch	-10.346
▁provision	-10.346
▁brawl	-10.346
▁determine	-10.346
▁louth	-10.3464
▁potter	-10.3464
▁drill	-10.3466
▁taxi	-10.3467
wear	-10.3467
des	-10.3477
▁wipe	-10.3479
ora	-10.3479
▁82	-10.3481
▁dive	-10.3482
▁indigenous	-10.3502
▁vodafone	-10.3502
▁volume	-10.3502
▁flout	-10.3502
▁northeast	-10.3502
▁comedian	-10.3502
▁SP	-10.3502
▁kyle	-10.3504
rock	-10.3504
▁cooperation	-10.3506
ough	-10.3516
▁HD	-10.352
▁musician	-10.3522
rick	-10.3523
▁aside	-10.353
▁ive	-10.354
▁uncertain	-10.3543
▁environmental	-10.3544
▁fat	-10.3545
▁pizza	-10.3556
cs	-10.3558
ula	-10.356
▁74	-10.3563
▁44	-10.3565
dan	-10.3567
ning	-10.3567
▁4000	-10.3569
ifi	-10.3579
▁brad	-10.3579
▁deposit	-10.3586
▁expensive	-10.3587
▁nissan	-10.3587
▁kabul	-10.3587
▁internal	-10.3588
▁pla	-10.3605
85	-10.3612
▁ST	-10.3613
dhi	-10.3615
▁56	-10.3622
▁indonesian	-10.3623
▁institute	-10.363
▁THI	-10.363
▁assistance	-10.3631
▁agenda	-10.3633
▁gill	-10.3636
▁latin	-10.3637
▁disable	-10.3644
▁transit	-10.3645
14	-10.3651
▁skip	-10.3661
par	-10.3666
cra	-10.3667
▁WWII	-10.3673
▁compensation	-10.3673
▁cryptocurrency	-10.3673
▁nawaz	-10.3673
▁bieber	-10.3673
▁interior	-10.3673
▁CO	-10.3673
▁overcome	-10.3673
▁pump	-10.3677
▁flau	-10.3681
▁agriculture	-10.3683
▁beg	-10.3693
ingly	-10.3697
▁complet	-10.3713
▁kuwait	-10.3716
▁saracen	-10.3716
▁desert	-10.3716
▁pause	-10.3716
▁austria	-10.3716
▁overhaul	-10.3716
▁DR	-10.3725
▁retain	-10.3726
▁outfit	-10.3729
▁bash	-10.3732
▁pak	-10.3732
▁katy	-10.3732
uch	-10.3733
sel	-10.3735
▁cage	-10.3746
▁elli	-10.3756
▁broadband	-10.3759
▁economist	-10.3759
▁poverty	-10.3759
▁sensor	-10.376
▁poison	-10.376
▁supermarket	-10.376
cri	-10.3763
▁val	-10.3764
▁bullish	-10.3769
berry	-10.377
ata	-10.377
leigh	-10.3772
▁59	-10.3782
ami	-10.3785
▁direction	-10.3788
tel	-10.379
▁pc	-10.3792
raj	-10.3795
kan	-10.38
▁assist	-10.3802
▁argument	-10.3803
▁breakthrough	-10.3803
▁meteor	-10.3803
▁drown	-10.3804
lock	-10.3805
▁sudan	-10.3805
▁noise	-10.3807
▁disc	-10.3808
▁commitment	-10.3811
▁youngster	-10.3813
▁shipment	-10.3816
▁electora	-10.382
▁43	-10.3822
ken	-10.3824
▁pension	-10.3825
▁BA	-10.3831
▁63	-10.3838
▁earbud	-10.3846
▁repatriate	-10.3846
▁wouldn	-10.3846
▁gilead	-10.3846
▁tipperary	-10.3846
▁jacob	-10.3846
▁grip	-10.3846
▁organization	-10.3847
▁sorry	-10.3847
▁EST	-10.3847
▁sindh	-10.3848
▁withdrawal	-10.3865
aro	-10.3875
▁corner	-10.3875
▁gizmo	-10.389
▁shareholder	-10.389
▁avenger	-10.389
▁dhabi	-10.389
definitely	-10.389
▁genetic	-10.3893
▁taste	-10.3895
▁hospitalized	-10.3895
▁250	-10.3897
▁bold	-10.3901
▁rev	-10.3908
▁mur	-10.391
▁dh	-10.3926
▁presidency	-10.3934
▁pirate	-10.3936
▁MI	-10.3936
▁subscriber	-10.3937
▁employer	-10.3946
▁admin	-10.3948
▁traveller	-10.3948
▁jean	-10.3949
▁dual	-10.3954
▁anderson	-10.3962
▁mason	-10.3965
▁expectation	-10.3977
▁bolsonaro	-10.3978
▁murphy	-10.3978
▁thackeray	-10.3978
▁mutual	-10.3978
▁heal	-10.3978
▁contestant	-10.3982
▁charger	-10.3982
▁rome	-10.3985
pad	-10.3986
▁phas	-10.3994
anga	-10.3995
ela	-10.3995
▁hip	-10.4002
▁harm	-10.4007
teen	-10.4009
▁600	-10.4017
▁HIV	-10.4023
▁comparison	-10.4023
▁porsche	-10.4023
▁globe	-10.4023
▁jonathan	-10.4023
▁ltd	-10.4023
▁snake	-10.4023
▁identity	-10.4023
▁solid	-10.4024
▁TN	-10.4025
▁sean	-10.4029
▁div	-10.403
▁pole	-10.4045
fire	-10.4047
▁tune	-10.406
▁goo	-10.4061
▁monthly	-10.4063
▁triumph	-10.4067
▁temp	-10.4071
▁poise	-10.4074
▁duke	-10.4077
ional	-10.4081
▁grim	-10.4082
▁seed	-10.4094
▁pad	-10.4098
▁cours	-10.4109
▁circuit	-10.4112
▁ethereum	-10.4112
▁naked	-10.4113
▁spill	-10.4114
▁colour	-10.4115
lb	-10.4118
fra	-10.4125
▁citys	-10.4134
▁holy	-10.4136
ega	-10.4141
▁VI	-10.4154
▁assange	-10.4157
▁rajasthan	-10.4157
▁PF	-10.4158
▁lam	-10.4159
▁SI	-10.4159
▁86	-10.4161
pay	-10.4165
▁99	-10.4166
din	-10.4167
▁bush	-10.4173
▁tar	-10.4174
▁log	-10.4178
▁ED	-10.4182
▁grime	-10.4188
▁provider	-10.4198
▁tur	-10.4199
ado	-10.4203
▁buttigieg	-10.4203
▁boston	-10.4205
▁airtel	-10.4208
▁wilson	-10.4209
▁swed	-10.4218
force	-10.4222
face	-10.423
▁demande	-10.4236
▁joker	-10.424
▁BTC	-10.4245
▁icon	-10.4247
gie	-10.4248
▁fossil	-10.4248
▁puzzle	-10.4248
▁warehouse	-10.4248
▁desktop	-10.4248
▁serial	-10.4249
▁saga	-10.4249
▁ass	-10.4249
▁revamp	-10.4249
▁tighten	-10.4255
9000	-10.4256
▁momentum	-10.4261
▁SAR	-10.4269
▁chile	-10.4273
▁pit	-10.4274
▁indie	-10.4277
▁wrestle	-10.4294
▁netherlands	-10.4294
▁transmission	-10.4294
▁launder	-10.4294
▁throne	-10.4294
▁councillor	-10.4294
▁beckham	-10.4294
▁drake	-10.4294
▁MMA	-10.4297
▁honey	-10.43
▁cul	-10.4308
▁ruin	-10.4314
▁sail	-10.432
▁EUR	-10.4335
▁clarify	-10.434
▁matthew	-10.434
▁relative	-10.434
diac	-10.434
▁crackdown	-10.4341
▁wildlife	-10.4341
▁rukh	-10.4342
▁liquidity	-10.4342
▁selection	-10.4348
▁diary	-10.4348
▁conviction	-10.4349
▁laker	-10.435
▁kra	-10.4375
▁stra	-10.4381
▁bn	-10.4383
ema	-10.4383
▁mansion	-10.4384
▁erupt	-10.4386
▁sweat	-10.4386
▁PL	-10.4386
▁summon	-10.4387
▁archive	-10.4387
iah	-10.439
▁fatality	-10.4393
▁kin	-10.44
mas	-10.44
▁73	-10.4401
gun	-10.4409
ena	-10.4422
▁dope	-10.4422
▁impress	-10.4428
una	-10.4431
▁NATO	-10.4432
▁kolkata	-10.4432
▁mirror	-10.4432
▁unexpected	-10.4432
▁rec	-10.4433
▁terrorism	-10.4435
▁EA	-10.4435
▁BC	-10.4436
▁ph	-10.4436
▁coin	-10.4441
made	-10.4443
▁brighton	-10.4443
▁duck	-10.4444
▁tre	-10.4446
▁showdown	-10.445
▁farage	-10.4452
press	-10.4453
hill	-10.4456
▁harsh	-10.4457
▁rental	-10.4458
▁911	-10.446
▁influence	-10.4465
▁sara	-10.4467
▁AN	-10.4476
▁tooth	-10.4478
▁JNU	-10.4478
▁bishop	-10.4478
▁mnangagwa	-10.4478
▁redemption	-10.4478
▁simpson	-10.4478
▁DIY	-10.4479
▁client	-10.4479
▁adele	-10.4481
▁hillary	-10.4483
▁FT	-10.4489
▁penn	-10.4489
▁trapp	-10.4491
▁liam	-10.4492
▁thru	-10.4492
▁nar	-10.4494
16	-10.4498
▁produc	-10.4502
aba	-10.4505
▁mick	-10.4507
igh	-10.4508
▁fin	-10.4511
▁outlet	-10.4514
▁doom	-10.4517
▁widen	-10.452
▁UEFA	-10.4525
▁epidemic	-10.4525
▁resolve	-10.4525
▁sturgeon	-10.4525
▁madhya	-10.4525
▁trauma	-10.4526
▁ongoing	-10.4526
▁helmet	-10.4526
▁swiss	-10.4526
▁DOJ	-10.4526
▁crew	-10.4527
▁foster	-10.4528
▁poland	-10.4533
mos	-10.4534
ologist	-10.4536
▁tactic	-10.4542
▁dana	-10.4545
▁upside	-10.4546
cor	-10.4547
▁olu	-10.4551
▁luca	-10.4553
▁mood	-10.4556
▁frustrate	-10.4572
▁recognition	-10.4572
▁tagovailoa	-10.4572
▁downgrade	-10.4572
▁kaduna	-10.4572
▁atlantic	-10.4572
▁buzz	-10.4572
▁routine	-10.4575
▁quote	-10.4576
▁motion	-10.4582
lat	-10.4585
▁uni	-10.459
▁pure	-10.4594
▁thrill	-10.4596
▁marc	-10.4599
adi	-10.4608
ST	-10.461
pen	-10.461
bin	-10.4618
▁marijuana	-10.4619
▁registration	-10.4619
▁DG	-10.462
▁mlas	-10.462
SO	-10.4622
▁flock	-10.4624
▁cyclone	-10.4625
SA	-10.4636
▁mahama	-10.4636
▁edo	-10.4641
▁NB	-10.4645
33	-10.4649
boy	-10.4663
▁establish	-10.4664
▁slowly	-10.4664
▁cambodia	-10.4667
▁colleague	-10.4667
▁crunch	-10.4667
▁extradition	-10.4667
▁column	-10.4667
▁thrive	-10.4667
CA	-10.4667
▁emirates	-10.4667
▁SNL	-10.4669
▁bullet	-10.467
▁GO	-10.4671
▁malik	-10.4672
▁blo	-10.4672
ient	-10.4676
▁pastor	-10.4678
▁guru	-10.4679
▁rio	-10.468
▁mn	-10.4689
▁collin	-10.4701
▁bulgaria	-10.4714
▁minimum	-10.4714
▁NCDC	-10.4715
▁denmark	-10.4715
▁champ	-10.472
▁marcus	-10.4721
mond	-10.4728
aga	-10.4731
itz	-10.4732
▁runner	-10.4746
▁stir	-10.4747
▁elephant	-10.4762
▁jharkhand	-10.4762
▁mortgage	-10.4762
▁stretch	-10.4762
▁houston	-10.4762
▁pioneer	-10.4762
▁unusual	-10.4762
▁herself	-10.4762
▁stroke	-10.4762
▁fitbit	-10.4764
card	-10.4766
▁ballot	-10.4773
▁AM	-10.4776
▁meeting	-10.4777
▁gret	-10.4778
▁bab	-10.4786
▁holly	-10.4787
▁rot	-10.4792
26	-10.4792
power	-10.4794
▁$30	-10.4808
47	-10.4808
▁aren	-10.4809
▁belfast	-10.481
▁revival	-10.481
▁leonard	-10.481
▁steady	-10.481
▁torture	-10.481
▁dash	-10.4815
▁shram	-10.4817
▁athletics	-10.4824
DA	-10.4825
▁lisa	-10.4825
▁commander	-10.4829
▁108	-10.4835
▁quiet	-10.4842
TA	-10.4844
▁qualifie	-10.4844
▁abe	-10.4846
▁carol	-10.485
▁mah	-10.4853
▁pill	-10.4854
▁comfort	-10.4855
▁pig	-10.4856
▁congratulate	-10.4859
▁madagascar	-10.4859
▁maruti	-10.4859
▁craft	-10.4859
▁BO	-10.4859
▁rainbow	-10.4859
▁SBI	-10.4862
▁friendship	-10.4864
▁stal	-10.4866
▁wh	-10.4879
▁evo	-10.4882
▁bone	-10.4882
▁warner	-10.4883
live	-10.4885
▁romania	-10.4893
▁leo	-10.4895
▁jane	-10.4896
▁FI	-10.49
▁MHA	-10.4907
▁alaska	-10.4907
▁random	-10.4909
▁ICU	-10.4911
▁enforcement	-10.4912
▁proper	-10.4919
▁gil	-10.4942
▁transition	-10.4942
▁assess	-10.4954
▁intercept	-10.4956
▁arthur	-10.4956
▁bezos	-10.4958
▁exhibition	-10.4958
▁regime	-10.4959
▁roma	-10.496
▁mil	-10.4965
23	-10.4971
▁safely	-10.498
▁$500	-10.4984
▁rant	-10.4989
air	-10.4999
▁carter	-10.5001
▁disappear	-10.5004
▁artificial	-10.5005
▁astronaut	-10.5005
▁dolphin	-10.5005
▁skywalker	-10.5005
▁structure	-10.5005
▁CMCO	-10.5005
▁ballarat	-10.5005
▁fruit	-10.5005
▁chapter	-10.5006
▁thieve	-10.5007
link	-10.5007
▁sheet	-10.5008
▁bot	-10.5009
▁trash	-10.501
▁dodge	-10.501
read	-10.5016
▁trans	-10.5017
▁batman	-10.5021
▁agri	-10.5021
▁prep	-10.5027
▁medi	-10.5028
▁bath	-10.5032
▁gigi	-10.5037
▁pour	-10.5043
▁jen	-10.5047
▁hyper	-10.5052
▁degree	-10.5054
▁hybrid	-10.5054
▁verstappen	-10.5054
▁volkswagen	-10.5054
▁ryanair	-10.5055
▁confuse	-10.5055
▁employment	-10.5056
▁fortune	-10.506
▁flame	-10.5062
▁jury	-10.5067
▁fri	-10.5067
avan	-10.5071
inger	-10.5071
▁71	-10.5075
▁tv	-10.509
▁$200	-10.5091
▁hara	-10.5096
▁nail	-10.5098
▁thunder	-10.5104
▁franchise	-10.5104
▁antonio	-10.5104
▁bolton	-10.5104
▁hunger	-10.5104
▁uncle	-10.5105
▁TC	-10.5106
wick	-10.5107
olo	-10.5109
▁sunny	-10.5112
▁gunna	-10.5115
▁charlie	-10.5116
cer	-10.5116
▁dealer	-10.5137
▁50000	-10.514
ized	-10.5141
tay	-10.5143
▁95	-10.5143
▁amnesty	-10.5153
▁caitlyn	-10.5153
▁apparent	-10.5153
▁observe	-10.5154
▁marie	-10.5154
▁milestone	-10.5155
▁ogun	-10.5158
▁spa	-10.5158
▁DM	-10.5162
lands	-10.5163
▁oct	-10.5165
▁dil	-10.5166
▁dele	-10.5184
▁spar	-10.5187
▁sep	-10.519
▁anna	-10.519
29	-10.5192
▁strain	-10.5196
▁30000	-10.5199
▁NT	-10.5203
▁bargain	-10.5203
▁arjun	-10.5204
▁silent	-10.5204
▁infant	-10.5204
tial	-10.5226
▁EM	-10.5226
▁deepen	-10.5227
▁mou	-10.523
▁lind	-10.5231
▁immediate	-10.5235
▁oh	-10.5235
▁packer	-10.5242
▁poster	-10.5244
▁represent	-10.5253
▁default	-10.5254
▁ryzen	-10.5254
▁worsen	-10.5254
▁pupil	-10.5254
▁plug	-10.5254
▁goodbye	-10.5254
▁pipeline	-10.5255
▁combine	-10.5255
▁glove	-10.5256
▁vivo	-10.5258
▁MDC	-10.5261
▁wet	-10.5262
▁tua	-10.5264
▁logan	-10.5274
stein	-10.5283
▁shooter	-10.5285
▁libya	-10.5289
nom	-10.5291
▁chan	-10.5292
space	-10.5294
gram	-10.5296
▁myth	-10.53
▁relation	-10.5304
▁duterte	-10.5304
▁february	-10.5304
▁lenovo	-10.5304
▁sentiment	-10.5304
▁succeed	-10.5304
▁valhalla	-10.5304
▁neymar	-10.5304
▁atlanta	-10.5304
▁qampa	-10.5304
▁cream	-10.5304
▁cherry	-10.5305
▁westpac	-10.5307
ised	-10.5309
verse	-10.5313
▁thought	-10.5316
6000	-10.5327
▁poo	-10.5332
▁58	-10.5334
▁mus	-10.5345
▁optimistic	-10.5355
▁redesign	-10.5355
▁millionaire	-10.5355
▁69	-10.5356
▁genius	-10.5356
▁amendment	-10.5358
▁corrie	-10.5358
▁fil	-10.5358
▁CN	-10.5358
tract	-10.5358
▁kobe	-10.5368
▁rash	-10.5383
▁cel	-10.5388
▁barber	-10.5388
▁93	-10.5391
▁USA	-10.5393
3000	-10.5393
mont	-10.5396
▁alter	-10.5398
▁ag	-10.5398
burn	-10.54
amir	-10.5402
▁prop	-10.5403
▁lower	-10.5404
▁kejriwal	-10.5406
▁THE	-10.5406
▁vendor	-10.5406
▁awareness	-10.5406
▁returnees	-10.5407
cker	-10.5412
▁CBN	-10.5413
tain	-10.5416
▁woo	-10.5417
▁lotto	-10.5418
▁gor	-10.542
▁fundraiser	-10.542
pre	-10.5422
kit	-10.5423
▁regard	-10.5423
▁licens	-10.5423
gam	-10.5424
onic	-10.5425
▁68	-10.5425
del	-10.5426
var	-10.5432
life	-10.5433
▁recreat	-10.5439
▁tape	-10.5441
▁hospitalise	-10.5448
ind	-10.5452
▁dedicate	-10.5457
▁destiny	-10.5457
▁diabetes	-10.5457
▁mcconnell	-10.5457
▁vegetable	-10.5457
▁counsel	-10.5457
▁myanmar	-10.5457
▁hotspur	-10.5457
▁achievement	-10.5461
▁cake	-10.5466
▁CT	-10.5466
▁clarke	-10.5489
▁newly	-10.5501
▁haunt	-10.5501
▁eli	-10.5504
▁boycott	-10.5509
▁phoenix	-10.5509
▁lobby	-10.5509
▁seattle	-10.5509
▁nepal	-10.5509
▁haaland	-10.5509
▁redux	-10.5509
▁organize	-10.551
▁disruption	-10.5515
▁soc	-10.5517
▁nat	-10.5517
▁bla	-10.5519
▁plate	-10.552
▁vegan	-10.5525
▁edit	-10.5525
▁wayne	-10.5533
▁KC	-10.5534
▁else	-10.5534
▁quo	-10.5537
anu	-10.5537
wu	-10.5538
▁eva	-10.5544
elena	-10.5544
zu	-10.5545
▁forum	-10.5554
▁grain	-10.556
▁abortion	-10.5561
▁dakota	-10.5561
▁rethink	-10.5561
▁suzuki	-10.5561
▁tobacco	-10.5561
▁drought	-10.5561
▁vandal	-10.5561
▁DP	-10.5561
▁recruitment	-10.5565
▁cricketer	-10.5572
▁79	-10.5573
▁wire	-10.5583
▁fife	-10.5596
▁bigg	-10.5596
▁advertise	-10.56
▁mira	-10.56
dog	-10.56
▁ruth	-10.561
▁banerjee	-10.5613
▁permission	-10.5613
▁shanghai	-10.5613
▁snapdragon	-10.5613
▁grill	-10.5613
▁bernard	-10.5613
▁memorie	-10.5613
▁generate	-10.5613
▁carrie	-10.5614
▁audience	-10.5614
▁eden	-10.5614
lar	-10.5615
▁recycle	-10.5616
▁inspector	-10.5616
▁PIC	-10.5618
▁finger	-10.5619
cro	-10.5619
agh	-10.5624
▁invent	-10.5627
▁dres	-10.5639
▁77	-10.564
▁whit	-10.564
pat	-10.564
cast	-10.5642
▁meth	-10.5649
▁fundraise	-10.5651
▁bolivian	-10.5656
24	-10.5661
▁$13	-10.5663
▁quantum	-10.5665
▁CE	-10.5665
▁overturn	-10.5665
▁southwest	-10.5665
▁saving	-10.5665
▁motorcycle	-10.5665
▁siege	-10.5665
▁rebuild	-10.5669
cus	-10.5671
▁20000	-10.5675
▁sab	-10.5691
▁disco	-10.5695
▁setback	-10.5697
weight	-10.5706
▁surrey	-10.5718
▁breakfast	-10.5718
▁federer	-10.5718
▁IG	-10.5722
▁yoga	-10.5723
▁PR	-10.5724
▁oyo	-10.5727
bri	-10.5733
▁processor	-10.5748
oma	-10.5748
SC	-10.5748
▁themed	-10.5749
▁diva	-10.5749
▁81	-10.5752
ius	-10.576
▁yr	-10.5763
▁sheffield	-10.5771
▁glory	-10.5771
▁gem	-10.5771
▁dennis	-10.5771
▁responsible	-10.5771
▁jazz	-10.5772
▁toddler	-10.5772
▁beer	-10.5774
▁engagement	-10.5775
▁deport	-10.5779
▁owe	-10.5785
▁diego	-10.579
▁discussion	-10.5798
▁vers	-10.5798
▁pas	-10.5798
▁remind	-10.58
top	-10.5801
isk	-10.5803
pho	-10.5807
68	-10.5808
ries	-10.5809
path	-10.582
▁destination	-10.5824
▁eliminate	-10.5824
▁pedestrian	-10.5824
▁revenge	-10.5824
▁insult	-10.5824
▁warfare	-10.5824
▁USDJPY	-10.5824
▁BN	-10.5825
▁defect	-10.5827
▁2023	-10.583
▁steelers	-10.5831
▁children	-10.5836
▁ICC	-10.5837
▁maria	-10.5844
▁$16	-10.5863
pet	-10.5864
worth	-10.5867
▁breathe	-10.587
▁favor	-10.5876
▁nairobi	-10.5877
▁temporarily	-10.5877
▁pokemon	-10.5877
▁uncover	-10.5877
▁WR	-10.588
▁PE	-10.5884
▁waiver	-10.589
▁resignation	-10.589
▁bench	-10.5895
sch	-10.5899
zan	-10.5899
▁CBI	-10.5903
▁condo	-10.5905
sim	-10.5913
ably	-10.5915
▁experiment	-10.5917
zar	-10.5924
▁absolute	-10.5924
git	-10.5927
▁cm	-10.5929
▁makeup	-10.593
▁disturb	-10.5931
▁cultural	-10.5931
▁NCAA	-10.5931
▁float	-10.5931
▁latvia	-10.5931
▁jamaica	-10.5931
▁persist	-10.5931
▁$400	-10.5932
▁bore	-10.5936
▁$11	-10.5941
▁rub	-10.5943
erry	-10.595
▁cub	-10.595
▁uphold	-10.5964
▁punish	-10.5982
▁mcilroy	-10.5985
▁possibly	-10.5985
▁starbucks	-10.5985
▁EFL	-10.5985
▁uttar	-10.5985
▁CBSE	-10.5986
▁ny	-10.5986
88	-10.5987
▁invasion	-10.5987
▁impressive	-10.5988
▁maryland	-10.5989
dor	-10.5992
▁blender	-10.5993
▁breath	-10.5994
▁bor	-10.5997
▁loot	-10.6001
ating	-10.6002
ration	-10.6004
▁mali	-10.6008
born	-10.601
▁anand	-10.6012
▁sat	-10.6029
▁RE	-10.603
▁disorder	-10.6039
▁explosive	-10.6039
▁mclaren	-10.6039
▁ottawa	-10.6039
▁ramaphosa	-10.6039
▁thunberg	-10.6039
▁transgender	-10.6039
▁verizon	-10.6039
▁portrait	-10.6039
▁sharad	-10.604
▁cruz	-10.604
▁narrow	-10.604
▁jammu	-10.6041
bury	-10.6046
▁fort	-10.6049
▁bur	-10.6052
▁NS	-10.6053
▁institution	-10.6077
▁quad	-10.6079
▁$14	-10.6086
ught	-10.6092
▁06	-10.6092
▁contribute	-10.6094
▁mbappe	-10.6094
▁seahawks	-10.6094
▁tropical	-10.6094
▁uniform	-10.6094
▁utah	-10.6094
▁bribery	-10.6096
▁bala	-10.6098
▁salah	-10.6099
RC	-10.61
▁kam	-10.6121
▁lifetime	-10.6125
athi	-10.6129
rop	-10.6135
▁container	-10.6137
▁$17	-10.6145
▁WH	-10.6145
▁portal	-10.6146
bridge	-10.6149
▁chocolate	-10.6149
▁consolidate	-10.6149
▁pharmaceutical	-10.6149
▁adjust	-10.6149
▁rematch	-10.6149
▁salute	-10.6149
▁rodgers	-10.6149
▁facial	-10.615
▁CC	-10.6156
▁goa	-10.6159
▁overnight	-10.6169
mph	-10.617
▁arent	-10.6173
▁jona	-10.6173
▁dub	-10.6177
ava	-10.6181
▁ATampt	-10.6204
▁kennedy	-10.6204
▁mahindra	-10.6204
▁uhuru	-10.6204
▁guitar	-10.6204
▁bhatt	-10.6206
▁witch	-10.6207
▁CNN	-10.6208
▁HK	-10.6212
▁neo	-10.6215
▁defende	-10.6216
oh	-10.6224
▁neck	-10.6225
▁nova	-10.6227
▁fest	-10.6239
2000	-10.6251
▁lid	-10.6251
▁defer	-10.6255
▁abduct	-10.6255
▁liquid	-10.6257
▁amend	-10.6259
▁subsidy	-10.626
▁terrible	-10.626
▁grid	-10.6261
▁PPP	-10.6263
▁PGA	-10.6263
▁tracker	-10.6264
▁fume	-10.6264
▁ABC	-10.6271
▁macron	-10.6276
▁stuff	-10.6283
▁cargo	-10.6283
▁mouth	-10.6294
▁restrict	-10.6311
▁DO	-10.6315
▁hungry	-10.6316
▁akshay	-10.6316
▁silva	-10.6316
▁onto	-10.6316
aya	-10.6316
▁bomber	-10.6316
▁tire	-10.6325
▁demise	-10.6326
▁SEC	-10.6332
beat	-10.6341
iro	-10.6341
ago	-10.6341
▁mach	-10.635
▁belt	-10.6352
27	-10.6358
xi	-10.636
▁glen	-10.6364
ich	-10.6369
sman	-10.637
▁circle	-10.6372
▁refresh	-10.6372
▁spokesman	-10.6372
▁transaction	-10.6372
▁pocket	-10.6372
▁exactly	-10.6372
▁whale	-10.6372
▁XL	-10.6372
▁INEC	-10.6372
▁PN	-10.6376
▁odd	-10.6384
▁castle	-10.6385
▁carlo	-10.6387
▁lucky	-10.6389
bus	-10.6404
▁tail	-10.6416
▁NBC	-10.6422
▁fleet	-10.6422
▁MD	-10.6423
hz	-10.6424
▁magnitude	-10.6428
▁rookie	-10.6428
▁festive	-10.6431
▁importance	-10.6433
▁slave	-10.6435
absolutely	-10.6435
▁vet	-10.6436
▁pile	-10.6436
▁dirty	-10.6444
▁todd	-10.6456
▁basis	-10.646
36	-10.6467
erson	-10.6469
38	-10.647
87	-10.6485
▁tall	-10.6485
▁NYPD	-10.6485
▁erdogan	-10.6485
▁predator	-10.6485
▁valuation	-10.6485
▁welsh	-10.6485
▁sachin	-10.6485
eme	-10.6496
▁middleton	-10.6496
999	-10.6498
pack	-10.6504
▁devil	-10.6509
▁seth	-10.6518
▁fry	-10.6521
▁manufacturer	-10.6525
▁julian	-10.6531
▁shade	-10.6533
▁sexually	-10.6538
▁ICMR	-10.6542
▁RCMP	-10.6542
▁supplier	-10.6542
▁tendulkar	-10.6542
▁departure	-10.6543
▁VAR	-10.6544
▁slowdown	-10.6545
▁alia	-10.6545
like	-10.6553
▁passion	-10.6567
▁eve	-10.657
▁blu	-10.6572
nagar	-10.6573
rich	-10.6578
shire	-10.6579
1000	-10.658
▁oppose	-10.6591
▁BCCI	-10.66
▁cocktail	-10.66
▁immune	-10.66
▁intervention	-10.66
▁jpmorgan	-10.66
▁retreat	-10.66
▁scramble	-10.66
▁similar	-10.66
▁fellow	-10.66
▁wheat	-10.66
▁pending	-10.66
▁mitchell	-10.66
▁RIL	-10.6602
▁SEAL	-10.6602
dis	-10.6603
▁youtuber	-10.6605
▁700	-10.6608
▁sabha	-10.6608
▁tonne	-10.6609
▁electronic	-10.661
iff	-10.6636
▁dick	-10.6649
▁gran	-10.6651
▁MV	-10.6653
▁PUBG	-10.6658
▁cyclist	-10.6658
▁empire	-10.6658
▁qualcomm	-10.6658
▁reschedule	-10.6658
▁responsibility	-10.6658
▁yovanovitch	-10.6658
▁arctic	-10.6658
▁pattern	-10.6658
▁emily	-10.6658
▁AUDUSD	-10.6658
ates	-10.6659
▁munster	-10.6659
▁clue	-10.6659
▁carpet	-10.6666
ddle	-10.6666
79	-10.6674
▁reign	-10.6678
▁notification	-10.6681
iser	-10.6682
▁raider	-10.6691
▁chad	-10.6697
▁retro	-10.6703
▁disinfect	-10.6714
▁bombshell	-10.6716
▁chidambaram	-10.6716
▁diagnose	-10.6716
▁possibility	-10.6716
▁surround	-10.6716
▁honest	-10.6716
▁breast	-10.6716
▁brink	-10.6716
pie	-10.6717
▁ugly	-10.6717
▁rabbi	-10.6717
▁geoff	-10.6718
▁alongside	-10.6718
▁endgame	-10.6721
▁benz	-10.6722
ridge	-10.6724
▁token	-10.6725
▁alli	-10.6727
flow	-10.6733
▁sneak	-10.674
▁trio	-10.6748
▁110	-10.6756
▁antitrust	-10.6774
▁behaviour	-10.6774
▁embarrass	-10.6774
▁massacre	-10.6774
▁norwegian	-10.6774
▁sunderland	-10.6774
▁absence	-10.6774
▁fixture	-10.6774
▁ahmedabad	-10.6774
mah	-10.6775
▁initial	-10.6775
▁malaria	-10.6775
▁passport	-10.6778
▁AFL	-10.6778
▁piai	-10.6779
gal	-10.6784
▁cartel	-10.6785
▁wasnt	-10.6787
▁78	-10.6794
▁mak	-10.6794
▁$0	-10.6798
▁charter	-10.68
▁script	-10.6802
▁such	-10.6803
▁liz	-10.6808
▁emma	-10.6812
▁dust	-10.682
kha	-10.6821
▁BB	-10.6827
▁unleash	-10.6833
▁article	-10.6833
▁amount	-10.6833
▁bernie	-10.6833
▁niger	-10.6834
▁cheese	-10.6835
▁dame	-10.6835
▁alexa	-10.6846
▁owen	-10.6852
▁ravi	-10.6853
▁$40	-10.6854
▁mcca	-10.6867
▁jewel	-10.6877
▁bil	-10.6881
inary	-10.689
▁execution	-10.6892
▁padukone	-10.6892
▁scenario	-10.6892
▁greet	-10.6892
▁sanjay	-10.6892
▁lunch	-10.6892
▁smell	-10.6893
▁height	-10.6893
▁kris	-10.6894
▁knee	-10.6898
▁burst	-10.6903
▁rig	-10.6906
lay	-10.6908
▁KL	-10.6919
▁banker	-10.6929
▁rai	-10.6932
TE	-10.6944
▁timo	-10.6946
▁partial	-10.6946
▁indict	-10.6949
▁decrease	-10.6952
▁kansas	-10.6952
▁expel	-10.6952
▁raptor	-10.6953
▁command	-10.6953
▁tanker	-10.6953
▁tranche	-10.6954
▁sachs	-10.6954
▁kay	-10.6954
▁addiction	-10.6954
▁tin	-10.6957
▁correction	-10.6959
▁egyptian	-10.6961
▁geo	-10.697
▁wick	-10.699
▁mun	-10.7
▁arch	-10.7
▁800	-10.7005
▁dock	-10.7011
▁aggressive	-10.7012
▁arkansas	-10.7012
▁illinois	-10.7012
▁misinformation	-10.7012
▁ridiculous	-10.7012
▁unknown	-10.7012
▁velvet	-10.7012
▁shelve	-10.7012
▁mccarthy	-10.7012
▁lizzo	-10.7012
▁lean	-10.7014
▁victor	-10.7018
▁EPL	-10.702
▁pride	-10.7021
▁bou	-10.7028
▁dear	-10.7032
▁trim	-10.7036
▁billy	-10.7038
▁nano	-10.7045
▁LT	-10.7045
fit	-10.7046
▁hart	-10.7048
lem	-10.7049
▁alt	-10.7056
▁sci	-10.7058
SE	-10.7059
▁ondo	-10.706
AP	-10.7062
eep	-10.707
▁XRP	-10.7072
▁smartwatch	-10.7072
▁unprecedented	-10.7072
▁austin	-10.7072
integrate	-10.7072
▁costume	-10.7072
▁guinea	-10.7072
▁meyer	-10.7073
▁viking	-10.7074
▁argue	-10.7075
▁citizenship	-10.7075
▁GST	-10.7077
▁OT	-10.7079
sol	-10.7082
▁breakdown	-10.7085
▁robertson	-10.7087
▁hostage	-10.7088
▁donor	-10.709
▁enterprise	-10.7093
lade	-10.7099
98	-10.7114
▁megan	-10.7117
▁sustain	-10.7129
russia	-10.713
▁arena	-10.7132
▁EFCC	-10.7132
▁animated	-10.7132
▁chhattisgarh	-10.7132
▁edinburgh	-10.7132
▁judicial	-10.7132
▁minnesota	-10.7132
▁rudolph	-10.7132
▁suspicious	-10.7132
▁jackpot	-10.7132
▁puppy	-10.7132
▁swoop	-10.7132
▁monkey	-10.7132
▁rooney	-10.7132
▁roadmap	-10.7133
AT	-10.7134
▁curry	-10.7138
▁influencer	-10.7151
lyn	-10.7154
▁immediately	-10.7156
▁seller	-10.7158
32	-10.7162
▁soap	-10.7162
▁starrer	-10.7172
▁payout	-10.7176
ctor	-10.718
pm	-10.7182
▁brisbane	-10.7193
▁montreal	-10.7193
▁prosecution	-10.7193
▁casualty	-10.7193
▁chaotic	-10.7193
▁dynamic	-10.7194
▁mostly	-10.7194
▁paypal	-10.7194
▁serbia	-10.7194
▁haircut	-10.7195
▁kiwi	-10.7196
▁haul	-10.7197
▁rad	-10.7197
▁hungary	-10.7203
▁wise	-10.7203
▁rough	-10.7206
▁infra	-10.721
▁97	-10.7214
▁terry	-10.7217
▁jew	-10.7223
▁qui	-10.7226
▁loser	-10.7226
▁ann	-10.7243
▁tai	-10.7249
chen	-10.7251
▁trap	-10.7252
▁belgi	-10.7254
▁000	-10.7255
▁carnival	-10.7255
▁pennsylvania	-10.7255
▁tattoo	-10.7255
▁territory	-10.7255
▁harvest	-10.7255
▁endanger	-10.7255
▁OC	-10.7257
▁arrow	-10.7257
▁cardiff	-10.7257
▁lender	-10.7259
▁heartbreaking	-10.726
▁foldable	-10.7261
▁raven	-10.7266
▁stamp	-10.7268
▁dia	-10.727
▁dalla	-10.727
▁leap	-10.7272
▁archer	-10.7282
▁FCC	-10.7286
▁thin	-10.7292
▁sixth	-10.7298
▁quake	-10.7299
▁$300	-10.7302
▁sum	-10.7311
▁discrimination	-10.7317
▁subpoena	-10.7317
▁suspicion	-10.7317
▁aguero	-10.7317
▁terminal	-10.7317
▁radar	-10.7324
▁residential	-10.7325
▁johnny	-10.7326
asi	-10.7327
▁trainer	-10.7329
▁opus	-10.7336
ache	-10.7341
▁biz	-10.7341
▁bless	-10.7355
shan	-10.7358
▁tier	-10.7363
▁constitution	-10.7364
▁eu	-10.7364
▁gray	-10.7371
▁chest	-10.7377
▁91	-10.7378
▁investigator	-10.7379
▁occupy	-10.7379
▁vacation	-10.7379
▁sainz	-10.7379
▁eilish	-10.7379
▁MO	-10.7379
▁indoor	-10.738
▁ayushman	-10.738
▁bruno	-10.7382
▁disability	-10.7382
▁sikh	-10.7382
▁dell	-10.7382
sky	-10.7384
▁ashley	-10.7384
▁LI	-10.7387
▁contractor	-10.7388
JPY	-10.7389
▁tender	-10.739
▁mob	-10.7396
▁nut	-10.7399
▁luke	-10.74
bag	-10.7402
gas	-10.7414
▁paulo	-10.7416
▁coat	-10.7417
▁loose	-10.742
▁dot	-10.7431
▁hitler	-10.7435
▁competitive	-10.7441
▁harvard	-10.7441
▁residence	-10.7441
▁subject	-10.7441
▁aiims	-10.7441
▁dijk	-10.7441
▁removal	-10.7441
▁xhaka	-10.7441
▁frame	-10.7441
▁ransomware	-10.7441
▁reuter	-10.7441
▁usual	-10.7442
▁instant	-10.7442
▁indore	-10.7444
▁okay	-10.7444
▁pardon	-10.7444
▁freak	-10.7445
▁BMC	-10.7446
▁requirement	-10.7451
▁renewable	-10.7453
bird	-10.7454
▁flare	-10.7455
▁244	-10.7475
uma	-10.748
DC	-10.7488
▁quid	-10.749
▁businessman	-10.7494
▁ginsburg	-10.7504
▁jacqueline	-10.7504
▁narendra	-10.7504
▁qualify	-10.7504
▁scream	-10.7504
▁tunnel	-10.7504
▁pursue	-10.7504
▁hornets	-10.7504
▁creation	-10.7504
▁hedge	-10.7504
▁SB	-10.7504
▁lease	-10.7504
▁polymer	-10.7505
▁comm	-10.751
▁organ	-10.751
▁zen	-10.751
TC	-10.7511
▁sailor	-10.7513
mann	-10.7519
▁clap	-10.7524
▁devon	-10.7527
▁menu	-10.7528
▁panda	-10.753
some	-10.7538
▁locker	-10.7556
▁nana	-10.7561
▁escalate	-10.7567
▁gorgeous	-10.7567
▁necessary	-10.7567
▁berkshire	-10.7567
▁christoph	-10.7567
▁heritage	-10.7567
▁oliver	-10.7567
▁nigel	-10.7567
▁interference	-10.7568
post	-10.7568
▁species	-10.7569
▁infectious	-10.7569
loo	-10.757
▁panther	-10.7571
▁landmark	-10.7572
▁bread	-10.7575
▁recommendation	-10.7575
▁fur	-10.7576
▁cohen	-10.7577
▁decry	-10.7579
▁96	-10.7581
▁karan	-10.7596
serv	-10.7604
▁pac	-10.7609
▁98	-10.761
▁certificate	-10.7631
▁genocide	-10.7631
▁mississippi	-10.7631
▁stacey	-10.7631
▁thompson	-10.7631
▁tiffany	-10.7631
▁miracle	-10.7631
▁henderson	-10.7631
▁vessel	-10.7631
▁essex	-10.7631
▁exotic	-10.7631
▁FO	-10.7631
▁ortiz	-10.7631
▁unreal	-10.7631
▁travis	-10.7632
▁lynn	-10.7635
▁scout	-10.7635
▁foul	-10.7642
▁shore	-10.7642
▁guardian	-10.7643
▁graft	-10.7643
▁rave	-10.7648
▁hurl	-10.7651
▁upon	-10.7656
▁TM	-10.7663
ique	-10.7674
▁kang	-10.7678
CC	-10.768
▁baghdad	-10.7682
▁scary	-10.7683
▁entertain	-10.7694
front	-10.7694
mdb	-10.7695
▁collaborate	-10.7695
▁fadnavis	-10.7695
▁hezbollah	-10.7695
▁horrific	-10.7695
▁hurricane	-10.7695
▁landlord	-10.7695
▁password	-10.7695
▁utility	-10.7695
▁vulnerability	-10.7695
▁clarity	-10.7695
▁cuban	-10.7695
▁rwanda	-10.7695
▁watson	-10.7695
▁section	-10.7697
▁legislation	-10.77
▁NAB	-10.7702
▁beast	-10.7702
iga	-10.771
▁poet	-10.7711
▁slim	-10.7716
96	-10.7716
▁gal	-10.7717
▁waive	-10.7734
▁1500	-10.7736
▁moral	-10.7736
▁105	-10.7739
▁camil	-10.774
▁tick	-10.7751
▁CRPF	-10.776
▁compliance	-10.776
▁fernandes	-10.776
▁kildare	-10.776
▁lloyd	-10.776
▁oregon	-10.776
▁ranbir	-10.776
▁scientific	-10.776
▁shrewsbury	-10.776
▁hurdle	-10.776
▁eager	-10.776
girl	-10.7761
▁stanley	-10.7762
▁cav	-10.7764
▁headset	-10.7766
▁pie	-10.7769
▁RC	-10.7773
▁burglary	-10.7775
rant	-10.7777
▁yard	-10.7779
▁digit	-10.779
▁eid	-10.7792
keeper	-10.78
▁kia	-10.7805
▁pave	-10.7811
▁CD	-10.7819
plan	-10.7822
▁tide	-10.7823
▁consequence	-10.7825
▁widow	-10.7825
▁servant	-10.7825
▁vindman	-10.7825
▁thrash	-10.7825
▁sprint	-10.7825
▁afraid	-10.7825
▁flavor	-10.7825
▁pivot	-10.7825
▁cruel	-10.7825
▁keith	-10.7825
▁civic	-10.7825
▁lyft	-10.7825
▁romantic	-10.7827
▁DLC	-10.7828
▁AAP	-10.7828
▁icic	-10.783
▁adobe	-10.7832
▁2015	-10.7839
▁southgate	-10.7842
▁maybe	-10.7872
▁islam	-10.7886
▁overwhelm	-10.789
▁pilgrim	-10.789
▁nobody	-10.789
▁rifle	-10.789
▁tweak	-10.789
▁norway	-10.789
▁depart	-10.789
▁neighborhood	-10.789
▁drain	-10.789
▁empower	-10.7891
▁zayn	-10.7893
▁yogi	-10.7895
IC	-10.7897
▁sideline	-10.7899
▁MB	-10.79
▁rear	-10.7906
▁purpose	-10.7909
cap	-10.792
▁2010	-10.7929
▁poly	-10.7935
▁jado	-10.7944
▁inspiration	-10.7945
▁eligible	-10.7956
▁restructure	-10.7956
▁telugu	-10.7956
▁ekiti	-10.7956
▁organisation	-10.7956
▁bowler	-10.7957
▁vande	-10.7957
▁helen	-10.7957
▁lauren	-10.7961
▁string	-10.7962
▁84	-10.7966
▁naval	-10.797
▁collector	-10.797
▁hype	-10.7971
▁kai	-10.7975
▁deon	-10.7976
▁bout	-10.7977
▁barb	-10.7978
place	-10.7981
▁careful	-10.7989
bound	-10.7991
▁HM	-10.7992
▁HR	-10.7997
▁expo	-10.7998
▁odo	-10.7998
▁barrel	-10.7999
▁consult	-10.8016
▁beloved	-10.8022
▁glitch	-10.8022
▁NPP	-10.8022
▁spider	-10.8022
▁BP	-10.8022
▁statistic	-10.8023
▁SD	-10.8024
▁telford	-10.8024
▁robinson	-10.8024
▁lightning	-10.8026
▁abram	-10.8027
▁brush	-10.8028
SS	-10.8029
▁building	-10.8029
▁remaster	-10.8032
▁lag	-10.804
rapple	-10.8041
▁bearish	-10.8042
▁fiat	-10.8042
borough	-10.8046
▁nice	-10.805
▁stan	-10.8054
▁equ	-10.8054
EC	-10.8056
▁mai	-10.8061
▁vale	-10.8077
▁correct	-10.808
▁AU	-10.8081
▁PI	-10.8083
▁municipal	-10.8086
▁vigil	-10.8087
▁mild	-10.8088
▁bluetooth	-10.8089
▁oversight	-10.8089
▁ricciardo	-10.8089
▁sergio	-10.8089
▁trevor	-10.8089
▁tsitsipas	-10.8089
▁rafael	-10.8089
▁springbok	-10.8089
▁falcon	-10.8089
▁ambani	-10.8089
▁nelson	-10.8089
▁UI	-10.809
▁maximum	-10.809
▁MTN	-10.8092
▁shatter	-10.8094
▁hulu	-10.8097
51	-10.8097
▁TR	-10.8098
▁personality	-10.8102
▁afri	-10.8103
▁briton	-10.8108
▁charm	-10.8124
▁virtually	-10.8129
▁reel	-10.8137
▁tribe	-10.8142
▁venezuelan	-10.8144
▁hood	-10.8148
▁stall	-10.8152
▁swing	-10.8154
▁contribution	-10.8156
▁demolition	-10.8156
▁evolve	-10.8156
▁tanjung	-10.8156
▁vacuum	-10.8156
▁unfair	-10.8156
▁excuse	-10.8156
▁moh	-10.8156
▁pursuit	-10.8156
▁checkpoint	-10.8161
▁krist	-10.8162
67	-10.8163
▁quarterback	-10.8164
▁bride	-10.8166
▁UB	-10.8166
ingham	-10.8172
take	-10.8173
bot	-10.8175
yu	-10.8186
chan	-10.8191
▁pensioner	-10.8192
▁suggestion	-10.8193
89	-10.8196
▁900	-10.8203
▁diss	-10.8205
ucker	-10.8219
▁behavior	-10.8223
▁landslide	-10.8223
▁sizzle	-10.8223
▁zidane	-10.8223
▁presence	-10.8223
▁flop	-10.8223
▁sensation	-10.8223
▁sharif	-10.8223
▁pearl	-10.8224
▁outcome	-10.8224
▁reddy	-10.8228
▁nude	-10.8233
NA	-10.8243
right	-10.825
34	-10.8277
▁hop	-10.8287
▁server	-10.8288
▁nose	-10.8288
▁bribe	-10.8288
▁relegation	-10.8291
▁scrutiny	-10.8291
▁ripple	-10.8291
▁fulfil	-10.8291
▁calgary	-10.8291
▁goalkeeper	-10.8293
▁philip	-10.8293
▁assure	-10.8293
▁memo	-10.8295
▁nancy	-10.8297
▁detective	-10.8298
▁chick	-10.8301
▁moto	-10.8302
▁totally	-10.8302
wash	-10.8302
enberg	-10.8305
▁traveler	-10.8307
▁luka	-10.8308
▁belong	-10.8311
▁amy	-10.8313
▁clark	-10.8316
▁yang	-10.8317
oke	-10.832
▁mama	-10.8327
66	-10.8327
▁maple	-10.8327
▁risky	-10.8332
▁directly	-10.8334
▁hog	-10.8341
▁IIT	-10.8343
55	-10.835
▁83	-10.8356
▁afford	-10.8357
▁defensive	-10.836
▁explode	-10.836
▁judgment	-10.836
▁measles	-10.836
▁reduction	-10.836
▁television	-10.836
▁adidas	-10.836
▁clothes	-10.836
▁detroit	-10.836
▁distress	-10.836
▁lodge	-10.836
▁rAW	-10.836
▁benchmark	-10.836
▁oxford	-10.836
▁statue	-10.8361
tom	-10.8362
▁browser	-10.8364
charge	-10.8365
manda	-10.8367
▁107	-10.8367
▁rather	-10.8368
▁tang	-10.8369
▁axe	-10.8377
woman	-10.8377
▁anne	-10.8378
▁partially	-10.8382
▁zimbabwean	-10.8386
rated	-10.8386
ggle	-10.8387
elli	-10.8389
now	-10.8414
▁though	-10.8416
▁skate	-10.8417
▁promoter	-10.8419
13	-10.8424
▁indiana	-10.8425
base	-10.8428
▁asymptomatic	-10.8429
▁chamisa	-10.8429
▁opioid	-10.8429
▁preparation	-10.8429
▁renault	-10.8429
▁chamber	-10.8429
▁kingdom	-10.8429
▁sarawak	-10.8429
▁jesus	-10.8429
▁remix	-10.8429
▁anchor	-10.8429
▁wenger	-10.8429
▁migration	-10.8429
▁LO	-10.8429
gent	-10.843
▁blake	-10.8432
▁IOC	-10.8434
▁PB	-10.8436
ological	-10.8439
▁MT	-10.8443
▁ability	-10.8449
▁shane	-10.8457
sley	-10.8457
▁kirk	-10.8461
▁kil	-10.8465
▁bella	-10.8469
▁salmon	-10.8469
▁broadcaster	-10.8474
▁gaga	-10.8482
▁sonia	-10.8485
▁participate	-10.8498
▁signature	-10.8498
▁maduro	-10.8498
▁navigate	-10.8499
▁rashford	-10.8499
▁por	-10.8499
▁farewell	-10.85
▁weaken	-10.8512
▁shouldnt	-10.8513
ello	-10.8515
▁fianc	-10.8529
▁sneaker	-10.8539
hra	-10.8546
iq	-10.8551
▁casino	-10.8553
▁organise	-10.8556
▁slum	-10.8565
▁LP	-10.8566
▁commodity	-10.8568
▁coordinat	-10.8568
▁knowledge	-10.8568
▁smooth	-10.8568
▁jaguar	-10.8568
▁qantas	-10.8568
▁medicare	-10.8568
▁missouri	-10.8568
▁SL	-10.8569
▁LSU	-10.857
▁filter	-10.8571
▁cough	-10.8573
▁tommy	-10.8577
92	-10.8579
▁weve	-10.8583
▁shahid	-10.8585
▁rivalry	-10.8589
shaw	-10.859
86	-10.8594
IS	-10.8596
▁glad	-10.8605
get	-10.8619
▁robber	-10.862
▁pray	-10.8626
▁anushka	-10.8639
▁disclose	-10.8639
▁disgrace	-10.8639
▁grealish	-10.8639
▁mohammed	-10.8639
▁palliative	-10.8639
▁resilience	-10.8639
▁baffle	-10.8639
▁czech	-10.8639
▁fiction	-10.8639
▁afcon	-10.8639
▁suburb	-10.8639
▁TO	-10.8639
▁40000	-10.8641
▁cert	-10.8642
▁smes	-10.8646
▁seeker	-10.8648
▁deer	-10.8649
▁GC	-10.865
rack	-10.8651
▁quite	-10.8652
hn	-10.8652
▁define	-10.8653
▁cult	-10.8668
▁KP	-10.8669
rrell	-10.867
▁permanently	-10.8672
▁offence	-10.8676
▁CBD	-10.8684
▁350	-10.8687
▁bok	-10.8687
▁slate	-10.8688
▁dancer	-10.8692
▁sonic	-10.8697
▁italys	-10.8704
▁promo	-10.8704
▁cave	-10.8707
▁shed	-10.8708
▁expense	-10.8709
▁fantastic	-10.8709
▁gadkari	-10.8709
▁gambari	-10.8709
▁imminent	-10.8709
▁tekashi	-10.8709
▁willoughby	-10.8709
▁mercury	-10.8709
▁potato	-10.871
▁segment	-10.871
▁fisherman	-10.871
▁offender	-10.871
▁CV	-10.871
▁lyric	-10.871
▁rahee	-10.871
▁brokerage	-10.8711
▁asean	-10.8712
▁roof	-10.8713
▁MAX	-10.8715
▁alyx	-10.8715
▁hardware	-10.8717
▁breed	-10.8726
pass	-10.8731
▁pork	-10.8733
▁button	-10.8739
▁colt	-10.874
▁kul	-10.874
▁neuro	-10.8744
▁newsom	-10.8746
stair	-10.8754
▁surf	-10.8758
▁nicol	-10.877
▁pitt	-10.8776
▁diablo	-10.8781
▁dialogue	-10.8781
▁headquarters	-10.8781
▁magazine	-10.8781
▁moratorium	-10.8781
▁kareena	-10.8781
▁superhero	-10.8781
▁downturn	-10.8781
▁collide	-10.8781
▁jorge	-10.8781
▁anthem	-10.8781
▁werner	-10.8781
▁chromebook	-10.8782
▁midnight	-10.8782
▁nunes	-10.8784
▁insane	-10.8787
lp	-10.8791
▁sebi	-10.8794
tag	-10.8802
▁institutional	-10.8804
▁salt	-10.882
logical	-10.8834
▁PMI	-10.8837
▁shin	-10.884
▁anfield	-10.8845
hole	-10.8849
mac	-10.8851
▁outage	-10.8852
▁UOB	-10.8853
▁khabib	-10.8853
▁pattinson	-10.8853
▁penguin	-10.8853
▁premature	-10.8853
▁rajapaksa	-10.8853
▁sacrifice	-10.8853
▁blasio	-10.8853
▁muscle	-10.8853
▁bronco	-10.8853
▁razr	-10.8853
▁TB	-10.8854
▁tribal	-10.8855
▁mention	-10.8856
▁jaw	-10.8857
▁franklin	-10.8857
▁ASX	-10.8857
▁adaptation	-10.8862
▁AT	-10.8884
mart	-10.8887
ison	-10.8895
▁lego	-10.8902
▁mig	-10.8913
▁foreigner	-10.8917
▁bajaj	-10.8925
▁consumption	-10.8925
▁glimpse	-10.8925
▁imagine	-10.8925
▁inflammatory	-10.8925
▁spectrum	-10.8925
▁transplant	-10.8925
▁yankee	-10.8925
▁spray	-10.8925
▁belarus	-10.8925
▁intention	-10.8925
▁SG	-10.8926
▁slack	-10.8926
tec	-10.8927
▁GB	-10.8928
▁lingerie	-10.8929
bre	-10.8929
▁stability	-10.8932
▁braun	-10.8935
▁hasnt	-10.8939
▁gru	-10.8946
▁loud	-10.8948
last	-10.8951
iva	-10.8987
break	-10.8991
▁bali	-10.8993
▁cab	-10.8995
▁except	-10.8998
▁astronomer	-10.8998
▁diagnosis	-10.8998
▁misconduct	-10.8998
▁recognize	-10.8998
▁solidarity	-10.8998
▁zuckerberg	-10.8998
▁dairy	-10.8998
▁mandate	-10.8999
▁heavyweight	-10.8999
▁cliff	-10.9
▁weakness	-10.9004
▁libra	-10.9008
▁lap	-10.901
vent	-10.901
▁sher	-10.901
night	-10.9016
▁khlo	-10.9022
▁overtake	-10.9027
▁fab	-10.9028
▁davidson	-10.9028
▁jin	-10.903
▁USB	-10.9031
▁aldi	-10.9034
▁killing	-10.904
▁evolution	-10.9041
▁confess	-10.9058
gli	-10.9063
▁upper	-10.9065
view	-10.9066
▁comply	-10.9069
▁caribbean	-10.9072
▁corridor	-10.9072
▁innovative	-10.9072
▁negotiation	-10.9072
▁regulate	-10.9072
▁UG	-10.9072
▁stack	-10.9073
▁mortality	-10.9073
▁distract	-10.9074
▁harass	-10.9074
▁GPU	-10.908
▁groom	-10.9082
▁brick	-10.9085
oko	-10.9091
ucci	-10.9092
▁reminder	-10.9104
utter	-10.9105
97	-10.9108
anya	-10.9113
▁shouldn	-10.913
▁heist	-10.9131
▁halo	-10.9132
pac	-10.914
▁format	-10.9141
▁anticipate	-10.9146
▁eurovision	-10.9146
▁typhoon	-10.9146
▁buffalo	-10.9146
▁preserve	-10.9146
▁easily	-10.9146
▁exxon	-10.9146
▁indicate	-10.9146
▁gabriel	-10.9146
▁contender	-10.9147
▁DB	-10.9147
▁revelation	-10.9148
▁barack	-10.9148
▁WTI	-10.915
▁dumb	-10.9151
▁comfortable	-10.9151
▁painful	-10.9154
▁blade	-10.9156
▁wow	-10.9157
uddin	-10.9157
▁europa	-10.9159
▁EO	-10.9164
▁135	-10.9166
▁offset	-10.9167
tam	-10.9168
▁III	-10.9169
▁fence	-10.9171
riya	-10.9172
▁marco	-10.9188
share	-10.9191
▁gin	-10.9199
07	-10.92
▁sudden	-10.9201
▁IE	-10.921
▁CF	-10.9213
▁proceed	-10.9213
39	-10.9218
▁almajiri	-10.9221
▁attitude	-10.9221
▁heartfelt	-10.9221
▁hygiene	-10.9221
▁twitch	-10.9221
▁napoli	-10.9221
▁void	-10.9221
▁IP	-10.9221
▁wendy	-10.9222
bow	-10.9222
▁humble	-10.9223
▁clipper	-10.9224
▁beyonc	-10.9224
▁abuja	-10.9225
▁CPU	-10.9227
▁jun	-10.9228
▁cement	-10.923
▁glow	-10.9231
racy	-10.9236
▁clare	-10.9236
▁chess	-10.9237
▁125	-10.9238
▁hatch	-10.9242
48	-10.9246
lani	-10.9254
oj	-10.9264
own	-10.9269
ovic	-10.9269
▁200000	-10.9274
iwa	-10.9286
▁ox	-10.9287
▁villager	-10.9296
▁background	-10.9296
▁goswami	-10.9296
▁perspective	-10.9296
▁submarine	-10.9296
▁suffolk	-10.9296
▁vaccination	-10.9296
▁excess	-10.9296
▁gautam	-10.9296
▁regain	-10.9296
▁protein	-10.9296
▁prank	-10.9296
▁cardinal	-10.9296
▁CL	-10.9297
▁dare	-10.9297
▁balloon	-10.9299
▁joseph	-10.9302
▁everyday	-10.9303
▁filmmaker	-10.9304
▁adoption	-10.9309
▁pipe	-10.9313
▁warship	-10.932
ities	-10.9339
wayne	-10.9347
rug	-10.9348
76	-10.9355
fest	-10.936
▁compulsory	-10.9371
▁grandmother	-10.9371
▁sebastian	-10.9371
▁soundtrack	-10.9371
▁surrender	-10.9371
▁unlimited	-10.9371
▁hopkins	-10.9371
▁taxpayer	-10.9371
▁wreck	-10.9372
▁cybersecurity	-10.9372
▁madison	-10.9372
▁AL	-10.9373
TH	-10.9373
▁BI	-10.9373
▁autonom	-10.9373
▁modify	-10.9374
▁interactive	-10.9374
▁SR	-10.9376
▁kath	-10.938
▁wike	-10.9382
▁clot	-10.9383
▁diaz	-10.9384
▁GTA	-10.9385
▁directive	-10.9385
▁premiership	-10.9388
▁motorist	-10.9389
▁kwa	-10.9414
▁choos	-10.9424
▁binge	-10.9426
▁lure	-10.9431
▁vic	-10.9438
▁dunn	-10.9448
▁defamation	-10.9448
▁jeopardy	-10.9448
▁vnexpress	-10.9448
▁vitamin	-10.9448
▁flirt	-10.9448
▁length	-10.9448
▁certification	-10.9448
▁NRL	-10.9451
▁emir	-10.9452
▁chin	-10.9453
▁commuter	-10.9455
▁burr	-10.9456
▁$26	-10.9461
▁scotia	-10.9466
▁abba	-10.9469
▁downtown	-10.9469
▁photography	-10.947
▁geot	-10.9474
▁demi	-10.948
izing	-10.9486
▁shootout	-10.9491
▁invade	-10.9498
▁lamb	-10.9503
▁telco	-10.9509
▁crowne	-10.951
▁reid	-10.9513
▁wasn	-10.9515
▁pand	-10.9518
▁category	-10.9525
▁debunk	-10.9525
▁khurrana	-10.9525
▁lifestyle	-10.9525
▁violator	-10.9525
▁demolish	-10.9525
▁grief	-10.9525
▁southampton	-10.9525
▁depot	-10.9525
▁desire	-10.9525
▁spear	-10.9525
▁backyard	-10.9525
▁MG	-10.9525
▁spree	-10.9525
▁governance	-10.9525
▁roast	-10.9525
▁bobby	-10.9528
▁assessment	-10.9529
▁preston	-10.9531
▁expat	-10.9532
▁setup	-10.9541
▁convention	-10.9543
▁firework	-10.9547
▁stealth	-10.955
anda	-10.9557
▁fade	-10.9567
▁slot	-10.957
▁umar	-10.957
▁oak	-10.957
▁mug	-10.9576
▁BM	-10.9599
▁accurate	-10.9602
▁aubameyang	-10.9602
▁complicate	-10.9602
▁complication	-10.9602
▁disagree	-10.9602
▁filipino	-10.9602
▁holocaust	-10.9602
▁massachusetts	-10.9602
▁principal	-10.9602
▁prototype	-10.9602
▁silicon	-10.9602
▁wolverhampton	-10.9602
▁technique	-10.9602
▁referee	-10.9602
▁sono	-10.9602
▁clinch	-10.9602
▁seizure	-10.9602
▁snack	-10.9603
▁RP	-10.9603
▁disinfectant	-10.9605
▁broadway	-10.9605
part	-10.9607
▁2024	-10.9611
▁somalia	-10.9612
erling	-10.9616
▁battere	-10.9622
▁chor	-10.9623
▁vanish	-10.9624
▁mack	-10.9626
▁krishna	-10.9629
▁jake	-10.9631
▁illegally	-10.9652
suit	-10.9671
▁AA	-10.9678
▁cleveland	-10.968
▁cyprus	-10.968
▁diversity	-10.968
▁molecul	-10.968
▁remembrance	-10.968
▁spencer	-10.968
▁tablighi	-10.968
▁hathaway	-10.968
▁safari	-10.968
▁ebay	-10.9681
▁bacterium	-10.9681
▁slap	-10.9681
▁wicket	-10.9684
▁DE	-10.969
▁GMB	-10.9694
▁hoard	-10.9696
▁mud	-10.9705
▁KO	-10.9712
▁sort	-10.9727
▁zim	-10.9734
▁beware	-10.9734
▁shun	-10.9737
nnah	-10.9739
▁tradition	-10.9747
▁deeply	-10.9747
▁AF	-10.9749
▁herbal	-10.9758
▁MIUI	-10.9759
▁RCEP	-10.9759
▁authentic	-10.9759
▁chandigarh	-10.9759
▁procedure	-10.9759
▁productivity	-10.9759
▁strategie	-10.9759
▁allocate	-10.9759
▁JK	-10.9759
▁litre	-10.9759
▁reinstate	-10.9759
▁remand	-10.976
▁bloom	-10.9761
▁LE	-10.9761
▁extinction	-10.9761
▁classroom	-10.9764
▁notebook	-10.9765
▁polish	-10.9766
▁GH	-10.9766
▁WB	-10.9771
ignite	-10.9772
▁blacklist	-10.9777
cat	-10.9782
▁humanity	-10.979
abad	-10.9794
▁isle	-10.9798
city	-10.9827
▁kashmiri	-10.9828
▁bryan	-10.983
▁gesture	-10.9838
▁ighalo	-10.9838
▁jerusalem	-10.9838
▁qualification	-10.9838
▁NXT	-10.9838
▁leopard	-10.9838
▁msnbc	-10.9838
▁precaution	-10.9838
▁maritime	-10.9839
▁petroleum	-10.9839
▁manmohan	-10.9839
▁watford	-10.9839
▁ibrahimovic	-10.9839
▁PO	-10.9839
▁hook	-10.9839
▁burden	-10.984
▁ETF	-10.9842
▁sao	-10.9842
▁tesco	-10.9842
▁cabin	-10.9845
▁tripura	-10.9847
▁skipper	-10.986
▁reno	-10.9884
▁hors	-10.9902
▁winger	-10.9903
corn	-10.9915
▁rubbish	-10.9918
▁alzheimer	-10.9918
▁croatia	-10.9918
▁propaganda	-10.9918
▁disgust	-10.9918
▁vault	-10.9918
▁brendan	-10.9919
▁animation	-10.9919
▁prelim	-10.9919
▁firearm	-10.9919
▁afternoon	-10.9919
▁VAT	-10.9921
▁midlands	-10.9921
▁HRD	-10.9923
▁booze	-10.9924
▁grass	-10.9926
▁margin	-10.9926
▁proceeding	-10.9927
rent	-10.9929
▁verge	-10.9929
▁tenant	-10.9932
vers	-10.9938
56	-10.9948
▁phillips	-10.9965
▁stem	-10.9979
▁shaw	-10.9989
▁merge	-10.9992
▁impeach	-10.9996
▁dann	-10.9997
▁bello	-10.9997
▁hank	-10.9997
▁benjamin	-10.9999
▁clothing	-10.9999
▁horrify	-10.9999
▁narrative	-10.9999
▁redskins	-10.9999
▁gerrard	-10.9999
▁pundit	-10.9999
▁liberty	-10.9999
▁linux	-10.9999
▁recount	-10.9999
▁unmask	-10.9999
▁parcel	-10.9999
▁reddit	-10.9999
▁incentive	-10.9999
▁whip	-11.0001
▁belgium	-11.0002
▁WTO	-11.0003
▁punishment	-11.0003
hang	-11.0013
▁2008	-11.0015
▁detection	-11.0015
▁expire	-11.0016
security	-11.0016
▁FIR	-11.0018
▁foil	-11.0019
▁pierre	-11.002
master	-11.0038
▁coma	-11.0045
▁runway	-11.0045
▁chop	-11.0052
▁treasure	-11.0066
▁specific	-11.0077
▁HKFP	-11.008
▁seinfeld	-11.008
▁laboratory	-11.008
▁reference	-11.008
▁terminator	-11.008
▁dhawan	-11.008
▁thermal	-11.008
▁sketch	-11.008
▁ganguly	-11.0081
▁texan	-11.0081
▁southeast	-11.0081
▁CG	-11.0081
▁manila	-11.0082
▁defiant	-11.0082
▁RAM	-11.0084
▁derek	-11.0084
▁wonderful	-11.0085
▁valve	-11.0087
▁useful	-11.0092
▁pul	-11.0093
▁NM	-11.0094
▁KT	-11.0098
58	-11.0101
▁mul	-11.0118
kov	-11.0119
NG	-11.0154
▁aberdeen	-11.0162
▁atletico	-11.0162
▁lamborghini	-11.0162
▁sabarimala	-11.0162
▁capitol	-11.0162
▁enugu	-11.0162
▁rebrand	-11.0162
▁bolster	-11.0162
▁lopez	-11.0162
▁constant	-11.0162
▁flour	-11.0162
▁intervene	-11.0163
▁interstate	-11.0164
▁gram	-11.0166
▁IO	-11.0166
▁IBM	-11.0166
63	-11.0176
▁1200	-11.0184
▁experimental	-11.0184
82	-11.0188
▁booking	-11.0206
▁mcg	-11.0209
▁mural	-11.0209
▁melt	-11.0213
▁logo	-11.0216
▁julie	-11.0233
▁vest	-11.0235
▁blockbuster	-11.0245
▁transparency	-11.0245
▁leinster	-11.0245
▁cameron	-11.0245
▁HSBC	-11.0245
▁relieve	-11.0246
▁RO	-11.0246
▁colbert	-11.0246
▁flex	-11.0248
▁SNP	-11.0248
▁burton	-11.025
▁IV	-11.025
▁flatten	-11.025
▁AFC	-11.0252
▁parliamentar	-11.0258
▁robo	-11.0262
46	-11.0264
▁lang	-11.0264
rah	-11.0265
▁billboard	-11.0266
▁6000	-11.0267
▁phillip	-11.0281
▁stres	-11.0281
TV	-11.0282
▁chap	-11.0287
▁mobil	-11.0289
tyler	-11.0291
72	-11.0318
▁commence	-11.0326
▁arsen	-11.0328
▁coutinho	-11.0328
▁lincoln	-11.0328
▁masvidal	-11.0328
▁sandwich	-11.0328
▁sidharth	-11.0328
▁constable	-11.0328
▁reckon	-11.0329
▁mechanic	-11.0329
▁fiona	-11.0329
▁reinvent	-11.0329
▁rehab	-11.0329
▁lament	-11.033
▁anymore	-11.0332
▁curse	-11.034
▁keane	-11.0344
▁decorat	-11.0346
▁bloody	-11.0346
▁$60	-11.0352
▁transportation	-11.0353
eye	-11.0369
ota	-11.0392
▁12000	-11.0407
▁94	-11.0408
▁FB	-11.0409
long	-11.041
▁neighbor	-11.0412
▁chrysler	-11.0412
▁hancock	-11.0412
▁revisit	-11.0412
▁lawrence	-11.0412
▁refute	-11.0412
▁XP	-11.0413
▁maiden	-11.0414
▁remotely	-11.0414
▁possession	-11.0414
▁clone	-11.0416
▁juice	-11.0416
▁ajay	-11.0416
▁hobb	-11.0417
▁gla	-11.0418
▁ruto	-11.0428
world	-11.0429
▁trek	-11.0437
apse	-11.0444
▁quietly	-11.0446
▁TA	-11.045
▁omar	-11.0452
▁IB	-11.0468
▁cox	-11.0472
▁NO	-11.0472
▁macro	-11.0478
▁PP	-11.049
▁DN	-11.0493
▁jihad	-11.0494
▁anywhere	-11.0497
▁inappropriate	-11.0497
▁rihanna	-11.0497
▁scarlett	-11.0497
▁unhappy	-11.0497
▁namibia	-11.0497
▁bennett	-11.0497
▁symbol	-11.0497
▁lonely	-11.0497
▁walsh	-11.0497
▁exceptional	-11.0498
▁smog	-11.0498
▁gomes	-11.0499
▁KSI	-11.0501
▁PTI	-11.0501
▁poach	-11.0502
▁valid	-11.0504
▁gross	-11.0504
▁WT	-11.0511
stream	-11.0512
▁therapeutics	-11.0512
▁julia	-11.0517
▁shutter	-11.0518
▁IND	-11.0522
▁patel	-11.0524
▁bog	-11.0538
▁grad	-11.0543
▁deter	-11.0549
▁employ	-11.0554
▁dismissal	-11.0558
▁spare	-11.0561
BA	-11.057
▁devi	-11.058
▁heroin	-11.0581
▁linger	-11.0582
▁accessories	-11.0583
▁algorithm	-11.0583
▁bachelor	-11.0583
▁fundamental	-11.0583
▁gauteng	-11.0583
▁kosovo	-11.0583
▁suarez	-11.0583
▁kelowna	-11.0583
▁twilight	-11.0583
▁rebellion	-11.0583
▁xerox	-11.0583
▁cousin	-11.0583
▁ceasefire	-11.0583
▁revoke	-11.0583
▁manipur	-11.0583
▁blunder	-11.0584
▁malware	-11.0584
▁GI	-11.0586
▁steep	-11.0589
▁advert	-11.059
▁meddle	-11.059
▁progressive	-11.0592
▁TE	-11.0594
▁AMC	-11.0594
▁yoda	-11.0597
37	-11.06
▁orbit	-11.0604
season	-11.0605
science	-11.0605
ando	-11.0605
▁ER	-11.0616
ically	-11.0619
▁granit	-11.0623
▁60000	-11.063
▁challenger	-11.0632
▁$21	-11.0634
▁oppo	-11.0638
▁starlet	-11.0639
▁denis	-11.0661
▁legislati	-11.0662
▁kamal	-11.0667
▁ahmed	-11.0669
▁antiviral	-11.0669
▁asteroid	-11.0669
▁compromise	-11.0669
▁confinement	-11.0669
▁fugitive	-11.0669
▁heartbroken	-11.0669
▁homicide	-11.0669
▁lufthansa	-11.0669
▁turmoil	-11.0669
▁zelensky	-11.0669
▁rebuke	-11.0669
▁reversal	-11.0669
▁bleach	-11.0669
▁unseen	-11.0669
▁aurora	-11.0669
▁JUST	-11.0669
▁offense	-11.0669
▁slideshow	-11.0669
▁automatic	-11.067
▁bedroom	-11.0671
▁publisher	-11.0671
▁binance	-11.0672
▁harmful	-11.0673
▁collective	-11.0675
ptic	-11.0679
▁conte	-11.0687
▁madra	-11.0697
▁loosen	-11.0698
▁boxer	-11.0712
▁downside	-11.0714
▁photograph	-11.0718
▁enterpris	-11.0725
bee	-11.0746
▁tube	-11.0748
▁baldwin	-11.0756
▁competitor	-11.0756
▁cosmetic	-11.0756
▁evaluation	-11.0756
▁plenty	-11.0756
▁pulitzer	-11.0756
▁schmidt	-11.0756
▁varadkar	-11.0756
▁screw	-11.0756
▁prasad	-11.0756
▁FX	-11.0756
▁wealthy	-11.0756
▁slightly	-11.0756
▁procurement	-11.0757
▁WC	-11.0758
▁jacksonville	-11.0758
▁polar	-11.0758
▁troy	-11.0758
▁finland	-11.076
▁penang	-11.0762
▁dalton	-11.0763
▁fool	-11.0764
▁critically	-11.0774
▁stalk	-11.078
fight	-11.0781
78	-11.0785
arious	-11.0785
▁nc	-11.0786
▁magical	-11.0792
omo	-11.0795
▁junk	-11.0801
▁89	-11.0802
▁RA	-11.0804
▁darre	-11.0807
▁cuba	-11.081
▁113	-11.0812
alone	-11.0814
▁spoil	-11.082
wine	-11.0824
▁jab	-11.0831
▁$150	-11.0834
deutsche	-11.0844
▁antibiotic	-11.0844
▁catastrophic	-11.0844
▁dispatch	-11.0844
▁ordinance	-11.0844
▁sanctuary	-11.0844
▁zombie	-11.0844
▁snapchat	-11.0844
▁campbell	-11.0844
▁ISL	-11.0844
▁arnold	-11.0844
▁montana	-11.0844
▁turtle	-11.0844
▁absent	-11.0844
▁induct	-11.0844
▁rope	-11.0844
▁larr	-11.0845
▁biotech	-11.0845
▁inaugurate	-11.0847
▁luck	-11.0847
▁exemption	-11.0848
▁westworld	-11.0848
▁attendance	-11.085
▁shortlist	-11.085
▁ownership	-11.0853
▁2014	-11.0855
▁hasn	-11.086
▁trent	-11.0866
▁suddenly	-11.0866
health	-11.087
▁blazer	-11.0876
▁emotion	-11.0882
▁GE	-11.0885
▁300000	-11.0889
wide	-11.0892
▁SAA	-11.0906
▁lifeline	-11.0908
▁$18	-11.0912
▁15000	-11.0914
▁haram	-11.0929
▁resist	-11.093
▁grateful	-11.0932
▁millennials	-11.0932
▁virgil	-11.0932
▁bangkok	-11.0932
▁gadget	-11.0932
▁facelift	-11.0932
▁rhode	-11.0932
▁federation	-11.0932
▁hijack	-11.0932
▁daisy	-11.0932
▁OPEC	-11.0932
▁rift	-11.0932
▁WI	-11.0933
▁landscape	-11.0933
▁burial	-11.0933
▁esport	-11.0934
▁borno	-11.0935
▁laser	-11.0936
▁jungle	-11.094
walk	-11.0941
▁MR	-11.0942
▁IDF	-11.0943
▁couldnt	-11.0947
▁FE	-11.095
▁batch	-11.096
▁recreation	-11.0964
azz	-11.0966
amba	-11.0981
▁ceo	-11.0985
urav	-11.0993
▁ET	-11.1002
▁dirt	-11.1003
▁nun	-11.1018
RE	-11.1019
▁adityanath	-11.1021
▁auckland	-11.1021
▁increasing	-11.1021
▁leclerc	-11.1021
▁leverage	-11.1021
▁messenger	-11.1021
▁neglect	-11.1021
▁nightclub	-11.1021
▁saskatchewan	-11.1021
▁familiar	-11.1021
▁bafana	-11.1021
▁nikki	-11.1021
▁anambra	-11.1021
▁suppress	-11.1021
▁giggs	-11.1021
▁autism	-11.1022
▁RF	-11.1022
▁VC	-11.1022
▁peru	-11.1024
▁broker	-11.1024
DUSD	-11.1025
▁click	-11.1025
▁osun	-11.1027
▁nav	-11.1028
▁chrissy	-11.1028
▁BSF	-11.1033
▁bursa	-11.1035
▁kenny	-11.104
▁kent	-11.1041
▁exile	-11.1046
connect	-11.1048
game	-11.1053
▁blog	-11.1058
▁25000	-11.1061
▁gall	-11.1067
rica	-11.1067
▁boomer	-11.1092
▁electro	-11.1095
cyberpunk	-11.1111
▁avatar	-11.1111
▁cemetery	-11.1111
▁enormous	-11.1111
▁ingredient	-11.1111
▁integration	-11.1111
▁lgbtq	-11.1111
▁mnuchin	-11.1111
▁recognise	-11.1111
▁visakhapatnam	-11.1111
▁zlatan	-11.1111
▁KFC	-11.1111
▁schumer	-11.1111
▁notorious	-11.1111
▁cyrus	-11.1111
▁example	-11.1111
▁ebola	-11.1111
▁ulster	-11.1112
▁commend	-11.1113
▁displace	-11.1113
▁malone	-11.1119
▁spice	-11.112
▁completion	-11.1121
▁GS	-11.1122
▁PSL	-11.1125
▁nord	-11.1134
▁bandit	-11.1134
▁raut	-11.1136
▁papa	-11.1138
▁steer	-11.1139
▁chem	-11.1139
▁buff	-11.114
▁NU	-11.1144
▁damon	-11.1146
▁kaif	-11.1151
▁gavin	-11.1152
▁significantly	-11.1171
▁stunt	-11.1176
▁pam	-11.1177
▁doug	-11.1192
▁obsess	-11.1198
▁inaugura	-11.1199
▁ibrahim	-11.1202
▁dinosaur	-11.1202
▁lesotho	-11.1202
▁nebraska	-11.1202
▁yasmeen	-11.1202
▁karachi	-11.1202
▁robbie	-11.1202
▁wallace	-11.1202
▁cleric	-11.1203
▁ajax	-11.1203
▁representative	-11.1203
▁glance	-11.1203
▁merc	-11.1204
▁millane	-11.1205
▁paddy	-11.1206
▁crossover	-11.1207
▁specification	-11.1208
▁ASU	-11.1209
▁kerry	-11.1211
▁leone	-11.1224
▁constitutional	-11.1224
▁BAN	-11.1227
▁disneyland	-11.1239
▁successor	-11.125
max	-11.1252
▁realty	-11.1252
▁NL	-11.1255
▁akhtar	-11.1294
▁awkward	-11.1294
▁discipline	-11.1294
▁efficient	-11.1294
▁frustration	-11.1294
▁mechanism	-11.1294
▁mercenary	-11.1294
▁pakatan	-11.1294
▁sanitizer	-11.1294
▁substitute	-11.1294
▁capsule	-11.1294
▁jewellery	-11.1294
▁overwatch	-11.1294
▁vanessa	-11.1294
▁retaliat	-11.1294
▁bleak	-11.1294
▁JD	-11.1295
▁limerick	-11.1295
▁betray	-11.1296
▁denial	-11.1297
▁automation	-11.1297
▁metoo	-11.1297
chu	-11.1298
▁apex	-11.1298
▁desk	-11.13
▁mayweather	-11.1301
▁MVP	-11.1301
▁artwork	-11.1303
▁comb	-11.1303
▁skater	-11.1312
▁chuck	-11.1315
▁postponement	-11.1315
$2	-11.1321
▁IM	-11.1323
▁prevention	-11.1325
stand	-11.1334
▁2030	-11.1335
▁demon	-11.1338
▁gardai	-11.1343
dell	-11.1352
xis	-11.1353
▁andrea	-11.1353
but	-11.1355
▁kyli	-11.1357
▁gradual	-11.1368
▁electronics	-11.1371
▁couldn	-11.1371
▁joel	-11.1377
▁overall	-11.1377
state	-11.1385
▁covering	-11.1386
▁battleground	-11.1387
▁delicious	-11.1387
▁eternal	-11.1387
▁exclude	-11.1387
▁paramedic	-11.1387
▁tribunal	-11.1387
▁biopic	-11.1387
▁ladakh	-11.1387
▁arvind	-11.1387
▁winston	-11.1387
▁moody	-11.1388
▁batsman	-11.1388
▁solomon	-11.139
▁jessica	-11.1391
▁levy	-11.1395
▁ranch	-11.1402
▁johar	-11.1402
▁rollout	-11.1403
▁strap	-11.1407
▁mint	-11.1408
ilateral	-11.1416
spread	-11.1416
▁jag	-11.1419
▁jung	-11.1422
azi	-11.1444
▁gur	-11.1452
meter	-11.1456
▁finalist	-11.1458
hana	-11.1469
▁USDCAD	-11.148
▁conclude	-11.148
▁inequality	-11.148
▁legislature	-11.148
▁squeeze	-11.148
▁taoiseach	-11.148
▁ubisoft	-11.148
▁teigen	-11.148
▁nasdaqAM	-11.148
▁hulk	-11.148
▁boast	-11.148
GBP	-11.1481
▁usage	-11.1481
▁algeria	-11.1481
▁tencent	-11.1484
▁consent	-11.1485
▁paise	-11.1494
▁baghdadi	-11.1499
▁CIA	-11.1501
▁fond	-11.1505
▁portable	-11.1508
▁170	-11.1512
whi	-11.1517
▁defi	-11.1539
▁educat	-11.1545
media	-11.1562
▁airstrike	-11.1574
▁constituency	-11.1574
▁everybody	-11.1574
▁facilitat	-11.1574
▁stupid	-11.1574
▁myself	-11.1574
▁vardhan	-11.1574
▁sibling	-11.1574
▁douglas	-11.1575
▁snatch	-11.1575
▁annoy	-11.1575
▁copyright	-11.1575
▁indigo	-11.1575
▁herald	-11.1576
▁swipe	-11.1576
▁hospitality	-11.1576
▁limbo	-11.1579
▁martinez	-11.1579
▁fraudster	-11.1584
▁organiser	-11.1594
▁auditor	-11.1596
▁playlist	-11.1598
USD	-11.1602
yush	-11.1605
▁cowell	-11.1606
▁vera	-11.1621
▁GA	-11.1622
▁rite	-11.1625
▁finalise	-11.1625
SU	-11.1627
▁successfully	-11.1629
▁reset	-11.1636
▁glam	-11.1637
▁endure	-11.1637
▁makeover	-11.164
06	-11.1641
▁found	-11.1642
▁130	-11.1652
▁115	-11.1654
▁morris	-11.1667
▁UFO	-11.167
▁blizzard	-11.167
▁catherine	-11.167
▁database	-11.167
▁happiness	-11.167
▁simulator	-11.167
▁blitz	-11.167
▁provincial	-11.167
▁stakeholder	-11.167
▁unpaid	-11.167
▁ardern	-11.167
▁simply	-11.167
▁varsity	-11.167
▁insurer	-11.167
▁snoop	-11.167
▁dawn	-11.167
▁TP	-11.167
▁noida	-11.1671
▁vicky	-11.1671
▁awful	-11.1671
▁nagaland	-11.1672
▁cooperate	-11.1675
courage	-11.1676
▁nathan	-11.1677
▁capp	-11.1681
excise	-11.1681
▁brake	-11.1685
▁baron	-11.1686
▁corpse	-11.1693
▁williamson	-11.1699
▁arson	-11.1701
storm	-11.1703
▁libyan	-11.1704
▁taco	-11.1706
▁hostel	-11.1721
▁upload	-11.1721
▁wearable	-11.1724
lte	-11.1726
▁villain	-11.1728
▁thief	-11.1729
▁roberto	-11.1759
▁arrange	-11.1763
▁LVMH	-11.1766
▁anonymous	-11.1766
▁dilemma	-11.1766
▁invitation	-11.1766
▁maldives	-11.1766
▁motivate	-11.1766
▁reynolds	-11.1766
▁stylish	-11.1766
▁switzerland	-11.1766
▁vintage	-11.1766
▁worship	-11.1766
▁anxious	-11.1766
▁cortez	-11.1766
▁kendall	-11.1766
▁parkinson	-11.1766
▁webinar	-11.1766
▁bronx	-11.1766
▁kodak	-11.1766
▁scoop	-11.1766
▁ramayan	-11.1766
▁BF	-11.1766
▁srinagar	-11.1767
▁jeep	-11.1772
▁ICE	-11.1775
▁royce	-11.1776
▁UT	-11.1777
▁bulletin	-11.178
▁creepy	-11.1787
source	-11.1787
▁NW	-11.1788
fish	-11.1813
▁norman	-11.1815
▁boil	-11.1838
▁chant	-11.1842
▁kiera	-11.1845
▁rana	-11.1845
▁exhibit	-11.1858
▁ODI	-11.1863
▁floyd	-11.1863
▁grieve	-11.1863
▁patience	-11.1863
▁valuable	-11.1863
▁terminate	-11.1863
▁hudson	-11.1863
▁instruct	-11.1863
▁machete	-11.1863
▁mueller	-11.1863
▁remedy	-11.1863
▁holmes	-11.1863
▁childcare	-11.1863
▁cabello	-11.1863
▁bln	-11.1863
▁mendes	-11.1864
▁parenting	-11.1865
▁disappearance	-11.1865
▁vince	-11.1867
▁inspection	-11.1867
▁daesh	-11.1867
▁rogue	-11.1869
▁BR	-11.187
▁RM	-11.1871
▁impression	-11.1872
▁roku	-11.1874
▁yuan	-11.1882
▁politic	-11.1883
▁PSA	-11.1885
▁setting	-11.1894
anwo	-11.1909
▁irishman	-11.1918
▁damn	-11.1939
▁lou	-11.194
▁amazoncom	-11.1942
▁$35	-11.1952
active	-11.1953
▁annexation	-11.1961
▁philadelphia	-11.1961
▁prosecute	-11.1961
▁blackpool	-11.1961
▁bauchi	-11.1961
▁folk	-11.1961
▁aniston	-11.1961
▁FF	-11.1962
▁intense	-11.1962
▁chandra	-11.1962
▁derbyshire	-11.1963
▁coldplay	-11.1963
▁commencement	-11.1964
▁tampa	-11.1965
▁hibs	-11.1966
▁kwara	-11.1967
▁rapist	-11.1968
▁deck	-11.197
▁garage	-11.197
▁susan	-11.197
▁peek	-11.1973
▁ANC	-11.1974
▁DT	-11.1985
▁robin	-11.199
▁CR	-11.1991
▁moodys	-11.2013
▁maul	-11.2016
uku	-11.2018
ecutive	-11.2055
▁exempt	-11.2055
▁addict	-11.2057
▁baltimore	-11.206
▁riyadh	-11.206
▁shukla	-11.206
▁reservation	-11.206
▁doorbell	-11.206
▁awesome	-11.206
▁kartik	-11.206
▁gloom	-11.206
▁smear	-11.206
▁cambridge	-11.2061
▁amber	-11.2062
hatta	-11.2065
▁acre	-11.2067
▁strait	-11.2068
▁katri	-11.2072
▁ferr	-11.2077
69	-11.208
▁cookie	-11.208
▁lex	-11.2084
▁vista	-11.2088
▁matchup	-11.2088
▁mercy	-11.2095
▁upbeat	-11.21
tree	-11.211
▁solv	-11.2113
▁stray	-11.2116
▁costco	-11.212
lex	-11.2127
▁kemp	-11.2128
▁naga	-11.214
▁influen	-11.2157
▁efficiency	-11.216
▁gambhir	-11.216
▁insolvency	-11.216
▁negotiate	-11.216
▁obituary	-11.216
▁prohibit	-11.216
▁ranveer	-11.216
▁tunisia	-11.216
▁unicef	-11.216
▁applaud	-11.216
▁bruyne	-11.216
▁indicator	-11.216
▁najib	-11.216
▁stockpile	-11.216
▁cpus	-11.216
▁mafia	-11.216
▁abraham	-11.216
▁overdose	-11.216
▁cattle	-11.216
▁SF	-11.216
▁mentor	-11.2163
▁CFO	-11.2166
▁becky	-11.2166
▁CFL	-11.2166
▁stallion	-11.2167
▁roshan	-11.2169
▁audition	-11.2175
▁NCR	-11.2176
▁gathering	-11.2195
▁babu	-11.221
corp	-11.2216
▁breakout	-11.2229
▁burglar	-11.2236
▁soup	-11.2242
▁inject	-11.2257
▁NDDC	-11.2261
▁autumn	-11.2261
▁extraordinary	-11.2261
▁kamloops	-11.2261
▁okanagan	-11.2261
▁oshiomhole	-11.2261
▁principle	-11.2261
▁reiterate	-11.2261
▁resurface	-11.2261
▁skyrocket	-11.2261
▁teixeira	-11.2261
▁walsall	-11.2261
▁yuvraj	-11.2261
▁dazzle	-11.2261
▁ravage	-11.2261
▁restrain	-11.2261
▁distant	-11.2261
▁rachel	-11.2261
▁mln	-11.2262
▁WSJ	-11.2262
▁aftermath	-11.2262
▁arcade	-11.2262
▁rico	-11.2263
▁MM	-11.2264
▁digest	-11.2265
▁devin	-11.2266
▁deportation	-11.2268
▁acid	-11.2269
▁morty	-11.2272
▁wifi	-11.2273
▁quota	-11.2273
▁kla	-11.2275
▁mainland	-11.2277
▁roster	-11.2283
▁2025	-11.2285
▁kamala	-11.2289
▁PCB	-11.2296
▁ACT	-11.2312
▁veto	-11.2317
▁oneill	-11.233
▁NOT	-11.2342
▁heartbreak	-11.2358
▁historical	-11.2361
▁hydro	-11.2363
▁DHFL	-11.2363
▁balotelli	-11.2363
▁conservation	-11.2363
▁inclusion	-11.2363
▁interrupt	-11.2363
▁lautaro	-11.2363
▁leipzig	-11.2363
▁obesity	-11.2363
▁safeguard	-11.2363
▁smackdown	-11.2363
▁unchanged	-11.2363
▁impersonat	-11.2363
▁scratch	-11.2363
▁impair	-11.2363
▁samuel	-11.2363
▁scrub	-11.2363
▁variant	-11.2363
▁payroll	-11.2363
▁johor	-11.2363
▁CCTV	-11.2363
▁psychological	-11.2363
▁FP	-11.2364
▁blanket	-11.2365
▁flashback	-11.2366
▁textile	-11.2366
▁guess	-11.237
▁popeye	-11.2371
▁implementation	-11.2373
▁attendant	-11.2374
▁rudy	-11.2375
▁hamper	-11.2377
▁toute	-11.2378
▁wallet	-11.2397
▁quitte	-11.24
▁CH	-11.2419
▁maur	-11.244
▁ideal	-11.2446
▁sonam	-11.2447
▁mikel	-11.2449
scop	-11.245
▁ayrshire	-11.2466
▁disinformation	-11.2466
▁subsidie	-11.2466
▁suppose	-11.2466
▁swansea	-11.2466
▁underground	-11.2466
▁HDFC	-11.2466
▁harriet	-11.2466
▁mirza	-11.2466
▁gantz	-11.2466
▁fabric	-11.2466
ennial	-11.2466
▁canberra	-11.2466
▁parole	-11.2466
▁VW	-11.2466
▁kimmel	-11.2466
▁cotton	-11.2466
▁DF	-11.2467
▁dimensi	-11.2467
▁hydrogen	-11.2467
▁retrieve	-11.2467
▁NOW	-11.2468
▁adamawa	-11.2469
▁YES	-11.247
▁pepper	-11.2473
▁reeve	-11.2476
▁IF	-11.2477
▁CPI	-11.248
▁sanitiser	-11.2482
▁ambition	-11.2483
feld	-11.2489
▁skipp	-11.2493
▁fran	-11.2496
▁surfer	-11.25
▁finn	-11.2531
▁gush	-11.2541
cade	-11.2547
▁midfield	-11.2558
▁bamp	-11.2558
▁inspect	-11.2559
▁austerity	-11.257
▁beneficiary	-11.257
▁bureau	-11.257
▁declaration	-11.257
▁disrespect	-11.257
▁jakarta	-11.257
▁practical	-11.257
▁reclaim	-11.257
▁religion	-11.257
▁spokesperson	-11.257
▁strangle	-11.257
▁valorant	-11.257
▁atmosphere	-11.257
▁prequel	-11.257
▁ethnic	-11.257
▁monsoon	-11.257
▁suisse	-11.257
▁prophet	-11.257
▁mishap	-11.257
▁bunch	-11.257
▁regina	-11.257
▁loyal	-11.2571
▁byrne	-11.2572
▁akwa	-11.2574
▁chopper	-11.2575
▁ashok	-11.2575
▁gown	-11.2576
▁kindness	-11.2579
▁detainee	-11.258
▁bitter	-11.258
▁NJ	-11.2586
▁daddy	-11.2587
▁hello	-11.2594
▁chronicle	-11.2595
▁detector	-11.26
▁kristin	-11.26
▁conway	-11.2601
▁glenn	-11.2603
▁replay	-11.2604
▁citi	-11.2624
▁ambitio	-11.2659
▁$600	-11.2673
▁diagnostic	-11.2676
▁explanation	-11.2676
▁grubhub	-11.2676
▁hemsworth	-11.2676
▁kartarpur	-11.2676
▁lithuania	-11.2676
▁maguire	-11.2676
▁maradona	-11.2676
▁recipient	-11.2676
▁substantial	-11.2676
▁unemployed	-11.2676
▁affirm	-11.2676
▁LGBT	-11.2676
▁schalke	-11.2676
▁tycoon	-11.2676
▁ninja	-11.2676
▁martyr	-11.2676
▁collab	-11.2676
▁punk	-11.2676
▁meltdown	-11.2676
▁dengue	-11.2677
▁vietnamese	-11.2678
▁philippe	-11.2678
▁goyal	-11.2678
▁journalism	-11.2679
▁snag	-11.268
▁patron	-11.2681
▁paw	-11.2682
▁flyover	-11.2683
▁prolong	-11.2683
▁toast	-11.2688
▁deadlock	-11.2688
▁pell	-11.2697
▁gradually	-11.2697
▁shawn	-11.2702
▁160	-11.271
▁naka	-11.2723
iggy	-11.2728
▁lori	-11.2741
▁jade	-11.2748
▁dino	-11.2753
▁SN	-11.2773
▁cease	-11.2782
▁corvette	-11.2782
▁disastrous	-11.2782
▁intensive	-11.2782
▁nightingale	-11.2782
▁oculus	-11.2782
▁participation	-11.2782
▁shoulder	-11.2782
▁supplement	-11.2782
▁voluntary	-11.2782
▁extraction	-11.2782
▁giphy	-11.2782
▁mediatek	-11.2782
▁screenshot	-11.2782
▁bounty	-11.2782
▁handwara	-11.2782
▁abusive	-11.2782
▁robust	-11.2782
▁JB	-11.2782
▁arteta	-11.2782
ultry	-11.2782
▁bulk	-11.2782
▁stint	-11.2783
▁catalan	-11.2783
▁misery	-11.2784
▁slur	-11.2785
▁scorpio	-11.2788
▁enlist	-11.2789
▁stud	-11.279
▁koala	-11.2791
▁iceland	-11.2795
▁sabri	-11.2798
▁ivor	-11.2807
▁lamar	-11.2811
▁organic	-11.2812
▁ATM	-11.2813
nitin	-11.282
train	-11.2822
▁sync	-11.2827
▁feat	-11.2828
▁emine	-11.284
▁sinn	-11.2844
▁juan	-11.2851
▁pacer	-11.2872
valu	-11.2877
▁PG	-11.2883
▁HS	-11.2885
▁abhishek	-11.2889
▁aurangabad	-11.2889
▁everywhere	-11.2889
▁harbour	-11.2889
▁kilbride	-11.2889
▁paedophile	-11.2889
▁tsunami	-11.2889
▁census	-11.2889
▁unbeaten	-11.2889
▁mukesh	-11.2889
▁eleven	-11.2889
▁locate	-11.2889
▁salesforce	-11.289
▁bypoll	-11.289
▁CW	-11.289
▁sustainability	-11.289
▁gibb	-11.289
▁cisco	-11.2891
▁arrangement	-11.2893
▁blunt	-11.2894
▁ruiz	-11.2894
▁clarkson	-11.2895
▁bellator	-11.2895
▁OTT	-11.2896
▁truce	-11.2897
▁surat	-11.2898
▁2013	-11.2898
▁LB	-11.2899
▁disappointment	-11.29
▁colonel	-11.2903
▁hailey	-11.2904
▁kidney	-11.292
▁adani	-11.2921
▁coca	-11.2924
famous	-11.2934
▁kun	-11.2945
▁karl	-11.2957
ield	-11.2974
▁rahm	-11.298
▁$80	-11.298
▁dire	-11.2989
ographic	-11.299
▁ambush	-11.2998
▁analytics	-11.2998
▁bournemouth	-11.2998
▁conferencing	-11.2998
▁duchess	-11.2998
▁excellent	-11.2998
▁hrithik	-11.2998
▁integrity	-11.2998
▁separatist	-11.2998
▁soybean	-11.2998
▁variety	-11.2998
▁vatican	-11.2998
▁BSNL	-11.2998
▁refusal	-11.2998
▁chancellor	-11.2998
▁sophie	-11.2998
▁drift	-11.2998
▁execute	-11.2998
▁shankar	-11.2998
▁wholesale	-11.2998
▁doodle	-11.2998
▁ibom	-11.2999
▁excel	-11.2999
▁serena	-11.2999
▁atiku	-11.2999
▁manuel	-11.3
▁RAW	-11.3
▁whitmer	-11.3001
▁fibre	-11.3001
▁lounge	-11.3002
▁ramsey	-11.3003
▁indictment	-11.3003
▁semitic	-11.3005
▁archie	-11.3005
▁kurt	-11.3006
▁hoop	-11.301
▁realistic	-11.3011
▁johnstone	-11.3011
▁DD	-11.3012
▁lamp	-11.3014
▁saif	-11.3018
▁neet	-11.302
▁wool	-11.3021
▁sheep	-11.3023
▁botch	-11.3027
▁PT	-11.3028
olivia	-11.3028
▁fancy	-11.3033
▁allowance	-11.3033
blanc	-11.3038
▁ACC	-11.3047
yama	-11.3067
▁olivi	-11.3074
▁respons	-11.3077
cially	-11.3084
paul	-11.3089
▁kalu	-11.309
▁avalanche	-11.3108
▁communist	-11.3108
▁futuristic	-11.3108
▁relevant	-11.3108
▁surprisingly	-11.3108
▁symonds	-11.3108
▁MSME	-11.3108
▁jinping	-11.3108
▁splash	-11.3108
▁unsafe	-11.3108
▁revolt	-11.3108
▁sunshine	-11.3108
▁cottage	-11.3108
▁favre	-11.3108
▁yadav	-11.3108
▁kriti	-11.3108
▁hoax	-11.3108
▁query	-11.3108
▁AJ	-11.3108
▁exeter	-11.3108
▁misuse	-11.3109
▁MF	-11.3109
▁OP	-11.3109
▁mobility	-11.3111
▁attach	-11.3112
▁automaker	-11.3113
▁jewelry	-11.3114
▁endorsement	-11.3116
▁raab	-11.3118
▁suresh	-11.312
▁swab	-11.3122
▁governorship	-11.3123
cube	-11.313
spire	-11.3135
▁copper	-11.3137
▁alison	-11.3139
▁novak	-11.3151
▁deem	-11.3159
▁harbor	-11.3194
lissa	-11.3195
▁caf	-11.3216
▁consensus	-11.3219
▁consulate	-11.3219
▁furniture	-11.3219
▁jupiter	-11.3219
▁relaunch	-11.3219
▁satisfy	-11.3219
▁spectacular	-11.3219
▁deliberate	-11.3219
▁techjaja	-11.3219
▁mohamed	-11.3219
▁puerto	-11.3219
▁thumb	-11.3219
▁uplift	-11.3219
▁maui	-11.3219
▁razer	-11.3219
▁slogan	-11.322
▁nasty	-11.322
▁OU	-11.322
▁sheikh	-11.322
▁consultant	-11.3223
▁AOC	-11.3223
▁holland	-11.3226
▁attractive	-11.3226
▁mallya	-11.3229
▁shula	-11.323
▁membership	-11.3236
▁clearance	-11.3238
▁moneta	-11.3238
▁confession	-11.324
▁salad	-11.324
▁shout	-11.3253
▁navi	-11.3253
CHF	-11.3271
▁SEA	-11.3292
▁compute	-11.3317
▁element	-11.333
▁bawumia	-11.3331
▁blueprint	-11.3331
▁concrete	-11.3331
▁kushner	-11.3331
▁minecraft	-11.3331
▁spacecraft	-11.3331
▁thehealthsite	-11.3331
▁houthi	-11.3332
▁bharti	-11.3332
▁examination	-11.3332
▁paradise	-11.3332
▁warzone	-11.3332
▁fierce	-11.3332
▁alpha	-11.3332
▁pretende	-11.3332
▁AEW	-11.3333
▁framework	-11.3333
▁mccart	-11.3333
▁certify	-11.3333
▁aaryan	-11.3333
▁elementary	-11.3333
▁loyalty	-11.3334
▁ashwin	-11.3334
▁reassur	-11.3334
▁fiancee	-11.3335
▁zuma	-11.3335
▁pulse	-11.3337
▁intend	-11.3338
▁liability	-11.3338
▁scammer	-11.3339
▁lecturer	-11.3343
▁EPF	-11.3343
koda	-11.3347
▁plain	-11.3351
▁jagan	-11.3356
▁2009	-11.336
▁briefing	-11.3361
▁designate	-11.3362
▁roar	-11.3381
▁saha	-11.3414
▁DL	-11.344
▁corrupt	-11.3441
▁oxygen	-11.3443
▁scholar	-11.3444
hammad	-11.3445
▁cleavage	-11.3445
▁doorstep	-11.3445
▁emmanuel	-11.3445
▁hairdresser	-11.3445
▁kawasaki	-11.3445
▁maintenance	-11.3445
▁merchant	-11.3445
▁enrique	-11.3445
▁schwab	-11.3445
▁boundary	-11.3445
▁photoshop	-11.3445
▁restoration	-11.3445
▁NFC	-11.3445
▁dementia	-11.3445
▁gmail	-11.3445
▁giveaway	-11.3445
▁clause	-11.3445
▁flexible	-11.3446
▁TSMC	-11.3446
▁alexandr	-11.3446
▁dresden	-11.3447
▁numero	-11.3449
▁woodward	-11.345
▁turbo	-11.345
▁gunfire	-11.345
▁frontier	-11.3452
▁SSD	-11.3455
▁malta	-11.3456
▁medication	-11.346
▁pique	-11.3462
▁danish	-11.3462
▁diana	-11.3467
▁garra	-11.3475
▁mash	-11.3487
▁dutt	-11.3487
▁santo	-11.3502
▁deandr	-11.3519
▁booth	-11.3521
▁marginal	-11.355
▁peg	-11.355
▁knicks	-11.356
▁mcmahon	-11.356
▁mushtaq	-11.356
▁nutrition	-11.356
▁participant	-11.356
▁reelection	-11.356
▁sabotage	-11.356
▁salvage	-11.356
▁trafford	-11.356
▁turnaround	-11.356
▁unlawful	-11.356
▁marquez	-11.356
▁stigma	-11.356
▁harvey	-11.356
▁naidu	-11.356
▁cameo	-11.356
▁ryder	-11.3561
▁candle	-11.3562
▁flori	-11.3562
▁glut	-11.3563
▁countdown	-11.3563
▁advent	-11.3564
▁HSE	-11.3565
▁$28	-11.3571
wight	-11.3571
▁quash	-11.3571
▁supercar	-11.3574
▁vibe	-11.3584
▁esper	-11.3585
▁contactless	-11.3592
▁banana	-11.3596
▁franc	-11.3651
▁mahesh	-11.366
▁shave	-11.3667
▁differ	-11.3674
▁blank	-11.3674
▁volatility	-11.3676
▁BPCL	-11.3676
▁garbage	-11.3676
▁literally	-11.3676
▁purple	-11.3676
▁stumble	-11.3676
▁beaumont	-11.3676
▁fraser	-11.3676
▁partisan	-11.3676
▁expedi	-11.3677
▁dhaka	-11.3677
▁estonia	-11.3678
▁espe	-11.3679
▁tenure	-11.3688
▁penney	-11.3691
▁cue	-11.3694
▁CAF	-11.3696
▁KS	-11.3702
▁FCT	-11.3704
authorize	-11.3717
▁kilo	-11.3739
▁tactical	-11.3753
▁RI	-11.3792
▁NYSEDIS	-11.3794
▁contradict	-11.3794
▁crowdfund	-11.3794
▁demonstration	-11.3794
▁disburse	-11.3794
▁entrance	-11.3794
▁heartwarming	-11.3794
▁humanitarian	-11.3794
▁incredibly	-11.3794
▁jubilee	-11.3794
▁naikoo	-11.3794
▁nervous	-11.3794
▁nonprofit	-11.3794
▁nurmagomedov	-11.3794
▁EXO	-11.3794
▁argyle	-11.3794
▁thwart	-11.3794
▁voucher	-11.3794
▁aishwary	-11.3794
▁jogger	-11.3794
▁ethics	-11.3794
▁invisible	-11.3794
▁logic	-11.3794
▁lazio	-11.3794
▁shelton	-11.3794
▁haasan	-11.3794
▁wedding	-11.3794
▁unicorn	-11.3794
▁overeem	-11.3795
▁rainfall	-11.3798
▁memoir	-11.3798
▁insect	-11.3799
▁municipality	-11.3799
▁abduction	-11.3804
▁IMD	-11.3805
▁LS	-11.3805
▁brics	-11.3806
show	-11.3808
▁DS	-11.3809
▁inspirational	-11.3813
lapp	-11.3871
▁neill	-11.3874
▁JP	-11.3893
▁united	-11.3908
▁adelaide	-11.3913
▁antarctic	-11.3913
▁footprint	-11.3913
▁heathrow	-11.3913
▁initiate	-11.3913
▁irctc	-11.3913
▁katsina	-11.3913
▁nasarawa	-11.3913
▁pfizer	-11.3913
▁prescott	-11.3913
▁reimagine	-11.3913
▁slaughter	-11.3913
▁transparent	-11.3913
▁valencia	-11.3913
▁appetite	-11.3913
▁workshop	-11.3913
▁depriv	-11.3913
▁havoc	-11.3913
▁heaven	-11.3913
▁frost	-11.3914
▁riley	-11.3914
▁compact	-11.3917
embark	-11.3917
▁DI	-11.3917
▁thorn	-11.392
▁captaincy	-11.392
▁SRL	-11.392
▁narco	-11.3921
▁rajya	-11.3922
▁lethal	-11.3925
▁NRC	-11.3927
▁popularity	-11.3932
▁yaho	-11.3935
▁jacket	-11.3936
▁GL	-11.3936
erspoon	-11.396
▁juve	-11.3974
scale	-11.4001
▁HE	-11.4002
▁rake	-11.4002
▁batter	-11.4003
▁LFC	-11.4034
▁babcock	-11.4034
▁chemistry	-11.4034
▁circus	-11.4034
▁denounce	-11.4034
▁ferdinand	-11.4034
▁fernandez	-11.4034
▁fracture	-11.4034
▁ganduje	-11.4034
▁logistics	-11.4034
▁meghalaya	-11.4034
▁sharjah	-11.4034
▁wallpaper	-11.4034
▁galactic	-11.4034
▁nichola	-11.4034
▁prominent	-11.4034
▁offshore	-11.4034
▁outstanding	-11.4034
▁coffin	-11.4034
▁vogue	-11.4034
▁nadine	-11.4034
▁derail	-11.4034
▁shetty	-11.4034
▁crisp	-11.4034
▁bicycle	-11.4034
▁mortal	-11.4034
▁counterpart	-11.4034
▁scholarship	-11.4034
▁oprah	-11.4035
▁clever	-11.4037
▁ETH	-11.4038
▁RIP	-11.4038
▁bancorp	-11.4038
▁serge	-11.4038
▁ailing	-11.404
▁jossa	-11.4041
dication	-11.4041
▁macos	-11.4052
▁NYT	-11.4053
▁treasurer	-11.4055
▁luci	-11.4062
fuse	-11.4063
▁melani	-11.4064
hall	-11.4073
▁creep	-11.4078
screen	-11.4092
eizu	-11.4094
▁zach	-11.4098
kook	-11.4109
▁chronic	-11.4127
▁CJ	-11.4151
▁abbott	-11.4155
▁acknowledge	-11.4155
▁activate	-11.4155
▁dynasty	-11.4155
▁eligibility	-11.4155
▁extremist	-11.4155
▁gratitude	-11.4155
▁intimidation	-11.4155
▁kilmarnock	-11.4155
▁kourtney	-11.4155
▁kurdish	-11.4155
▁resilient	-11.4155
▁surplus	-11.4155
▁uruguay	-11.4155
▁IHC	-11.4155
▁balcony	-11.4155
▁monarch	-11.4155
▁livestock	-11.4156
▁mcginn	-11.4156
▁valverde	-11.4156
▁akmal	-11.4156
▁oracle	-11.4156
▁premise	-11.4156
▁kapil	-11.4156
▁greed	-11.4156
▁gentle	-11.4156
▁swimsuit	-11.4156
▁OF	-11.4156
▁narrate	-11.4157
▁sinha	-11.4157
▁genesis	-11.4157
▁sovereignty	-11.4157
▁pharmacy	-11.4158
▁assad	-11.4161
▁bradley	-11.4161
▁maxwell	-11.4162
▁TSX	-11.4163
▁joyce	-11.4169
▁11000	-11.417
▁everest	-11.4173
▁psycho	-11.4177
▁$250	-11.4178
bacha	-11.4198
▁shami	-11.4203
surge	-11.4228
▁SMA	-11.4236
▁psych	-11.4258
▁$1000	-11.4265
▁butterfly	-11.4279
▁columbia	-11.4279
▁comprehensive	-11.4279
▁connectivity	-11.4279
▁descend	-11.4279
▁flipkart	-11.4279
▁grandfather	-11.4279
▁judiciary	-11.4279
▁relocate	-11.4279
▁etfs	-11.4279
▁summary	-11.4279
▁fiasco	-11.4279
XAU	-11.4279
▁rhino	-11.4279
▁sowore	-11.4279
▁orphan	-11.4279
▁skull	-11.4279
▁UV	-11.4279
▁quinn	-11.428
▁feast	-11.428
▁bathroom	-11.428
▁mainstream	-11.428
▁ankle	-11.4281
▁replica	-11.4283
▁jihadist	-11.4283
brett	-11.4285
▁NEW	-11.4285
▁WE	-11.4286
interpret	-11.4286
▁ciara	-11.4286
▁diplomatic	-11.4289
▁IU	-11.4289
▁karim	-11.4295
▁depth	-11.4303
▁maxim	-11.4303
casio	-11.4305
▁angle	-11.432
foot	-11.4348
eiman	-11.4377
▁java	-11.4378
▁construct	-11.4399
▁demonstrate	-11.4404
▁gospel	-11.4404
▁harbhajan	-11.4404
▁kavanaugh	-11.4404
▁lacazette	-11.4404
▁prioritise	-11.4404
▁stefano	-11.4404
▁succumb	-11.4404
▁unearth	-11.4404
▁hampshire	-11.4404
▁livelihood	-11.4404
▁spectator	-11.4404
▁stomach	-11.4404
▁wizard	-11.4404
▁sanitation	-11.4404
▁sewage	-11.4404
▁allocation	-11.4404
▁solicit	-11.4404
▁paatal	-11.4404
▁eshop	-11.4404
▁manhattan	-11.4404
▁songwriter	-11.4406
▁curious	-11.4406
▁tomato	-11.4406
▁chipset	-11.4407
▁compound	-11.4407
microbi	-11.4409
▁AKA	-11.441
▁vast	-11.441
▁obsession	-11.441
▁headache	-11.4412
▁DSS	-11.4412
▁originate	-11.4416
▁choir	-11.4418
▁oath	-11.4424
▁OM	-11.4441
▁$1700	-11.4517
▁anatomy	-11.4531
▁apprentice	-11.4531
▁compassion	-11.4531
▁flavour	-11.4531
▁frighten	-11.4531
▁gogglebox	-11.4531
▁implication	-11.4531
▁orleans	-11.4531
▁privilege	-11.4531
▁rajinikanth	-11.4531
▁reaffirm	-11.4531
▁sikkim	-11.4531
▁uranium	-11.4531
▁wyoming	-11.4531
▁zamfara	-11.4531
▁acquit	-11.4531
▁mahathir	-11.4531
▁parallel	-11.4531
▁exodus	-11.4531
▁gossip	-11.4531
▁trilogy	-11.4531
▁jacare	-11.4531
▁jamaat	-11.4531
▁lennon	-11.4531
▁drastic	-11.4531
▁whistle	-11.4531
▁abdul	-11.4531
▁devgn	-11.4531
▁souza	-11.4531
▁SK	-11.4531
▁bleed	-11.4531
▁censorship	-11.4531
▁saliva	-11.4532
▁inquest	-11.4532
▁accommodation	-11.4532
▁queer	-11.4532
▁assert	-11.4533
▁encryption	-11.4533
▁chevy	-11.4533
▁moderate	-11.4534
▁denver	-11.4535
▁airshow	-11.4536
▁staggering	-11.4538
▁RTX	-11.4539
▁ivank	-11.454
hound	-11.4541
▁LC	-11.4543
▁adrian	-11.4545
▁peaceful	-11.4546
▁RD	-11.4554
▁poco	-11.4558
▁RN	-11.456
▁decent	-11.4565
irav	-11.4582
▁NR	-11.4582
▁agricultur	-11.4628
▁administrator	-11.4659
▁arraign	-11.4659
▁cripple	-11.4659
▁disqualify	-11.4659
▁ebonyi	-11.4659
▁hizbul	-11.4659
▁kremlin	-11.4659
▁prescription	-11.4659
▁turbulen	-11.4659
▁vampire	-11.4659
▁bahrain	-11.4659
▁disguise	-11.4659
▁precious	-11.4659
▁substance	-11.4659
▁unanimous	-11.4659
▁asthma	-11.4659
▁idlib	-11.4659
▁concede	-11.4659
▁abdullah	-11.4659
▁doncic	-11.4659
▁arnab	-11.4659
▁backstage	-11.4659
▁vocal	-11.4659
▁kickstart	-11.4659
▁UW	-11.4659
▁belief	-11.4659
▁valentin	-11.4659
▁charli	-11.466
▁interact	-11.466
▁xeno	-11.466
▁DHS	-11.4661
▁galway	-11.4662
▁extort	-11.4662
▁injection	-11.4664
▁pratt	-11.4665
▁martial	-11.4666
▁knockout	-11.4667
▁ellen	-11.4667
▁standoff	-11.4669
▁VPN	-11.467
▁deployment	-11.4671
▁bailey	-11.4673
▁AUD	-11.4674
▁corr	-11.4678
▁chlo	-11.4678
▁gerry	-11.4683
▁revel	-11.4685
▁interfere	-11.4788
▁NNPC	-11.4789
▁NYSEJNJ	-11.4789
▁adjourn	-11.4789
▁armstrong	-11.4789
▁automotive	-11.4789
▁definitive	-11.4789
▁fatigue	-11.4789
▁heavily	-11.4789
▁kazakhstan	-11.4789
▁margaret	-11.4789
▁winnipeg	-11.4789
▁embargo	-11.4789
▁multiplayer	-11.4789
▁nashville	-11.4789
▁cheeky	-11.4789
▁hughes	-11.4789
▁dybala	-11.4789
▁flick	-11.4789
▁empha	-11.4789
▁ninth	-11.4789
▁sidewalk	-11.4791
▁freddie	-11.4791
▁resistant	-11.4792
▁LPG	-11.4794
▁benue	-11.4794
▁capability	-11.4796
▁poem	-11.4798
▁tinder	-11.4799
▁madness	-11.4801
▁mitch	-11.4801
merick	-11.4829
ristan	-11.4847
clean	-11.4893
▁sovereign	-11.4918
▁carragher	-11.492
▁cejudo	-11.492
▁coimbatore	-11.492
▁deforestation	-11.492
▁expenditure	-11.492
▁ismail	-11.492
▁reconsider	-11.492
▁stuart	-11.492
▁taipei	-11.492
▁suitcase	-11.492
▁tampering	-11.492
▁marshall	-11.492
▁tasmac	-11.492
▁newsletter	-11.492
▁NGO	-11.492
▁oasis	-11.492
▁leather	-11.492
▁reliable	-11.492
▁lucknow	-11.492
▁availability	-11.4921
▁hilary	-11.4921
▁sculpture	-11.4921
▁cryptic	-11.4921
▁muhammad	-11.4922
▁defiance	-11.4922
▁quirk	-11.4922
▁sponsorship	-11.4923
▁duncan	-11.4923
▁MTV	-11.4924
▁sabah	-11.4927
▁consultation	-11.4928
▁sedan	-11.4928
▁VII	-11.4933
▁UA	-11.4939
▁amash	-11.494
▁loop	-11.4941
▁atlas	-11.4949
deep	-11.4965
continental	-11.4983
▁mahi	-11.5029
iyaz	-11.504
▁ronald	-11.5042
▁patric	-11.5047
▁imperial	-11.5054
▁despair	-11.5054
▁ecosystem	-11.5054
▁exhaust	-11.5054
▁exploration	-11.5054
▁legislator	-11.5054
▁physician	-11.5054
▁handshake	-11.5054
▁locust	-11.5054
▁ritual	-11.5054
▁vacant	-11.5054
▁avenue	-11.5054
▁himachal	-11.5054
▁rajnath	-11.5054
▁NPA	-11.5054
attled	-11.5054
▁kyiv	-11.5054
▁brewery	-11.5054
▁plc	-11.5054
▁TW	-11.5054
▁donbas	-11.5054
▁xcloud	-11.5055
▁interaction	-11.5058
▁CJI	-11.5058
▁bogus	-11.5061
▁prepay	-11.5065
▁harley	-11.5067
▁kochi	-11.5067
▁asda	-11.5072
script	-11.5125
glass	-11.5127
▁torre	-11.5139
▁censor	-11.5188
▁counterfeit	-11.5189
▁BGT	-11.5189
▁connecticut	-11.5189
▁escort	-11.5189
▁malhotra	-11.5189
▁malicious	-11.5189
▁memphis	-11.5189
▁mozambique	-11.5189
▁obaseki	-11.5189
▁redknapp	-11.5189
▁ronaldinho	-11.5189
▁shoaib	-11.5189
▁yediyurappa	-11.5189
▁KKR	-11.5189
▁dossier	-11.5189
▁alternate	-11.5189
▁autopsy	-11.5189
▁convoy	-11.5189
▁tornado	-11.5189
▁ethical	-11.5189
▁sniff	-11.5189
▁nottinghamshire	-11.519
▁anime	-11.5191
memorable	-11.5191
▁eviction	-11.5192
▁destruction	-11.5192
▁tasman	-11.5192
▁quibi	-11.5193
▁blair	-11.5195
▁AMG	-11.5197
▁IAF	-11.5201
▁BD	-11.5218
▁$90	-11.5238
sexual	-11.5262
▁propel	-11.5269
▁raku	-11.5279
▁somali	-11.5309
droxychloroquine	-11.5326
▁evaluate	-11.5326
▁gervais	-11.5326
▁grenade	-11.5326
▁istanbul	-11.5326
▁koyambedu	-11.5326
▁logitech	-11.5326
▁lorenzo	-11.5326
▁osbourne	-11.5326
▁osinbajo	-11.5326
▁physics	-11.5326
▁pronounce	-11.5326
▁renovation	-11.5326
▁rodriguez	-11.5326
▁scorsese	-11.5326
▁sensitive	-11.5326
▁vodacom	-11.5326
▁SEBI	-11.5326
▁burkina	-11.5326
▁component	-11.5326
▁infosys	-11.5326
▁barkley	-11.5326
▁comcast	-11.5326
▁SOP	-11.5326
▁verona	-11.5326
▁orlando	-11.5326
▁shrine	-11.5326
▁behave	-11.5326
▁eatery	-11.5327
▁telegram	-11.5327
▁curtain	-11.5327
▁theatric	-11.5327
▁molest	-11.5329
▁cannon	-11.5329
▁alexandria	-11.533
▁wagon	-11.5331
▁crave	-11.5337
boob	-11.5338
▁NSE	-11.5338
▁varu	-11.5357
▁stuf	-11.5422
▁aviv	-11.544
▁automat	-11.5463
unconstitutional	-11.5465
▁NYSEJPM	-11.5465
▁catalyst	-11.5465
▁conversion	-11.5465
▁deduction	-11.5465
▁dictator	-11.5465
▁diplomacy	-11.5465
▁elevate	-11.5465
▁florence	-11.5465
▁gabbard	-11.5465
▁gotabaya	-11.5465
▁hedgehog	-11.5465
▁humiliate	-11.5465
▁inevitable	-11.5465
▁masterchef	-11.5465
▁nbfcs	-11.5465
▁nonsense	-11.5465
▁portuguese	-11.5465
▁resurgence	-11.5465
▁salvador	-11.5465
▁semiconductor	-11.5465
▁sequence	-11.5465
▁unacceptable	-11.5465
▁vacancy	-11.5465
phobia	-11.5465
▁bhopal	-11.5465
▁curtail	-11.5465
▁doherty	-11.5465
▁drummer	-11.5465
▁reputation	-11.5465
▁contempt	-11.5465
▁scroll	-11.5465
▁swinson	-11.5465
▁innocent	-11.5465
▁infinity	-11.5465
▁outcry	-11.5465
▁JC	-11.5466
▁inventory	-11.5466
▁minimal	-11.5466
▁jacin	-11.5467
▁dealership	-11.5467
▁vincent	-11.5468
▁crawl	-11.5469
▁TI	-11.5469
▁armenia	-11.5469
▁RAF	-11.547
▁frontliners	-11.547
▁stern	-11.5475
elective	-11.5491
▁slice	-11.5493
▁carmel	-11.5519
aditya	-11.5529
writer	-11.5539
brook	-11.5541
direct	-11.5543
market	-11.556
▁PGampe	-11.5605
▁amsterdam	-11.5605
▁atalanta	-11.5605
▁commerzbank	-11.5605
▁commonwealth	-11.5605
▁congestion	-11.5605
▁criterion	-11.5605
▁disclosure	-11.5605
▁miscarriage	-11.5605
▁nyarko	-11.5605
▁playground	-11.5605
▁simulation	-11.5605
▁freight	-11.5605
▁spiral	-11.5605
▁madonna	-11.5605
▁soviet	-11.5605
▁wallaby	-11.5605
▁alonso	-11.5605
▁moreno	-11.5606
▁lunar	-11.5606
▁FDI	-11.5609
▁confidential	-11.561
▁sundown	-11.5613
▁establishment	-11.5614
▁clown	-11.5614
▁jibe	-11.5614
▁mormon	-11.5615
▁fetch	-11.5622
▁$70	-11.5682
drive	-11.5695
heart	-11.5699
▁gemm	-11.5702
▁unsur	-11.5723
▁VA	-11.5741
▁OPPO	-11.5748
▁argentine	-11.5748
▁contamination	-11.5748
▁deceased	-11.5748
▁incorporate	-11.5748
▁norwich	-11.5748
▁privatisation	-11.5748
▁refrigerat	-11.5748
▁unravel	-11.5748
▁equip	-11.5748
▁tehran	-11.5748
▁tussle	-11.5748
▁zomato	-11.5748
▁eskom	-11.5748
▁conquer	-11.5748
▁gupta	-11.5748
▁infinite	-11.5748
▁intrigue	-11.5748
▁lothian	-11.5748
▁tumour	-11.5748
▁backpacker	-11.5748
▁reckless	-11.5748
▁kyari	-11.5748
▁indycar	-11.5748
▁ordeal	-11.5748
▁rattle	-11.5749
▁PU	-11.5749
▁perthshire	-11.5749
▁vicious	-11.5749
▁chromecast	-11.5749
▁tractor	-11.5749
▁neighbourhood	-11.575
▁samoa	-11.5752
▁PTF	-11.5753
▁kalyan	-11.5754
▁helm	-11.5756
990	-11.5789
▁asad	-11.5795
▁weave	-11.5851
▁consume	-11.5879
▁lecture	-11.5879
▁DUP	-11.5893
▁absurd	-11.5893
▁affiliate	-11.5893
▁analyze	-11.5893
▁brussels	-11.5893
▁conscious	-11.5893
▁definition	-11.5893
▁external	-11.5893
▁frankfurt	-11.5893
▁glastonbury	-11.5893
▁motorcyclist	-11.5893
▁nicaragua	-11.5893
▁overcrowd	-11.5893
▁siegfried	-11.5893
▁structural	-11.5893
▁concession	-11.5893
▁housewife	-11.5893
▁immortal	-11.5893
▁imprison	-11.5893
▁janhvi	-11.5893
▁jealous	-11.5893
▁palghar	-11.5893
▁sanchez	-11.5893
▁meditation	-11.5893
▁euromillions	-11.5893
▁leganes	-11.5893
▁sanofi	-11.5893
▁reliant	-11.5893
▁vernon	-11.5893
▁staple	-11.5893
▁sewer	-11.5893
▁sometimes	-11.5893
▁koeman	-11.5893
▁leroy	-11.5894
▁hilton	-11.5894
▁hustle	-11.5894
▁OG	-11.5894
▁sauce	-11.5895
▁fleetwood	-11.5895
▁trivia	-11.5896
▁normalcy	-11.5903
▁silk	-11.5914
▁commute	-11.6026
▁ammunition	-11.604
▁apollo	-11.604
▁appreciate	-11.604
▁crusader	-11.604
▁instrument	-11.604
▁kombat	-11.604
▁leftist	-11.604
▁mosquito	-11.604
▁novartis	-11.604
▁substitution	-11.604
▁surgical	-11.604
▁tsushima	-11.604
▁UNLV	-11.604
▁laliga	-11.604
▁mitsu	-11.604
▁monroe	-11.604
▁linkedin	-11.604
▁yacht	-11.6041
▁WP	-11.6041
▁albania	-11.6041
▁feather	-11.6041
▁DACA	-11.6042
▁TT	-11.6059
▁composit	-11.6065
shadow	-11.6126
billion	-11.6126
mouth	-11.6126
▁expir	-11.6168
▁AK	-11.6184
▁JEE	-11.6189
▁alvarez	-11.6189
▁burundi	-11.6189
▁cavallari	-11.6189
▁circular	-11.6189
▁fentanyl	-11.6189
▁fingerprint	-11.6189
▁horrible	-11.6189
▁intelligent	-11.6189
▁irregular	-11.6189
▁manslaughter	-11.6189
▁monopoly	-11.6189
▁stonebwoy	-11.6189
▁unbelievable	-11.6189
▁vanderpu	-11.6189
▁zverev	-11.6189
▁cosmic	-11.6189
▁televise	-11.6189
▁delaware	-11.6189
▁prevail	-11.6189
▁NDP	-11.6189
▁ceiling	-11.6189
▁emilia	-11.6189
▁shroff	-11.619
▁lahore	-11.619
▁falter	-11.619
▁mutation	-11.619
▁particle	-11.619
▁portray	-11.619
▁allergy	-11.619
▁domain	-11.619
▁sofia	-11.619
▁entity	-11.619
▁ppes	-11.619
▁PV	-11.619
▁mastercard	-11.6191
▁induce	-11.6192
▁minaj	-11.6193
▁cannes	-11.6197
▁joann	-11.6227
▁govern	-11.6243
▁sanitis	-11.6323
▁kohl	-11.6328
▁jessi	-11.6337
▁DH	-11.6339
▁appreciation	-11.6341
▁arthritis	-11.6341
▁consolidation	-11.6341
▁cyberattack	-11.6341
▁higgins	-11.6341
▁obstacle	-11.6341
▁redefine	-11.6341
▁synagogue	-11.6341
▁twenty	-11.6341
▁NEET	-11.6341
▁barclay	-11.6341
▁devendra	-11.6341
▁dharavi	-11.6341
▁gunshot	-11.6341
▁garcia	-11.6341
▁airasia	-11.6341
▁nixon	-11.6341
▁overlook	-11.6341
▁homeowner	-11.6341
▁severity	-11.6341
▁bosnia	-11.6341
▁waititi	-11.6341
▁sultan	-11.6341
▁throat	-11.6341
▁nowhere	-11.6341
▁proxy	-11.6342
▁sheeran	-11.6342
▁hassan	-11.6342
▁gonna	-11.6342
▁piracy	-11.6343
▁raymond	-11.6343
▁opposite	-11.6344
▁macys	-11.6346
frog	-11.638
court	-11.6432
food	-11.6438
smith	-11.6468
sphere	-11.6492
▁JU	-11.6495
▁circulate	-11.6495
▁condolence	-11.6495
▁crocodile	-11.6495
▁inclusive	-11.6495
▁irresponsible	-11.6495
▁jetblue	-11.6495
▁observation	-11.6495
▁pellegrini	-11.6495
▁prakash	-11.6495
▁reconstruction	-11.6495
▁rhetoric	-11.6495
▁tshwane	-11.6495
▁volleyball	-11.6495
▁abolish	-11.6495
▁bamboo	-11.6495
▁obvious	-11.6495
▁phishing	-11.6495
▁showrunner	-11.6495
▁airlift	-11.6495
▁rafale	-11.6495
▁emoji	-11.6495
▁obamacare	-11.6495
▁olsen	-11.6495
▁beverage	-11.6495
▁sitabo	-11.6495
▁wrist	-11.6495
▁coroner	-11.6495
▁rename	-11.6495
▁rooftop	-11.6495
▁nerve	-11.6496
▁blogger	-11.6497
▁UAW	-11.6497
▁oxygenos	-11.6498
▁vigilance	-11.6498
▁ranaut	-11.6498
▁volvo	-11.6498
▁iftar	-11.6498
▁rubber	-11.6498
▁knit	-11.6498
▁thread	-11.65
▁dimit	-11.6502
▁JS	-11.6505
cargill	-11.6508
▁candid	-11.6509
▁WS	-11.6509
▁gaffe	-11.6517
xperia	-11.652
hopper	-11.6537
temporary	-11.6587
INR	-11.6618
▁indefinite	-11.665
▁afloat	-11.6651
▁ameritrade	-11.6651
▁exclusion	-11.6651
▁lanarkshire	-11.6651
▁nasdaqgoogl	-11.6651
▁nostalgia	-11.6651
▁perception	-11.6651
▁pittsburgh	-11.6651
▁python	-11.6651
▁rijiju	-11.6651
▁spaniard	-11.6651
▁spicejet	-11.6651
▁stepdaughter	-11.6651
▁whisky	-11.6651
▁gulabo	-11.6651
▁operative	-11.6651
▁repayment	-11.6651
▁communal	-11.6651
▁easyjet	-11.6651
▁tuition	-11.6651
▁assume	-11.6651
▁lindsay	-11.6651
▁northwest	-11.6651
▁NGT	-11.6651
▁lavish	-11.6651
▁visible	-11.6651
▁melaye	-11.6651
▁psychiatri	-11.6651
▁tyrone	-11.6651
▁russo	-11.6651
▁shehna	-11.6651
▁amuse	-11.6652
tigious	-11.6652
▁coyle	-11.6652
▁knifepoint	-11.6653
▁decode	-11.6653
▁obtain	-11.6653
▁collar	-11.6654
▁prague	-11.6654
probable	-11.6684
▁OA	-11.6722
▁blend	-11.6787
dental	-11.6789
▁synth	-11.6806
▁christchurch	-11.681
▁hospice	-11.681
▁kyrgios	-11.681
▁loughlin	-11.681
▁mahabharat	-11.681
▁maverick	-11.681
▁mulvaney	-11.681
▁negligence	-11.681
▁outperform	-11.681
▁rediscover	-11.681
▁wardrobe	-11.681
▁appropriate	-11.681
▁bumrah	-11.681
▁frequent	-11.681
▁motorbike	-11.681
▁icymi	-11.681
▁composer	-11.681
▁dignity	-11.681
▁sokoto	-11.681
▁intruder	-11.681
▁snyder	-11.681
▁blackmail	-11.681
▁wellbeing	-11.681
▁swarm	-11.6811
▁ISS	-11.6811
▁input	-11.6812
▁burrow	-11.6813
cognit	-11.6813
▁colonial	-11.6813
▁pannu	-11.6814
▁convene	-11.6814
scape	-11.6846
▁FS	-11.6864
mittal	-11.6963
▁BJ	-11.6967
▁aadhaar	-11.6971
▁assurance	-11.6971
▁bulbul	-11.6971
▁collateral	-11.6971
▁fayemi	-11.6971
▁glorious	-11.6971
▁inflict	-11.6971
▁innovate	-11.6971
▁jigawa	-11.6971
▁juvenile	-11.6971
▁lewandowski	-11.6971
▁madhuri	-11.6971
▁marjaavaan	-11.6971
▁ngannou	-11.6971
▁platinum	-11.6971
▁reprieve	-11.6971
▁surreal	-11.6971
▁therapist	-11.6971
▁unnecessary	-11.6971
▁wisdom	-11.6971
▁decisive	-11.6971
▁militia	-11.6971
▁morelos	-11.6971
▁prudent	-11.6971
▁wadhawan	-11.6971
▁guinness	-11.6971
▁haskins	-11.6971
▁makinde	-11.6971
▁uighur	-11.6971
▁rupert	-11.6971
▁mirren	-11.6971
▁northwestern	-11.6971
▁stoppage	-11.6971
▁either	-11.6971
▁haftar	-11.6971
▁outreach	-11.6971
▁backtrack	-11.6971
▁stormont	-11.6971
▁sumatra	-11.6971
srtc	-11.6972
bhushan	-11.6972
▁FOMC	-11.6972
▁CPEC	-11.6972
▁CX	-11.6972
▁stanford	-11.6973
▁HTC	-11.6973
▁fuji	-11.6976
▁thirst	-11.6979
▁atomic	-11.6981
fredo	-11.6997
armed	-11.7002
eshwar	-11.7003
▁stagger	-11.7125
▁enthusiast	-11.7135
▁apocalypse	-11.7135
▁chiwenga	-11.7135
▁creativity	-11.7135
▁credential	-11.7135
▁doughnut	-11.7135
▁hollyoaks	-11.7135
▁hypocrisy	-11.7135
▁indianapolis	-11.7135
▁manafort	-11.7135
▁michelin	-11.7135
▁muhyiddin	-11.7135
▁orchestra	-11.7135
▁reappear	-11.7135
▁schwarzenegger	-11.7135
▁subsidiary	-11.7135
▁syracuse	-11.7135
▁emperor	-11.7135
▁gasoline	-11.7135
▁mysuru	-11.7135
▁senegal	-11.7135
▁canterbury	-11.7135
▁flamengo	-11.7135
▁rufai	-11.7135
▁resembl	-11.7135
▁legging	-11.7135
▁ladder	-11.7135
▁staffordshire	-11.7135
▁thunderstorm	-11.7135
▁scope	-11.7136
▁onyema	-11.7136
▁urine	-11.7137
▁automatically	-11.7137
▁barbara	-11.7137
▁paytm	-11.7137
▁desai	-11.7138
▁tusk	-11.7142
build	-11.7227
▁AO	-11.7298
▁FD	-11.7298
▁TKO	-11.7302
▁accuracy	-11.7302
▁archbishop	-11.7302
▁commemorate	-11.7302
▁concussion	-11.7302
▁creature	-11.7302
▁elsewhere	-11.7302
▁infiltrat	-11.7302
▁intimidate	-11.7302
▁prioritize	-11.7302
▁resurrect	-11.7302
▁rhobh	-11.7302
▁tanhaji	-11.7302
▁warcraft	-11.7302
▁wikileaks	-11.7302
▁REIT	-11.7302
▁aayog	-11.7302
▁depict	-11.7302
▁eject	-11.7302
▁delegation	-11.7302
▁genuine	-11.7302
▁particular	-11.7302
▁gianni	-11.7302
▁proportion	-11.7302
▁osaka	-11.7302
▁preparedness	-11.7302
▁agarwal	-11.7302
▁eicma	-11.7302
▁shastri	-11.7302
▁snitch	-11.7302
▁pedro	-11.7302
▁christie	-11.7302
▁stroll	-11.7302
▁accra	-11.7303
▁rasp	-11.7303
▁azure	-11.7303
▁WADA	-11.7303
▁farrell	-11.7304
▁gasp	-11.731
▁VS	-11.7323
RBN	-11.7421
▁athletic	-11.7423
▁avail	-11.7469
▁antetokounmpo	-11.7471
▁compensate	-11.7471
▁concentration	-11.7471
▁dismantle	-11.7471
▁drunken	-11.7471
▁intellectual	-11.7471
▁montenegro	-11.7471
▁osimhen	-11.7471
▁combination	-11.7471
▁depressed	-11.7471
▁snapshot	-11.7471
▁triangle	-11.7471
▁scholes	-11.7471
▁undertaker	-11.7471
▁LNG	-11.7471
▁genome	-11.7471
▁capsize	-11.7471
▁ozil	-11.7471
▁amateur	-11.7471
▁intimate	-11.7471
▁idiot	-11.7472
▁transmit	-11.7473
bomb	-11.7539
peake	-11.7628
▁PKR	-11.7644
▁connacht	-11.7644
▁consortium	-11.7644
▁damascus	-11.7644
▁ecommerce	-11.7644
▁excellence	-11.7644
▁imagination	-11.7644
▁inadequate	-11.7644
▁islamophobia	-11.7644
▁javadekar	-11.7644
▁livingston	-11.7644
▁mcenany	-11.7644
▁reshuffle	-11.7644
▁roughriders	-11.7644
▁schneider	-11.7644
▁stubble	-11.7644
▁sufficient	-11.7644
▁xinjiang	-11.7644
▁KLCI	-11.7644
▁clarification	-11.7644
▁fracking	-11.7644
▁kaushal	-11.7644
▁mitigate	-11.7644
▁occur	-11.7644
▁paisley	-11.7644
▁roadblock	-11.7644
▁eurozone	-11.7644
▁germain	-11.7644
▁semitism	-11.7644
▁doncaster	-11.7644
▁magnetic	-11.7644
▁moderator	-11.7644
▁archaeologi	-11.7644
▁blackpink	-11.7644
▁semester	-11.7644
▁wexford	-11.7644
▁pigeon	-11.7644
▁stafford	-11.7644
▁debris	-11.7644
▁mehta	-11.7644
▁erode	-11.7644
▁dentist	-11.7644
▁spook	-11.7644
▁hiatus	-11.7644
▁islamabad	-11.7644
▁riaz	-11.7644
▁invoke	-11.7644
▁sutton	-11.7644
▁legere	-11.7645
▁azmin	-11.7645
▁hasina	-11.7645
rishabh	-11.7647
▁invasi	-11.7651
▁steril	-11.7654
▁natali	-11.7656
▁destruct	-11.7815
▁extinct	-11.7815
▁administrative	-11.7819
▁affleck	-11.7819
▁agyapong	-11.7819
▁arquitecto	-11.7819
▁aspect	-11.7819
▁conundrum	-11.7819
▁darlington	-11.7819
▁ecuador	-11.7819
▁grandparent	-11.7819
▁masterclass	-11.7819
▁radcliffe	-11.7819
▁respirator	-11.7819
▁syndicate	-11.7819
▁yesterday	-11.7819
▁cameroon	-11.7819
▁disperse	-11.7819
▁motivation	-11.7819
▁navajo	-11.7819
▁sedition	-11.7819
OLED	-11.7819
▁cologne	-11.7819
▁nickname	-11.7819
▁qureshi	-11.7819
▁firefox	-11.7819
▁paycheck	-11.7819
▁vacate	-11.7819
▁wonderkid	-11.7819
▁cortana	-11.7819
▁pistol	-11.7819
▁soweto	-11.7819
▁lookalike	-11.7819
▁isaac	-11.7819
▁abhij	-11.7819
▁dixit	-11.7819
▁likud	-11.7819
▁simplify	-11.7819
▁tulsi	-11.7819
▁relish	-11.782
▁ishant	-11.782
▁torreira	-11.782
▁miranda	-11.782
▁XT	-11.7823
nzel	-11.7857
spoke	-11.7905
credit	-11.7938
vascular	-11.7998
▁FRSC	-11.7998
▁LEGO	-11.7998
▁PTSD	-11.7998
▁arcelor	-11.7998
▁arquitetura	-11.7998
▁daggubati	-11.7998
▁faculty	-11.7998
▁masterpiece	-11.7998
▁midwife	-11.7998
▁milwaukee	-11.7998
▁morocco	-11.7998
▁museveni	-11.7998
▁refinery	-11.7998
▁rejoice	-11.7998
▁submission	-11.7998
▁POCO	-11.7998
▁implant	-11.7998
▁singalong	-11.7998
▁subdued	-11.7998
▁kannada	-11.7998
▁entitle	-11.7998
▁simmons	-11.7998
▁dominant	-11.7998
▁influx	-11.7998
▁interpol	-11.7998
▁lunney	-11.7998
▁cereal	-11.7998
▁supermoon	-11.7998
▁branson	-11.7998
▁idaho	-11.7998
▁keegan	-11.7998
▁narayan	-11.7998
▁canuck	-11.7998
▁muscat	-11.7998
▁norton	-11.7999
racing	-11.8011
▁AE	-11.8045
rassic	-11.8069
school	-11.8116
▁augment	-11.8179
▁blachowicz	-11.8179
▁cathedral	-11.8179
▁caucus	-11.8179
▁chevrolet	-11.8179
▁chevron	-11.8179
▁communicate	-11.8179
▁crawford	-11.8179
▁fascinating	-11.8179
▁griffith	-11.8179
▁grizzly	-11.8179
▁limpopo	-11.8179
▁mediterranean	-11.8179
▁odyssey	-11.8179
▁rouhani	-11.8179
▁sarkodie	-11.8179
▁selangor	-11.8179
▁uncomfortable	-11.8179
▁villiers	-11.8179
▁YOU	-11.8179
▁chamberlain	-11.8179
▁exynos	-11.8179
▁heatwave	-11.8179
▁westminster	-11.8179
▁flypast	-11.8179
▁appliance	-11.8179
▁airplane	-11.8179
▁monument	-11.8179
▁crisil	-11.8179
▁halsey	-11.818
▁menace	-11.818
▁scoob	-11.818
▁stitch	-11.818
▁swirl	-11.818
▁xavi	-11.818
▁adhere	-11.8188
oosie	-11.8327
stead	-11.8328
▁AWS	-11.8365
▁contaminated	-11.8365
▁diabetic	-11.8365
▁diaspora	-11.8365
▁dissolve	-11.8365
▁eclipse	-11.8365
▁fascist	-11.8365
▁historian	-11.8365
▁hussain	-11.8365
▁laundry	-11.8365
▁magufuli	-11.8365
▁mcpartlin	-11.8365
▁nicotine	-11.8365
▁outburst	-11.8365
▁paramount	-11.8365
▁precision	-11.8365
▁strategist	-11.8365
▁telemedicine	-11.8365
▁tinubu	-11.8365
▁dispose	-11.8365
▁frenzy	-11.8365
▁illicit	-11.8365
▁navigation	-11.8365
▁pharmacist	-11.8365
▁retrench	-11.8365
▁scathing	-11.8365
▁KBO	-11.8365
▁nagpur	-11.8365
▁radiation	-11.8365
▁dudley	-11.8365
▁rewind	-11.8365
▁WWDC	-11.8365
▁zambia	-11.8365
▁loophole	-11.8365
▁ahuja	-11.8365
▁indecent	-11.8365
▁SV	-11.8365
▁beirut	-11.8365
▁scorch	-11.8365
▁umno	-11.8366
▁RG	-11.8366
▁phoe	-11.8366
▁uproar	-11.8373
position	-11.8458
krishna	-11.8489
group	-11.8492
▁possess	-11.8549
▁bankrupt	-11.8553
▁atmanirbhar	-11.8553
▁cavalier	-11.8553
▁cincinnati	-11.8553
▁conclusion	-11.8553
▁github	-11.8553
▁gladiator	-11.8553
▁gruesome	-11.8553
▁improper	-11.8553
▁nephew	-11.8553
▁peacock	-11.8553
▁petronas	-11.8553
▁saskatoon	-11.8553
▁siddharth	-11.8553
▁tutorial	-11.8553
▁vedanta	-11.8553
▁crumble	-11.8553
▁fowler	-11.8553
▁madurai	-11.8553
▁mermaid	-11.8553
▁chappell	-11.8553
▁prairie	-11.8553
▁tentative	-11.8553
▁umpire	-11.8553
▁freestyle	-11.8553
▁tayside	-11.8553
riott	-11.8553
▁hurry	-11.8553
▁rahane	-11.8553
▁genital	-11.8554
▁auburn	-11.8554
▁SW	-11.8554
▁psychologist	-11.8554
▁neuman	-11.8555
▁fazl	-11.8555
▁winfre	-11.8555
▁persia	-11.8587
sprit	-11.865
▁sculpt	-11.8744
▁ransom	-11.8745
▁azerbaijan	-11.8746
▁consistent	-11.8746
▁derivative	-11.8746
▁elimination	-11.8746
▁evacuee	-11.8746
▁malayalam	-11.8746
▁manipulate	-11.8746
▁manipulation	-11.8746
▁mizoram	-11.8746
▁murkomen	-11.8746
▁nagasaki	-11.8746
▁reluctant	-11.8746
▁schumacher	-11.8746
▁unconscious	-11.8746
▁underperform	-11.8746
▁volatile	-11.8746
▁volcano	-11.8746
▁mongolia	-11.8746
▁residency	-11.8746
▁HUL	-11.8746
▁shuffle	-11.8746
▁boredom	-11.8746
▁dominance	-11.8746
▁hannity	-11.8746
▁treason	-11.8746
▁goodwill	-11.8746
▁magnus	-11.8746
▁harmony	-11.8746
▁module	-11.8746
▁tubman	-11.8746
▁monaco	-11.8746
▁mancini	-11.8746
▁tasty	-11.8746
▁gwen	-11.8749
▁pollute	-11.8772
regard	-11.8878
hampton	-11.8884
▁WW	-11.8938
▁berbatov	-11.8942
▁catastrophe	-11.8942
▁circumstance	-11.8942
▁eradicate	-11.8942
▁etihad	-11.8942
▁flanagan	-11.8942
▁flexibility	-11.8942
▁harrowing	-11.8942
▁inflammation	-11.8942
▁iohannis	-11.8942
▁koulibaly	-11.8942
▁manitoba	-11.8942
▁mushroom	-11.8942
▁occasion	-11.8942
▁puducherry	-11.8942
▁pulisic	-11.8942
▁rewrite	-11.8942
▁roosevelt	-11.8942
▁saffron	-11.8942
▁snooker	-11.8942
▁thunderbolt	-11.8942
▁trespass	-11.8942
▁unequal	-11.8942
▁applicant	-11.8942
▁cuddle	-11.8942
▁emulate	-11.8942
▁pelican	-11.8942
▁pornhub	-11.8942
▁terrace	-11.8942
▁undervalued	-11.8942
▁holohan	-11.8942
▁leisure	-11.8942
▁sausage	-11.8942
▁ordinary	-11.8942
▁dembele	-11.8942
▁facemask	-11.8942
▁eventually	-11.8942
▁generous	-11.8942
▁nitish	-11.8942
▁souness	-11.8942
▁raghu	-11.8942
▁FY	-11.8942
▁1984	-11.8942
hannon	-11.8943
alberto	-11.8956
▁heckle	-11.8956
follow	-11.9078
pessimistic	-11.9142
▁acoustic	-11.9142
▁aquarium	-11.9142
▁autopilot	-11.9142
▁buccaneer	-11.9142
▁commemorati	-11.9142
▁extensive	-11.9142
▁illustrate	-11.9142
▁khawaja	-11.9142
▁kraftwerk	-11.9142
▁labuschagne	-11.9142
▁mcmurray	-11.9142
▁nafdac	-11.9142
▁ombudsman	-11.9142
▁privatise	-11.9142
▁pulwama	-11.9142
▁slovakia	-11.9142
▁supremacist	-11.9142
▁telescope	-11.9142
▁compliment	-11.9142
▁dravid	-11.9142
▁pippen	-11.9142
▁pjanic	-11.9142
▁tharoor	-11.9142
▁coyote	-11.9142
▁diversion	-11.9142
▁katherine	-11.9142
▁prabha	-11.9142
▁translate	-11.9142
▁vinyl	-11.9142
▁parasite	-11.9142
▁donegal	-11.9142
▁sheldon	-11.9142
▁duffy	-11.9142
▁molly	-11.9143
speak	-11.9294
▁evict	-11.9341
orthodox	-11.9346
▁blossom	-11.9346
▁cerrone	-11.9346
▁contagion	-11.9346
▁degeneres	-11.9346
▁dwindle	-11.9346
▁fragile	-11.9346
▁grenfell	-11.9346
▁griezmann	-11.9346
▁gronkowski	-11.9346
▁guatemala	-11.9346
▁hepatitis	-11.9346
▁hercules	-11.9346
▁ibrox	-11.9346
▁kozhikode	-11.9346
▁nasdaqAAPL	-11.9346
▁nugget	-11.9346
▁pedophile	-11.9346
▁putrajaya	-11.9346
▁remittance	-11.9346
▁significance	-11.9346
▁BBMP	-11.9346
▁deepfake	-11.9346
▁ducati	-11.9346
▁maddison	-11.9346
▁veggie	-11.9346
▁wrangle	-11.9346
▁credible	-11.9346
▁lagarde	-11.9346
▁tiwari	-11.9346
▁headwind	-11.9346
▁bronze	-11.9346
▁mutant	-11.9346
▁baylor	-11.9346
▁jubila	-11.9346
▁reusable	-11.9346
▁BY	-11.9346
▁JO	-11.9346
▁albion	-11.9346
▁justifie	-11.9347
▁mimic	-11.9348
▁syntheti	-11.9355
control	-11.9492
▁chiranjeevi	-11.9554
▁contingency	-11.9554
▁dessert	-11.9554
▁deteriorate	-11.9554
▁eriksen	-11.9554
▁gbajabiamila	-11.9554
▁implicate	-11.9554
▁merseyside	-11.9554
▁nollywood	-11.9554
▁pagalpanti	-11.9554
▁poignant	-11.9554
▁rutgers	-11.9554
▁semifinal	-11.9554
▁stalemate	-11.9554
▁swastika	-11.9554
▁unfortunate	-11.9554
▁usfda	-11.9554
▁bilawal	-11.9554
▁empathy	-11.9554
▁mighty	-11.9554
▁reminisce	-11.9554
▁thorough	-11.9554
▁serkis	-11.9554
▁medicaid	-11.9554
▁savvy	-11.9554
▁superbug	-11.9554
▁parody	-11.9554
▁squash	-11.9554
▁outdated	-11.9554
▁dolby	-11.9554
▁teddy	-11.9555
▁stump	-11.9555
▁superior	-11.9555
▁extent	-11.9555
medieval	-11.9556
▁seminar	-11.9563
cycle	-11.969
▁hungar	-11.9734
▁procure	-11.9764
▁OECD	-11.9767
▁RHOA	-11.9767
▁aiadmk	-11.9767
▁applause	-11.9767
▁biscuit	-11.9767
▁bulawayo	-11.9767
▁convenience	-11.9767
▁disposal	-11.9767
▁epidemiologist	-11.9767
▁expulsion	-11.9767
▁fabulous	-11.9767
▁granddaughter	-11.9767
▁jeopardi	-11.9767
▁khamenei	-11.9767
▁magistrate	-11.9767
▁misunderstand	-11.9767
“	-13.6691
